{
  "version": "1.0",
  "truncation": null,
  "padding": null,
  "added_tokens": [
    {
      "id": 0,
      "content": "<|endoftext|>",
      "single_word": false,
      "lstrip": false,
      "rstrip": false,
      "normalized": false,
      "special": true
    },
    {
      "id": 1,
      "content": "<|pad|>",
      "single_word": false,
      "lstrip": false,
      "rstrip": false,
      "normalized": false,
      "special": true
    },
    {
      "id": 2,
      "content": "<|bos|>",
      "single_word": false,
      "lstrip": false,
      "rstrip": false,
      "normalized": false,
      "special": true
    }
  ],
  "normalizer": {
    "type": "NFKC"
  },
  "pre_tokenizer": {
    "type": "ByteLevel",
    "add_prefix_space": false,
    "trim_offsets": true,
    "use_regex": true
  },
  "post_processor": null,
  "decoder": {
    "type": "ByteLevel",
    "add_prefix_space": true,
    "trim_offsets": true,
    "use_regex": true
  },
  "model": {
    "type": "BPE",
    "dropout": null,
    "unk_token": "<|endoftext|>",
    "continuing_subword_prefix": null,
    "end_of_word_suffix": null,
    "fuse_unk": false,
    "byte_fallback": false,
    "ignore_merges": false,
    "vocab": {
      "<|endoftext|>": 0,
      "<|pad|>": 1,
      "<|bos|>": 2,
      "!": 3,
      "\"": 4,
      "#": 5,
      "$": 6,
      "%": 7,
      "&": 8,
      "'": 9,
      "(": 10,
      ")": 11,
      "*": 12,
      "+": 13,
      ",": 14,
      "-": 15,
      ".": 16,
      "/": 17,
      "0": 18,
      "1": 19,
      "2": 20,
      "3": 21,
      "4": 22,
      "5": 23,
      "6": 24,
      "7": 25,
      "8": 26,
      "9": 27,
      ":": 28,
      ";": 29,
      "<": 30,
      "=": 31,
      ">": 32,
      "?": 33,
      "@": 34,
      "A": 35,
      "B": 36,
      "C": 37,
      "D": 38,
      "E": 39,
      "F": 40,
      "G": 41,
      "H": 42,
      "I": 43,
      "J": 44,
      "K": 45,
      "L": 46,
      "M": 47,
      "N": 48,
      "O": 49,
      "P": 50,
      "Q": 51,
      "R": 52,
      "S": 53,
      "T": 54,
      "U": 55,
      "V": 56,
      "W": 57,
      "X": 58,
      "Y": 59,
      "Z": 60,
      "[": 61,
      "\\": 62,
      "]": 63,
      "^": 64,
      "_": 65,
      "`": 66,
      "a": 67,
      "b": 68,
      "c": 69,
      "d": 70,
      "e": 71,
      "f": 72,
      "g": 73,
      "h": 74,
      "i": 75,
      "j": 76,
      "k": 77,
      "l": 78,
      "m": 79,
      "n": 80,
      "o": 81,
      "p": 82,
      "q": 83,
      "r": 84,
      "s": 85,
      "t": 86,
      "u": 87,
      "v": 88,
      "w": 89,
      "x": 90,
      "y": 91,
      "z": 92,
      "{": 93,
      "|": 94,
      "}": 95,
      "~": 96,
      "¡": 97,
      "¢": 98,
      "£": 99,
      "¤": 100,
      "¥": 101,
      "¦": 102,
      "§": 103,
      "¨": 104,
      "©": 105,
      "ª": 106,
      "«": 107,
      "¬": 108,
      "®": 109,
      "¯": 110,
      "°": 111,
      "±": 112,
      "²": 113,
      "³": 114,
      "´": 115,
      "µ": 116,
      "¶": 117,
      "·": 118,
      "¸": 119,
      "¹": 120,
      "º": 121,
      "»": 122,
      "¼": 123,
      "½": 124,
      "¾": 125,
      "¿": 126,
      "Â": 127,
      "Ã": 128,
      "Ä": 129,
      "Å": 130,
      "È": 131,
      "É": 132,
      "Ê": 133,
      "Ë": 134,
      "Ì": 135,
      "Î": 136,
      "Ï": 137,
      "Ð": 138,
      "Ñ": 139,
      "×": 140,
      "Ø": 141,
      "Ù": 142,
      "Ú": 143,
      "Û": 144,
      "à": 145,
      "á": 146,
      "â": 147,
      "ã": 148,
      "ä": 149,
      "å": 150,
      "æ": 151,
      "ç": 152,
      "è": 153,
      "é": 154,
      "ï": 155,
      "ð": 156,
      "ā": 157,
      "Ă": 158,
      "Ć": 159,
      "Ĉ": 160,
      "ĉ": 161,
      "Ċ": 162,
      "Č": 163,
      "ę": 164,
      "Ġ": 165,
      "ġ": 166,
      "Ģ": 167,
      "ģ": 168,
      "Ĥ": 169,
      "ĥ": 170,
      "Ħ": 171,
      "ħ": 172,
      "Ĩ": 173,
      "ĩ": 174,
      "Ī": 175,
      "ī": 176,
      "Ĭ": 177,
      "ĭ": 178,
      "Į": 179,
      "į": 180,
      "İ": 181,
      "ı": 182,
      "Ĳ": 183,
      "ĳ": 184,
      "Ĵ": 185,
      "ĵ": 186,
      "Ķ": 187,
      "ķ": 188,
      "ĸ": 189,
      "Ĺ": 190,
      "ĺ": 191,
      "Ļ": 192,
      "ļ": 193,
      "Ľ": 194,
      "ľ": 195,
      "Ŀ": 196,
      "ŀ": 197,
      "Ł": 198,
      "ł": 199,
      "Ń": 200,
      "ĠĠ": 201,
      "in": 202,
      "Ġt": 203,
      "Ġa": 204,
      "er": 205,
      "on": 206,
      "re": 207,
      "at": 208,
      "en": 209,
      "ĠĠĠĠ": 210,
      "Ġs": 211,
      "Ġc": 212,
      "Ġth": 213,
      "es": 214,
      "or": 215,
      "al": 216,
      "is": 217,
      "it": 218,
      "Ġp": 219,
      "ion": 220,
      "ing": 221,
      "le": 222,
      "an": 223,
      "Ġf": 224,
      "Ġthe": 225,
      "ro": 226,
      "Ġm": 227,
      "ĠĠĠ": 228,
      "Ġan": 229,
      "ed": 230,
      "Ġw": 231,
      "ar": 232,
      "Ġd": 233,
      "ic": 234,
      "Ġb": 235,
      "ent": 236,
      "as": 237,
      "Ġre": 238,
      "us": 239,
      "Ġin": 240,
      "ct": 241,
      "Ġo": 242,
      "Ġe": 243,
      "--": 244,
      "Ġand": 245,
      "ut": 246,
      "et": 247,
      "ĊĠĠĠĠ": 248,
      "im": 249,
      "st": 250,
      "Ġto": 251,
      "id": 252,
      "Ġn": 253,
      "om": 254,
      "lo": 255,
      "Ġh": 256,
      "**": 257,
      "ation": 258,
      "ac": 259,
      "ou": 260,
      "ĊĠĠĠ": 261,
      "el": 262,
      "Ġst": 263,
      "il": 264,
      "Ġ=": 265,
      "if": 266,
      "Ġcon": 267,
      "Ġis": 268,
      "ig": 269,
      "iv": 270,
      "ol": 271,
      "Ġ(": 272,
      "Ġof": 273,
      "ate": 274,
      "qu": 275,
      "ra": 276,
      "he": 277,
      "Ġfor": 278,
      "Ġl": 279,
      "ly": 280,
      "ep": 281,
      "ul": 282,
      "ot": 283,
      "ĠI": 284,
      "un": 285,
      "Ġ\\": 286,
      "ur": 287,
      "Ġv": 288,
      "am": 289,
      "od": 290,
      "ith": 291,
      "ist": 292,
      "âĢ": 293,
      "ĠT": 294,
      "ment": 295,
      "|>": 296,
      "<|": 297,
      "Ġpro": 298,
      "ce": 299,
      "ĊĠĠĠĠĠĠĠ": 300,
      "ad": 301,
      "ter": 302,
      "ec": 303,
      "pp": 304,
      "Ġwith": 305,
      "Ġex": 306,
      "ab": 307,
      "Ġg": 308,
      "est": 309,
      "end": 310,
      "th": 311,
      "ge": 312,
      "ĠA": 313,
      "ver": 314,
      "ect": 315,
      "um": 316,
      "``": 317,
      "----": 318,
      "ity": 319,
      "ĊĠĠĠĠĠĠĠĠ": 320,
      "ĊĠ": 321,
      "ow": 322,
      "ant": 323,
      "res": 324,
      "em": 325,
      "Ġwh": 326,
      "Ġon": 327,
      "Ġ`": 328,
      "Ġ1": 329,
      "ĠS": 330,
      "ĠC": 331,
      "Ġr": 332,
      "Ġ{": 333,
      "ch": 334,
      "Ġ-": 335,
      "ain": 336,
      "pl": 337,
      "ple": 338,
      "Ġcom": 339,
      "se": 340,
      "ass": 341,
      "Ġor": 342,
      "pt": 343,
      "ess": 344,
      "ke": 345,
      "ers": 346,
      "ive": 347,
      "ex": 348,
      "ort": 349,
      "Ġal": 350,
      "igh": 351,
      "##": 352,
      "ef": 353,
      "ri": 354,
      "Ġ\"": 355,
      "Ġas": 356,
      "iz": 357,
      "Ġthat": 358,
      "ay": 359,
      "Ġus": 360,
      "ir": 361,
      "ts": 362,
      "Ġit": 363,
      "ve": 364,
      "ĠP": 365,
      "rom": 366,
      "ore": 367,
      "ions": 368,
      "Ġthis": 369,
      "Ġne": 370,
      "os": 371,
      "and": 372,
      "ure": 373,
      ");": 374,
      "Ġ\\(": 375,
      "ine": 376,
      "Ġ}": 377,
      "ue": 378,
      "ical": 379,
      "Ġ**": 380,
      "ach": 381,
      "ies": 382,
      "Ġlo": 383,
      "Ġsh": 384,
      "Ġbe": 385,
      "Ġif": 386,
      "Ġme": 387,
      "ĠR": 388,
      "Ġsu": 389,
      "ld": 390,
      "\\)": 391,
      "ath": 392,
      "oun": 393,
      "Ġare": 394,
      "Ġy": 395,
      "ĠThe": 396,
      "St": 397,
      "ial": 398,
      "Ġim": 399,
      "ire": 400,
      "ap": 401,
      "Ġ2": 402,
      "able": 403,
      "out": 404,
      "Ġtr": 405,
      "cl": 406,
      "age": 407,
      "ck": 408,
      "ĠD": 409,
      "Ġ0": 410,
      "Ġby": 411,
      "Ġfrom": 412,
      "ĊĠĠĠĠĠĠĠĠĠĠĠ": 413,
      "ust": 414,
      "Ġapp": 415,
      "Ġ+": 416,
      "per": 417,
      "ction": 418,
      "fer": 419,
      "Ġle": 420,
      "art": 421,
      "ĠE": 422,
      "```": 423,
      "Ġ[": 424,
      "user": 425,
      "Ġun": 426,
      "Ġ<": 427,
      "ight": 428,
      "ould": 429,
      "wer": 430,
      "Ġch": 431,
      "ud": 432,
      "ence": 433,
      "Ġint": 434,
      "ĠB": 435,
      "up": 436,
      "ag": 437,
      "Ġcan": 438,
      "Ġstr": 439,
      "ib": 440,
      "act": 441,
      "ere": 442,
      "Ġat": 443,
      "ack": 444,
      "Ġcont": 445,
      "der": 446,
      "ard": 447,
      "ult": 448,
      "are": 449,
      "Ġqu": 450,
      "ase": 451,
      "Ġcl": 452,
      "--------": 453,
      "istant": 454,
      "Ġrequ": 455,
      "ext": 456,
      "ink": 457,
      "ug": 458,
      "Ġres": 459,
      "int": 460,
      "ĠF": 461,
      "assistant": 462,
      "inal": 463,
      "Ġnot": 464,
      "ĊĠĠĠĠĠ": 465,
      "ĠM": 466,
      "ime": 467,
      "yp": 468,
      "Ġ'": 469,
      "orm": 470,
      "ĠN": 471,
      "port": 472,
      "ork": 473,
      "ode": 474,
      "du": 475,
      "cc": 476,
      "ile": 477,
      "Ġcons": 478,
      "ens": 479,
      "urn": 480,
      ").": 481,
      "swer": 482,
      "Ġcomp": 483,
      "op": 484,
      "Ġad": 485,
      "ient": 486,
      "Ġyou": 487,
      "ost": 488,
      "Ġret": 489,
      "00": 490,
      "all": 491,
      "ĠĠĠĠĠĠĠĠ": 492,
      "âĢĻ": 493,
      "ĠH": 494,
      "Ġwe": 495,
      "enc": 496,
      "ys": 497,
      "ff": 498,
      "Step": 499,
      "ments": 500,
      "ated": 501,
      "ign": 502,
      "Ġ/": 503,
      "ations": 504,
      "Ġro": 505,
      "ame": 506,
      "Ġconst": 507,
      "..": 508,
      "ind": 509,
      "Ġma": 510,
      "ata": 511,
      "ail": 512,
      "Ġsc": 513,
      "oc": 514,
      "Ġanswer": 515,
      "Let": 516,
      "()": 517,
      "ress": 518,
      "Ġse": 519,
      "\",": 520,
      "Ġev": 521,
      "ans": 522,
      "Th": 523,
      "ĊĊĠĠĠ": 524,
      "low": 525,
      "ize": 526,
      "Ġneed": 527,
      "av": 528,
      "ous": 529,
      "Ġab": 530,
      "Ġ3": 531,
      "Ġappro": 532,
      "ide": 533,
      "ĠO": 534,
      "Ġreturn": 535,
      "Ġsp": 536,
      "ĠâĢ": 537,
      "=\"": 538,
      "Ġval": 539,
      "con": 540,
      "ice": 541,
      "Ġpre": 542,
      "ser": 543,
      "aus": 544,
      "Ġsy": 545,
      "ider": 546,
      "),": 547,
      "The": 548,
      "ll": 549,
      "ew": 550,
      "iffer": 551,
      ":**": 552,
      "Ġar": 553,
      "ason": 554,
      "Ġsol": 555,
      "ance": 556,
      "ary": 557,
      "Ġ*": 558,
      "ĠW": 559,
      "ph": 560,
      "Ġpr": 561,
      "Ġke": 562,
      "ution": 563,
      "ĠL": 564,
      "ok": 565,
      "ĊĠĠ": 566,
      "ill": 567,
      "ble": 568,
      "com": 569,
      "elf": 570,
      "---": 571,
      "Ġsim": 572,
      "put": 573,
      "ility": 574,
      "str": 575,
      "ugh": 576,
      "Ġpl": 577,
      "ast": 578,
      "ates": 579,
      "ify": 580,
      "ory": 581,
      "Final": 582,
      "Ġbut": 583,
      "Ġrequire": 584,
      "rough": 585,
      "eg": 586,
      "ject": 587,
      "rit": 588,
      "ĠTh": 589,
      "ip": 590,
      "Ġdiffer": 591,
      "ĠG": 592,
      "Ġacc": 593,
      "clud": 594,
      "âĢĿ": 595,
      "ace": 596,
      "ang": 597,
      "ds": 598,
      "Ġwork": 599,
      "ub": 600,
      "ari": 601,
      "nt": 602,
      "###": 603,
      "our": 604,
      "Ġmet": 605,
      "Ġdis": 606,
      "Ġk": 607,
      "ĠU": 608,
      "Ġmod": 609,
      "Ġfun": 610,
      "Ġout": 611,
      "ĠâĢľ": 612,
      "ev": 613,
      "ause": 614,
      "Ġ5": 615,
      "ors": 616,
      "Ġen": 617,
      "uct": 618,
      "Ġj": 619,
      "Ġdef": 620,
      "Ġ4": 621,
      "Ġstep": 622,
      "one": 623,
      "form": 624,
      "log": 625,
      "rad": 626,
      "âĶ": 627,
      "ong": 628,
      "Ġall": 629,
      "Ġthrough": 630,
      "Ġper": 631,
      "pro": 632,
      "Ġconsider": 633,
      "Ġexp": 634,
      "Ġapproach": 635,
      "arg": 636,
      "stem": 637,
      "Ġ|": 638,
      "ĠIn": 639,
      "Ġshould": 640,
      "Ġli": 641,
      "og": 642,
      "val": 643,
      "Ġinter": 644,
      "ype": 645,
      "ition": 646,
      "ms": 647,
      "ict": 648,
      "Ġbec": 649,
      "Ġhas": 650,
      "Ġtime": 651,
      "ely": 652,
      "ints": 653,
      "fter": 654,
      "ific": 655,
      "(\"": 656,
      "Ġmat": 657,
      "Ġdifferent": 658,
      "ĠĠĠĠĠĠĠ": 659,
      "Ġabout": 660,
      "ma": 661,
      "ics": 662,
      "ount": 663,
      "ample": 664,
      "Ġhe": 665,
      "ry": 666,
      "ases": 667,
      "te": 668,
      "Ġtest": 669,
      "fr": 670,
      "pon": 671,
      "Ġdata": 672,
      "ia": 673,
      "Ġup": 674,
      "ual": 675,
      "Ġdo": 676,
      "Ġsolution": 677,
      "Ġwhat": 678,
      "This": 679,
      "_{": 680,
      "ak": 681,
      "</": 682,
      "ption": 683,
      "Ġha": 684,
      "\\[": 685,
      "oth": 686,
      "\\]": 687,
      "Ġproble": 688,
      "Con": 689,
      "ery": 690,
      "Ġreason": 691,
      "Ġid": 692,
      "ell": 693,
      "ror": 694,
      "Ġclass": 695,
      "ents": 696,
      "Ġkey": 697,
      "Ġ#": 698,
      "Ġcomple": 699,
      "ative": 700,
      "ft": 701,
      "Ġpat": 702,
      "Ġset": 703,
      "Ġusing": 704,
      "}{": 705,
      "Ġso": 706,
      "Ġ$": 707,
      "frac": 708,
      "heck": 709,
      "les": 710,
      "Ġadd": 711,
      "own": 712,
      "irst": 713,
      "In": 714,
      "nal": 715,
      "so": 716,
      "'s": 717,
      "Ġx": 718,
      "ild": 719,
      "ased": 720,
      "hat": 721,
      "ram": 722,
      "ener": 723,
      "ability": 724,
      "To": 725,
      "ities": 726,
      "Ġman": 727,
      "ss": 728,
      "ich": 729,
      "ĠSt": 730,
      "Ġsystem": 731,
      "Ġinto": 732,
      "\":": 733,
      "ord": 734,
      "Ġser": 735,
      "Ġob": 736,
      "Ġinclud": 737,
      "Ġnew": 738,
      "cre": 739,
      "yth": 740,
      "Ġtrans": 741,
      "----------------": 742,
      "ĊĠĠĠĠĠĠĠĠĠĠĠĠĠĠĠ": 743,
      "\")": 744,
      "Ġself": 745,
      "cal": 746,
      "Ġanal": 747,
      "Ġdes": 748,
      "Ġpos": 749,
      "plement": 750,
      "Ġthink": 751,
      "Ġbecause": 752,
      "plic": 753,
      "Ġfunction": 754,
      "vel": 755,
      "ating": 756,
      "Ġeach": 757,
      "Ġdep": 758,
      "text": 759,
      "Ġhow": 760,
      "po": 761,
      "bo": 762,
      "ically": 763,
      "tain": 764,
      "Ġcol": 765,
      "ese": 766,
      "Ġlog": 767,
      "sum": 768,
      "Ġover": 769,
      "ysis": 770,
      "to": 771,
      "Ġrel": 772,
      "Ġem": 773,
      "sp": 774,
      "cri": 775,
      "yn": 776,
      "Ġone": 777,
      "Ġlike": 778,
      "`,": 779,
      "urre": 780,
      "Ġpar": 781,
      "Ġde": 782,
      "Ġrec": 783,
      "ute": 784,
      "isk": 785,
      "oid": 786,
      "],": 787,
      "**:": 788,
      "ĠEx": 789,
      "...": 790,
      "think": 791,
      "Ġ&": 792,
      "ept": 793,
      "Ġuse": 794,
      "Ġcre": 795,
      "over": 796,
      "umb": 797,
      "ives": 798,
      "Ġwhen": 799,
      "ash": 800,
      "Ġpath": 801,
      "idence": 802,
      "Ġsub": 803,
      "ency": 804,
      "efore": 805,
      "Ġcases": 806,
      "plain": 807,
      "lock": 808,
      "Ġstate": 809,
      "Ġfe": 810,
      "^{": 811,
      "mat": 812,
      "Ġind": 813,
      "Ġele": 814,
      "app": 815,
      "we": 816,
      "Ġhave": 817,
      "Ġconf": 818,
      "ible": 819,
      "ĠV": 820,
      "ome": 821,
      "Ġquest": 822,
      "Ġpo": 823,
      "ree": 824,
      "row": 825,
      "):": 826,
      "Ġdet": 827,
      "Ġcor": 828,
      "Ġhand": 829,
      "Ġ//": 830,
      "Ġbu": 831,
      "Ġph": 832,
      "ound": 833,
      "imit": 834,
      "',": 835,
      "ĠCon": 836,
      "ures": 837,
      "âĶĢ": 838,
      "Ġno": 839,
      "iew": 840,
      "Ġcomm": 841,
      "cess": 842,
      "Ġprov": 843,
      "ise": 844,
      "get": 845,
      "read": 846,
      "Ġcheck": 847,
      "Ġdec": 848,
      "Ġmin": 849,
      "set": 850,
      "Ġstart": 851,
      "Ġlet": 852,
      "af": 853,
      "Ġer": 854,
      "Ġ6": 855,
      "ĠJ": 856,
      "Ġvari": 857,
      "Ġwhile": 858,
      "Ġag": 859,
      "Ġrem": 860,
      "ract": 861,
      "Ġbet": 862,
      "lic": 863,
      "ther": 864,
      "ange": 865,
      "Ġhigh": 866,
      "Ġwhich": 867,
      "Ġmult": 868,
      "Ġreal": 869,
      "Ġed": 870,
      "Ġinf": 871,
      "Ġdist": 872,
      "ten": 873,
      "Ġ->": 874,
      "ection": 875,
      "Ġmodel": 876,
      "erm": 877,
      "ull": 878,
      "hod": 879,
      "Ġprodu": 880,
      "Ġonly": 881,
      "Ġuser": 882,
      "vent": 883,
      "Ġconstra": 884,
      "Ġmore": 885,
      "ix": 886,
      "pect": 887,
      "ument": 888,
      "Ġthese": 889,
      "Ġwould": 890,
      "io": 891,
      "Ġeff": 892,
      "import": 893,
      "ite": 894,
      "Ġfirst": 895,
      "ython": 896,
      "name": 897,
      "Ġcode": 898,
      "atic": 899,
      "$$": 900,
      "ues": 901,
      "Ġaut": 902,
      "Ġalso": 903,
      "ark": 904,
      "Ġstruct": 905,
      "of": 906,
      "ilar": 907,
      "reat": 908,
      "ĠIf": 909,
      "ular": 910,
      "usion": 911,
      "Ġvalid": 912,
      "Ġgener": 913,
      "ateg": 914,
      "ays": 915,
      "Ġequ": 916,
      "old": 917,
      "ces": 918,
      "Ġsupp": 919,
      "Ġever": 920,
      "ps": 921,
      "Re": 922,
      "].": 923,
      "und": 924,
      "Ġâ": 925,
      "âĢĲ": 926,
      "Ġshow": 927,
      "urrent": 928,
      "__": 929,
      "math": 930,
      "tern": 931,
      "Ġtw": 932,
      "ĊĠĠĠĠĠĠĠĠĠĠĠĠĠĠĠĠ": 933,
      "Ġthey": 934,
      "ask": 935,
      "Ġact": 936,
      "Ġrequirements": 937,
      "ential": 938,
      "::": 939,
      "Ġsimilar": 940,
      "Ġmethod": 941,
      "ization": 942,
      "\">": 943,
      "Ġnumb": 944,
      "Ġ==": 945,
      "Ġconstraints": 946,
      "ced": 947,
      "js": 948,
      "Ġrisk": 949,
      "gh": 950,
      "Ġrun": 951,
      "Ġ\\(\\": 952,
      "Ġreg": 953,
      "ose": 954,
      "Ġform": 955,
      "pos": 956,
      "Ġ8": 957,
      "Ġcase": 958,
      "Ġmulti": 959,
      "comm": 960,
      "PI": 961,
      "Ġmak": 962,
      "ings": 963,
      "Ġel": 964,
      "}\\": 965,
      "Ġav": 966,
      "ough": 967,
      "Ġmain": 968,
      "line": 969,
      "sh": 970,
      "Ġpatient": 971,
      "Ġproblem": 972,
      "Ġcomplex": 973,
      "ake": 974,
      "tr": 975,
      "Ġsec": 976,
      "ness": 977,
      "Ġcorre": 978,
      "iel": 979,
      "Ġimplement": 980,
      "ful": 981,
      "def": 982,
      "ob": 983,
      "eng": 984,
      "ized": 985,
      "Ġ:": 986,
      "Ġimport": 987,
      "'ll": 988,
      "iss": 989,
      "Ġopt": 990,
      "add": 991,
      "Ġthan": 992,
      "load": 993,
      "lect": 994,
      "Ġtrue": 995,
      "Ġunder": 996,
      "Ġyour": 997,
      "led": 998,
      "Ġmay": 999,
      "irect": 1000,
      "ĠPro": 1001,
      "Ġmost": 1002,
      "ick": 1003,
      "Ġgo": 1004,
      "Ġtwo": 1005,
      "Ġ7": 1006,
      "rem": 1007,
      "Ġother": 1008,
      "\\),": 1009,
      "ĠK": 1010,
      "Ġconc": 1011,
      "Ġmust": 1012,
      "ator": 1013,
      "Ġredu": 1014,
      "Ġ>": 1015,
      "Ġfail": 1016,
      "her": 1017,
      "Ġrespon": 1018,
      "ĠĊ": 1019,
      "ci": 1020,
      "Ġback": 1021,
      "Ġthen": 1022,
      "Ġident": 1023,
      "Ex": 1024,
      "Ġco": 1025,
      "Ġits": 1026,
      "ish": 1027,
      "rol": 1028,
      "ling": 1029,
      "))": 1030,
      "Ġ10": 1031,
      "Ġspec": 1032,
      "Id": 1033,
      "Ġinteg": 1034,
      "vice": 1035,
      "Ġhel": 1036,
      "its": 1037,
      "Ġkn": 1038,
      "Ġpers": 1039,
      "Ġvalue": 1040,
      "ples": 1041,
      "`.": 1042,
      "\\).": 1043,
      "rib": 1044,
      "for": 1045,
      "ĊĊĠĠĠĠĠĠĠ": 1046,
      "Ġwill": 1047,
      "Ġpart": 1048,
      "ices": 1049,
      "time": 1050,
      "Ġfol": 1051,
      "\"\"": 1052,
      "Ġhere": 1053,
      "Ġ=>": 1054,
      "Ġsm": 1055,
      "ER": 1056,
      "Ġdi": 1057,
      "Ġinclude": 1058,
      "Ġquery": 1059,
      "ne": 1060,
      "Ġline": 1061,
      "atus": 1062,
      "clusion": 1063,
      "=\\": 1064,
      "Ġmakes": 1065,
      "Ġlimit": 1066,
      "ule": 1067,
      "Ġi": 1068,
      "Ġver": 1069,
      "ĊĊĠ": 1070,
      "raph": 1071,
      "rite": 1072,
      "Ġsupport": 1073,
      "Ġ.": 1074,
      "tt": 1075,
      "Ġnon": 1076,
      "Ġread": 1077,
      "Ġsuch": 1078,
      "ove": 1079,
      "path": 1080,
      "als": 1081,
      "eta": 1082,
      "Ġinv": 1083,
      "ĊĠĠĠĠĠĠĠĠĠ": 1084,
      "Ġevidence": 1085,
      "After": 1086,
      "Ġtype": 1087,
      "order": 1088,
      "Ġaddress": 1089,
      "Ġinst": 1090,
      "Ġcle": 1091,
      "Ġ--": 1092,
      "ally": 1093,
      "Ġpol": 1094,
      "Ġac": 1095,
      "ech": 1096,
      "erg": 1097,
      "off": 1098,
      "Ġfollow": 1099,
      "Ġcorrect": 1100,
      "Ġu": 1101,
      "Ġexper": 1102,
      "Ġsever": 1103,
      "Ġbo": 1104,
      "Ġarg": 1105,
      "Ġproper": 1106,
      "pre": 1107,
      "ĠIt": 1108,
      "Ġnumber": 1109,
      "Ġwhere": 1110,
      "que": 1111,
      "('": 1112,
      "Ġthem": 1113,
      "Ġfl": 1114,
      "();": 1115,
      "âĶĢâĶĢ": 1116,
      "Ġwant": 1117,
      "ustom": 1118,
      "itive": 1119,
      "Ġprog": 1120,
      "ĠThis": 1121,
      "Ġext": 1122,
      ".,": 1123,
      "ault": 1124,
      "Ġend": 1125,
      "ages": 1126,
      "Ġany": 1127,
      "ĠFor": 1128,
      "ĠCom": 1129,
      "Ġ9": 1130,
      "Ġ</": 1131,
      "Ġexample": 1132,
      "Ġapproaches": 1133,
      "'m": 1134,
      "Ġanalysis": 1135,
      "alse": 1136,
      "round": 1137,
      "Ġobject": 1138,
      "Ġedge": 1139,
      "ear": 1140,
      "pr": 1141,
      "ved": 1142,
      "Ġent": 1143,
      "Ġassum": 1144,
      "Ġtra": 1145,
      "Ġcare": 1146,
      "ism": 1147,
      "imes": 1148,
      "Ġrequest": 1149,
      "Ġins": 1150,
      "Ġquestions": 1151,
      "ource": 1152,
      "Ġvers": 1153,
      "ounts": 1154,
      "Ġreasoning": 1155,
      "ier": 1156,
      "ves": 1157,
      "Ġcould": 1158,
      "Ġref": 1159,
      "Ġprocess": 1160,
      "ality": 1161,
      "Ġdoes": 1162,
      "rid": 1163,
      "Ġget": 1164,
      "sc": 1165,
      "Ġrequired": 1166,
      "ĠY": 1167,
      "Ġoper": 1168,
      "ond": 1169,
      "Ġplan": 1170,
      "Ġsaf": 1171,
      "col": 1172,
      "div": 1173,
      "Ġpres": 1174,
      "Ġstrateg": 1175,
      "ior": 1176,
      "Ġsign": 1177,
      "Ġra": 1178,
      "los": 1179,
      "Ġtreat": 1180,
      "roup": 1181,
      "min": 1182,
      "dd": 1183,
      "Ġafter": 1184,
      "ross": 1185,
      "back": 1186,
      "ining": 1187,
      "Ġjust": 1188,
      "ning": 1189,
      "Ġwhy": 1190,
      "Ġthere": 1191,
      "ead": 1192,
      "Ġwithout": 1193,
      "ĠAn": 1194,
      "xim": 1195,
      "ween": 1196,
      "Ġmake": 1197,
      "Ġrep": 1198,
      "Ġdesign": 1199,
      "Ġevery": 1200,
      "met": 1201,
      "âĢĵ": 1202,
      "==": 1203,
      "ied": 1204,
      "ron": 1205,
      "ait": 1206,
      "Ġdepend": 1207,
      "ected": 1208,
      "ton": 1209,
      "ists": 1210,
      "Ġmy": 1211,
      "Ġfil": 1212,
      "ormal": 1213,
      "Ġboth": 1214,
      "arget": 1215,
      "Ġmon": 1216,
      "ength": 1217,
      "itions": 1218,
      "Ġsat": 1219,
      "ync": 1220,
      "Ġproblems": 1221,
      "(\\": 1222,
      "reak": 1223,
      "Ġposs": 1224,
      "Ġeffect": 1225,
      "ook": 1226,
      "edi": 1227,
      "Pro": 1228,
      "ature": 1229,
      "ables": 1230,
      "atch": 1231,
      "self": 1232,
      "iven": 1233,
      "What": 1234,
      "gg": 1235,
      "Ġproof": 1236,
      "Ġcontin": 1237,
      "commend": 1238,
      "//": 1239,
      "dict": 1240,
      "Ġbas": 1241,
      "requ": 1242,
      "';": 1243,
      "rade": 1244,
      "Ġsame": 1245,
      "Ġsome": 1246,
      "olds": 1247,
      "ration": 1248,
      "->": 1249,
      "ward": 1250,
      "cept": 1251,
      "itial": 1252,
      "ters": 1253,
      "Ġdirect": 1254,
      "Ġhelp": 1255,
      "Ġprint": 1256,
      "Ġdem": 1257,
      "Ġbefore": 1258,
      "Ġbetween": 1259,
      "andard": 1260,
      "par": 1261,
      "eline": 1262,
      "Ġsum": 1263,
      "Ġerror": 1264,
      "lam": 1265,
      "cle": 1266,
      ",\\": 1267,
      "Ġresult": 1268,
      "not": 1269,
      "py": 1270,
      "ences": 1271,
      "ines": 1272,
      "ting": 1273,
      "ody": 1274,
      "Ġright": 1275,
      "uth": 1276,
      "Ġdr": 1277,
      "ulation": 1278,
      "Ġens": 1279,
      "Ġcreate": 1280,
      "Ġstring": 1281,
      "Ġbeh": 1282,
      "Anal": 1283,
      "date": 1284,
      "ĊĊ": 1285,
      "mathb": 1286,
      "ield": 1287,
      "ST": 1288,
      "Ġz": 1289,
      "Ġlong": 1290,
      "Ġinput": 1291,
      "Ġlead": 1292,
      "Ġorder": 1293,
      "Ġmultiple": 1294,
      "ification": 1295,
      "ring": 1296,
      "essage": 1297,
      "Ġatt": 1298,
      "Ġcontrol": 1299,
      "wn": 1300,
      "cript": 1301,
      "Ġexam": 1302,
      "Ġstructure": 1303,
      "ON": 1304,
      "Ġder": 1305,
      "ination": 1306,
      "Ġask": 1307,
      "ty": 1308,
      "uring": 1309,
      "umn": 1310,
      "Ġgu": 1311,
      "rics": 1312,
      "Ġmem": 1313,
      "Ġlocal": 1314,
      "Ġfact": 1315,
      "ational": 1316,
      "imal": 1317,
      "ingle": 1318,
      "Ġoften": 1319,
      "ides": 1320,
      "Ġbuild": 1321,
      "Ġrecommend": 1322,
      "ctions": 1323,
      "size": 1324,
      "}.": 1325,
      "px": 1326,
      "ains": 1327,
      "rror": 1328,
      "Ġcomplexity": 1329,
      "cer": 1330,
      "mpt": 1331,
      "Ġchang": 1332,
      ".**": 1333,
      "Ġcal": 1334,
      "ems": 1335,
      "Ġincre": 1336,
      "fig": 1337,
      "ĠApp": 1338,
      "ins": 1339,
      "RE": 1340,
      ">**": 1341,
      "Ġsmall": 1342,
      "âĢĶ": 1343,
      "term": 1344,
      "Ġhandling": 1345,
      "right": 1346,
      "Ġfram": 1347,
      ")\\": 1348,
      "Ġlook": 1349,
      "ires": 1350,
      "Ġtext": 1351,
      "Ġdel": 1352,
      "Ġsimple": 1353,
      "esign": 1354,
      "value": 1355,
      "Ġant": 1356,
      "Ġsize": 1357,
      "ache": 1358,
      "const": 1359,
      "ream": 1360,
      "Ġfile": 1361,
      "Ġcompar": 1362,
      "Ġ...": 1363,
      "ety": 1364,
      "ĠRe": 1365,
      "ĠAPI": 1366,
      "isf": 1367,
      "vers": 1368,
      "LE": 1369,
      "Ġkeep": 1370,
      "Ġelements": 1371,
      "type": 1372,
      "Ġtyp": 1373,
      ")=": 1374,
      "Ġevent": 1375,
      "If": 1376,
      "head": 1377,
      "For": 1378,
      "tal": 1379,
      "Ġcurrent": 1380,
      "ĠHow": 1381,
      "ta": 1382,
      "IN": 1383,
      "ublic": 1384,
      "Ġmany": 1385,
      "ilities": 1386,
      "erefore": 1387,
      "ĠâĨ": 1388,
      "view": 1389,
      "based": 1390,
      "urs": 1391,
      "ocus": 1392,
      "abel": 1393,
      "Ġresponse": 1394,
      "Ġsatisf": 1395,
      "Ġsur": 1396,
      "ibility": 1397,
      "Ġpattern": 1398,
      "ually": 1399,
      "rc": 1400,
      "Ġtheir": 1401,
      "Ġimm": 1402,
      "da": 1403,
      "Ġte": 1404,
      "from": 1405,
      "Ġcompon": 1406,
      "mod": 1407,
      "Ġenc": 1408,
      "oring": 1409,
      "Ġagain": 1410,
      "Ġimplementation": 1411,
      "Ġname": 1412,
      "Ġ*/": 1413,
      "istic": 1414,
      "Ġoutput": 1415,
      "Ġlist": 1416,
      "Ġclear": 1417,
      "Ġknow": 1418,
      "pen": 1419,
      "Ġexact": 1420,
      "rior": 1421,
      "Ġvalues": 1422,
      "yt": 1423,
      "Ġcho": 1424,
      "ĠNone": 1425,
      "'ve": 1426,
      "just": 1427,
      "ern": 1428,
      "utes": 1429,
      "plan": 1430,
      "olog": 1431,
      "indow": 1432,
      "ique": 1433,
      "plicit": 1434,
      "Ġtreatment": 1435,
      "Ġass": 1436,
      "12": 1437,
      "Ġsyn": 1438,
      "10": 1439,
      "So": 1440,
      "Ġdown": 1441,
      "Ġblock": 1442,
      "onstr": 1443,
      "Ġstandard": 1444,
      "agn": 1445,
      "Reason": 1446,
      "ined": 1447,
      "Ġ)": 1448,
      "left": 1449,
      "fun": 1450,
      "Ġsingle": 1451,
      "dot": 1452,
      "Ġtem": 1453,
      "pare": 1454,
      "ults": 1455,
      "Ġlow": 1456,
      "000": 1457,
      "key": 1458,
      "ince": 1459,
      "ĠâĨĴ": 1460,
      "Ġcrit": 1461,
      "Ġcore": 1462,
      "Ġlat": 1463,
      "Ġbehav": 1464,
      "ĠWhat": 1465,
      "Ġavoid": 1466,
      "ĠUse": 1467,
      "Ġholds": 1468,
      "Ġmean": 1469,
      "ole": 1470,
      "ĠWh": 1471,
      "Ġcond": 1472,
      "chi": 1473,
      "data": 1474,
      "Conclusion": 1475,
      "duct": 1476,
      "Ġhead": 1477,
      "Reasoning": 1478,
      "Ġam": 1479,
      "ving": 1480,
      "aving": 1481,
      "ey": 1482,
      "cket": 1483,
      "Ġaccounts": 1484,
      "ĠPython": 1485,
      "acy": 1486,
      "Ġmark": 1487,
      "ript": 1488,
      "Analysis": 1489,
      "air": 1490,
      "cul": 1491,
      "Ġclar": 1492,
      "Error": 1493,
      "Ġbound": 1494,
      "red": 1495,
      "ision": 1496,
      "Ġdoc": 1497,
      "lex": 1498,
      "Ġquestion": 1499,
      "SS": 1500,
      "resh": 1501,
      "Ġrow": 1502,
      "ptional": 1503,
      "Ġown": 1504,
      "Ġmight": 1505,
      "Ġprin": 1506,
      "Ġcareful": 1507,
      "wh": 1508,
      "clude": 1509,
      "icy": 1510,
      "Ġproduct": 1511,
      "be": 1512,
      "ner": 1513,
      "ever": 1514,
      "loy": 1515,
      "Ġrate": 1516,
      "Ġchar": 1517,
      "part": 1518,
      "reate": 1519,
      "Ġscript": 1520,
      "apt": 1521,
      "Ġcap": 1522,
      "Ġtotal": 1523,
      "ric": 1524,
      "Ġimpro": 1525,
      "Ġwas": 1526,
      "Ġeven": 1527,
      "Ġconfig": 1528,
      "Ġfind": 1529,
      "Ġcustom": 1530,
      "Ġnode": 1531,
      "Ġwor": 1532,
      "Ġtok": 1533,
      "Ġlevel": 1534,
      "work": 1535,
      "Ġtry": 1536,
      "ĠExplain": 1537,
      "Ġpass": 1538,
      "Ġstore": 1539,
      "andom": 1540,
      "AT": 1541,
      "ptions": 1542,
      "ights": 1543,
      "Ġderiv": 1544,
      "ren": 1545,
      "bda": 1546,
      "Ġspace": 1547,
      "aw": 1548,
      "ccess": 1549,
      "Ġtrade": 1550,
      "class": 1551,
      "Ġ!": 1552,
      "Based": 1553,
      "vir": 1554,
      "Ġbreak": 1555,
      "Ġdemonstr": 1556,
      "reg": 1557,
      "Ġless": 1558,
      "ĠQ": 1559,
      "other": 1560,
      "ĊĠĠĠĠĠĠĠĠĠĠĠĠĠĠĠĠĠĠĠ": 1561,
      "sy": 1562,
      "osis": 1563,
      "gor": 1564,
      "Ġpredict": 1565,
      "pi": 1566,
      "enari": 1567,
      "ĠĠĠĠĠ": 1568,
      "gorith": 1569,
      "ran": 1570,
      "Ġ},": 1571,
      "Ġrequires": 1572,
      "--------------------------------": 1573,
      "Ġelse": 1574,
      "ral": 1575,
      "Ġmatch": 1576,
      "Ġsit": 1577,
      "Ġagainst": 1578,
      "hemat": 1579,
      "Ġtim": 1580,
      "-\\": 1581,
      "ests": 1582,
      "Ġfailure": 1583,
      "yle": 1584,
      "ules": 1585,
      "Ġaw": 1586,
      "Ġdom": 1587,
      "Ġtool": 1588,
      "Ġstrong": 1589,
      "Ġvia": 1590,
      "ounter": 1591,
      "Ġchange": 1592,
      "ience": 1593,
      "Ġshows": 1594,
      "Ġseveral": 1595,
      "Ġcount": 1596,
      "ging": 1597,
      "Ġchanges": 1598,
      ".</": 1599,
      "spec": 1600,
      "play": 1601,
      "Ġrig": 1602,
      "Ġdisc": 1603,
      "Ġexplicit": 1604,
      "epend": 1605,
      "bu": 1606,
      "Ġprinci": 1607,
      "Ġfocus": 1608,
      "Ġlif": 1609,
      "ression": 1610,
      "arge": 1611,
      "ĠX": 1612,
      "ush": 1613,
      "Ġtarget": 1614,
      "ĠEn": 1615,
      "Ġclin": 1616,
      "angle": 1617,
      "Ġhy": 1618,
      "Ġunique": 1619,
      "idd": 1620,
      "itle": 1621,
      "ether": 1622,
      "Ġmethods": 1623,
      "string": 1624,
      "pha": 1625,
      "Design": 1626,
      "file": 1627,
      "ru": 1628,
      "serv": 1629,
      "Ġbehavior": 1630,
      "uration": 1631,
      "Ġvs": 1632,
      "Ġprot": 1633,
      "Ġsugg": 1634,
      "ework": 1635,
      "Ġstatement": 1636,
      "Ġimp": 1637,
      "Ġallow": 1638,
      "cont": 1639,
      "icient": 1640,
      "Ġ_": 1641,
      "ray": 1642,
      "Ġshort": 1643,
      "esp": 1644,
      "Ġtrack": 1645,
      "mplement": 1646,
      "ately": 1647,
      "ote": 1648,
      "Ġfull": 1649,
      "ease": 1650,
      "Ġconn": 1651,
      "},": 1652,
      "ĠâĶ": 1653,
      "Ġerr": 1654,
      "Ġinitial": 1655,
      "sider": 1656,
      "Ġidentify": 1657,
      "miss": 1658,
      "ather": 1659,
      "Ġphys": 1660,
      "arch": 1661,
      "box": 1662,
      "ret": 1663,
      "radi": 1664,
      "loc": 1665,
      "li": 1666,
      "Com": 1667,
      "Ġmed": 1668,
      "ruct": 1669,
      "Ġscal": 1670,
      "Ġmanage": 1671,
      "Ġachi": 1672,
      "Ġpe": 1673,
      "ared": 1674,
      "Ġmathemat": 1675,
      "quad": 1676,
      "Ġaccess": 1677,
      "Ġversion": 1678,
      "atures": 1679,
      "ailable": 1680,
      "OR": 1681,
      "rate": 1682,
      "Ġview": 1683,
      "Ġ\"\"\"": 1684,
      "ural": 1685,
      "Ġ:=": 1686,
      "Ġexplain": 1687,
      "Ġalgorith": 1688,
      "viron": 1689,
      "ental": 1690,
      "jor": 1691,
      "Ġgroup": 1692,
      "oph": 1693,
      "hem": 1694,
      "Ġ\\)": 1695,
      "Ġcall": 1696,
      "ĠTr": 1697,
      "Ġmeas": 1698,
      "Ġtri": 1699,
      "Ġpract": 1700,
      "Ġdefault": 1701,
      "board": 1702,
      "Ġdisease": 1703,
      "ified": 1704,
      "ons": 1705,
      "Ġsitu": 1706,
      "Ġbal": 1707,
      "istent": 1708,
      "Ġperspect": 1709,
      "Ġrigor": 1710,
      "ont": 1711,
      "json": 1712,
      "Ġcost": 1713,
      "Ġsafety": 1714,
      "ian": 1715,
      "level": 1716,
      "ension": 1717,
      "tc": 1718,
      "Ġ12": 1719,
      "Ġmetrics": 1720,
      "Ġfinal": 1721,
      "ivity": 1722,
      "Ġfollowing": 1723,
      "ious": 1724,
      "Ġsequ": 1725,
      "You": 1726,
      "ention": 1727,
      "Ġuses": 1728,
      "Ġdat": 1729,
      "ert": 1730,
      "ower": 1731,
      "ttp": 1732,
      "Ġexplan": 1733,
      ")`": 1734,
      "cy": 1735,
      "ger": 1736,
      "{\\": 1737,
      "ĠĠĊĠĠ": 1738,
      "An": 1739,
      "Ġrigorous": 1740,
      "Ġnormal": 1741,
      "Ġlay": 1742,
      "Ġhyp": 1743,
      "Ġload": 1744,
      "ax": 1745,
      "ml": 1746,
      "enef": 1747,
      "lambda": 1748,
      "Ġprior": 1749,
      "QL": 1750,
      "rix": 1751,
      "ially": 1752,
      "Ġstatus": 1753,
      "Ġaccount": 1754,
      "Ġpoint": 1755,
      "Ġfalse": 1756,
      "Ġexist": 1757,
      "sq": 1758,
      "izing": 1759,
      "map": 1760,
      "Ġdistrib": 1761,
      "Ġcontinu": 1762,
      "mathbb": 1763,
      "SE": 1764,
      "ense": 1765,
      "iver": 1766,
      "acity": 1767,
      "Ġrob": 1768,
      "Ġverify": 1769,
      "Ġframework": 1770,
      "We": 1771,
      "mu": 1772,
      "Ġtask": 1773,
      "idth": 1774,
      "struct": 1775,
      "ume": 1776,
      "Ser": 1777,
      "Ġway": 1778,
      "ĠWe": 1779,
      "ero": 1780,
      "ffer": 1781,
      "velo": 1782,
      "Ġbetter": 1783,
      "Ġinc": 1784,
      "rt": 1785,
      "ĠCh": 1786,
      "Ġvariables": 1787,
      "App": 1788,
      "Ġhist": 1789,
      "Ġnext": 1790,
      "lob": 1791,
      "Ġoff": 1792,
      "odes": 1793,
      "Ġsort": 1794,
      "ily": 1795,
      "stand": 1796,
      "Ġpriv": 1797,
      "Ġstrategies": 1798,
      "Tr": 1799,
      "python": 1800,
      "Ġsatisfies": 1801,
      "but": 1802,
      "Ġcaus": 1803,
      "Ġdev": 1804,
      "ication": 1805,
      "Ġprovide": 1806,
      "etch": 1807,
      "Ġindex": 1808,
      "epar": 1809,
      "word": 1810,
      "plate": 1811,
      "flow": 1812,
      "ets": 1813,
      "Ġarr": 1814,
      "Ġmap": 1815,
      "ening": 1816,
      "hema": 1817,
      "25": 1818,
      "Ġwhether": 1819,
      "sub": 1820,
      "let": 1821,
      "ired": 1822,
      "Ġspecific": 1823,
      "Ġworked": 1824,
      "omet": 1825,
      "Ġwell": 1826,
      "Ġtests": 1827,
      "Ġimportant": 1828,
      "Ġcent": 1829,
      "valid": 1830,
      "Ġscenari": 1831,
      "Ġpost": 1832,
      "Ġpip": 1833,
      "roll": 1834,
      "Ġmathematical": 1835,
      "ave": 1836,
      "lish": 1837,
      "ynam": 1838,
      "use": 1839,
      "Ġide": 1840,
      "Ġworking": 1841,
      "Ġaction": 1842,
      "alpha": 1843,
      "max": 1844,
      "Ġ20": 1845,
      "alu": 1846,
      "Ċĉ": 1847,
      "olve": 1848,
      "count": 1849,
      "iction": 1850,
      "Ġur": 1851,
      "Key": 1852,
      "eed": 1853,
      "Ġconsidered": 1854,
      "ek": 1855,
      "Ġlik": 1856,
      "Ġmemory": 1857,
      "Ġachiev": 1858,
      "Ġstill": 1859,
      "Ġrele": 1860,
      "EN": 1861,
      "TP": 1862,
      "pri": 1863,
      "Ġang": 1864,
      "Ġmajor": 1865,
      "Ġacross": 1866,
      "Ġtop": 1867,
      "ooking": 1868,
      "Ġsteps": 1869,
      "Ġsecond": 1870,
      "Ġalgorithm": 1871,
      "ĠâĢĶ": 1872,
      "action": 1873,
      "Ġflex": 1874,
      "Ġserver": 1875,
      "offs": 1876,
      "64": 1877,
      "Ġcontain": 1878,
      "Ġclient": 1879,
      "Ġprinciples": 1880,
      "];": 1881,
      "}(": 1882,
      "Ġmor": 1883,
      "ched": 1884,
      "specific": 1885,
      "50": 1886,
      "ID": 1887,
      "go": 1888,
      "Ġest": 1889,
      "Ġvis": 1890,
      "Ġused": 1891,
      "arm": 1892,
      "by": 1893,
      "Ġperform": 1894,
      "Ġhum": 1895,
      "lu": 1896,
      "ock": 1897,
      "Ġavailable": 1898,
      "ground": 1899,
      "Res": 1900,
      "down": 1901,
      "Ġexec": 1902,
      "ries": 1903,
      "Ġvalidate": 1904,
      "Ġgraph": 1905,
      "Ġ$$$": 1906,
      "ape": 1907,
      "Ġpot": 1908,
      "Ġorig": 1909,
      "Ġoptim": 1910,
      "env": 1911,
      "urity": 1912,
      "acter": 1913,
      "Ġconsidering": 1914,
      "Looking": 1915,
      "mptom": 1916,
      "Ġpay": 1917,
      "ecess": 1918,
      "iness": 1919,
      "aces": 1920,
      "Ġdemonstrates": 1921,
      "state": 1922,
      "Ġoptions": 1923,
      "atically": 1924,
      "Ġauth": 1925,
      "Ġ100": 1926,
      "Ġeth": 1927,
      "Ġmax": 1928,
      "Ġincluding": 1929,
      "Ġexplanation": 1930,
      "ware": 1931,
      "Ġrobust": 1932,
      "args": 1933,
      "Ġprovides": 1934,
      "gan": 1935,
      "Ġprob": 1936,
      "Ġfix": 1937,
      "Ġroot": 1938,
      "Ġcomplete": 1939,
      "iolog": 1940,
      "Ġwithin": 1941,
      "Ġensure": 1942,
      "aking": 1943,
      "Ġevalu": 1944,
      "')": 1945,
      "light": 1946,
      "20": 1947,
      "ively": 1948,
      "Ġsolve": 1949,
      "Ġcommon": 1950,
      "Ġclarify": 1951,
      "inter": 1952,
      "Ġpublic": 1953,
      "cription": 1954,
      "Ġear": 1955,
      "Ġautom": 1956,
      "CT": 1957,
      "Ġ%": 1958,
      "new": 1959,
      "formation": 1960,
      "export": 1961,
      "ĠĠĠĠĠĠĠĠĠĠĠĠĠĠĠĠ": 1962,
      "Ġhapp": 1963,
      "hip": 1964,
      "ĠAl": 1965,
      "upp": 1966,
      "Ġcy": 1967,
      "ople": 1968,
      "32": 1969,
      "OM": 1970,
      "Ġdiagn": 1971,
      "Ġbenef": 1972,
      "apy": 1973,
      "ector": 1974,
      "Ġcomponents": 1975,
      "gine": 1976,
      "ĠHT": 1977,
      "Ġservice": 1978,
      "Having": 1979,
      "echan": 1980,
      "elta": 1981,
      "Cl": 1982,
      "Ġvol": 1983,
      "Ġenviron": 1984,
      "radius": 1985,
      "ann": 1986,
      "Ġconver": 1987,
      "Ġlang": 1988,
      "ium": 1989,
      "Ġleast": 1990,
      "Ġassumptions": 1991,
      "Ġwrit": 1992,
      "amet": 1993,
      "ĠSh": 1994,
      "Ġdeterm": 1995,
      "Ġbest": 1996,
      "sing": 1997,
      "Ġthough": 1998,
      "raw": 1999,
      "ibilities": 2000,
      "Ġneeded": 2001,
      "Ġvar": 2002,
      "Ġappropri": 2003,
      "Ġawait": 2004,
      "ted": 2005,
      "inite": 2006,
      "Ġstud": 2007,
      "ants": 2008,
      "Ch": 2009,
      "LL": 2010,
      "Ġanalog": 2011,
      "Ġcolumn": 2012,
      "Ġpolicy": 2013,
      "resent": 2014,
      "Ġart": 2015,
      "Ġloop": 2016,
      "bash": 2017,
      "$$$": 2018,
      "tem": 2019,
      "[\"": 2020,
      "amp": 2021,
      "Ġnull": 2022,
      "Ġrecommended": 2023,
      "Ġadjust": 2024,
      "Ġcomb": 2025,
      "ood": 2026,
      "Ġachieves": 2027,
      "Ġhash": 2028,
      "ĠId": 2029,
      "ready": 2030,
      "Ġcontext": 2031,
      "ĠAdd": 2032,
      "Ġaud": 2033,
      "Ġclos": 2034,
      "Ġdocument": 2035,
      "inary": 2036,
      "main": 2037,
      "Ġlikely": 2038,
      "Ġgood": 2039,
      "Ġfunctions": 2040,
      "])": 2041,
      "ler": 2042,
      "Ġupd": 2043,
      "Ġpatients": 2044,
      "Ġwindow": 2045,
      "({": 2046,
      "Create": 2047,
      "Ġbase": 2048,
      "Ġvarious": 2049,
      "\");": 2050,
      "Ġpaths": 2051,
      "Ġexplo": 2052,
      "anced": 2053,
      "Ġther": 2054,
      "Ġlogic": 2055,
      "Ġunderstand": 2056,
      "Ġlarge": 2057,
      "Ġgives": 2058,
      "ields": 2059,
      "uted": 2060,
      "yz": 2061,
      "pty": 2062,
      "roach": 2063,
      "rain": 2064,
      "Ġetc": 2065,
      "Ġ});": 2066,
      "iff": 2067,
      "ators": 2068,
      "Ġrepe": 2069,
      "now": 2070,
      "Ġcache": 2071,
      "button": 2072,
      "AR": 2073,
      "Ġrather": 2074,
      "uch": 2075,
      "Ġmeans": 2076,
      "points": 2077,
      "As": 2078,
      "tml": 2079,
      "Ġprefer": 2080,
      "less": 2081,
      "ances": 2082,
      "list": 2083,
      "Ġreview": 2084,
      "acc": 2085,
      "Ġ/*": 2086,
      ")^": 2087,
      "face": 2088,
      "Ġopen": 2089,
      "umer": 2090,
      "etwork": 2091,
      "`:": 2092,
      "equ": 2093,
      "ital": 2094,
      "init": 2095,
      "Ġalign": 2096,
      "start": 2097,
      "atory": 2098,
      "Ġappropriate": 2099,
      "ams": 2100,
      "ories": 2101,
      "Ġrandom": 2102,
      "Ġcell": 2103,
      "+\\": 2104,
      "Ġleft": 2105,
      "sert": 2106,
      "oken": 2107,
      "Ġexpected": 2108,
      "point": 2109,
      "config": 2110,
      "Explain": 2111,
      "Ġcer": 2112,
      "ifferent": 2113,
      "alth": 2114,
      "Ġ||": 2115,
      "Ġproject": 2116,
      "iled": 2117,
      ")\\)": 2118,
      "any": 2119,
      "Ġbi": 2120,
      "Ġevents": 2121,
      "Ġtable": 2122,
      "Ġbeing": 2123,
      "Ġlength": 2124,
      "irm": 2125,
      "ecause": 2126,
      "Ġpoints": 2127,
      "block": 2128,
      "void": 2129,
      "oci": 2130,
      "side": 2131,
      "Ġcritical": 2132,
      "cing": 2133,
      "Ġborder": 2134,
      "Ġelim": 2135,
      "Ġsepar": 2136,
      "function": 2137,
      "Ġmut": 2138,
      "ressure": 2139,
      "Ġexactly": 2140,
      "big": 2141,
      "loat": 2142,
      "Ġ\"$": 2143,
      "Ġperspectives": 2144,
      "Ġcommand": 2145,
      "vention": 2146,
      "Ġjob": 2147,
      "Ġstd": 2148,
      "Ġphysical": 2149,
      "adata": 2150,
      "velop": 2151,
      "Ġsw": 2152,
      "ava": 2153,
      "Ġprogram": 2154,
      "src": 2155,
      "Ġabs": 2156,
      "rop": 2157,
      "Ġprogress": 2158,
      "Or": 2159,
      "ie": 2160,
      "imary": 2161,
      "encies": 2162,
      "Ġess": 2163,
      "Ġdig": 2164,
      "Ġneeds": 2165,
      "ything": 2166,
      "iving": 2167,
      "Ġlear": 2168,
      "Ġstack": 2169,
      "Ġneg": 2170,
      "index": 2171,
      "wor": 2172,
      "atient": 2173,
      "Ġlower": 2174,
      "igma": 2175,
      "gin": 2176,
      "mit": 2177,
      "Ġpositive": 2178,
      "Ġpeople": 2179,
      "len": 2180,
      "Ġhandle": 2181,
      "Ġequation": 2182,
      "ĠAnswer": 2183,
      "aging": 2184,
      "echn": 2185,
      "Ġmanagement": 2186,
      "Ġoriginal": 2187,
      "Ġter": 2188,
      "Ġque": 2189,
      "AL": 2190,
      "Ġreach": 2191,
      "espec": 2192,
      "Ġocc": 2193,
      "lot": 2194,
      "'t": 2195,
      "ival": 2196,
      "Ġgiven": 2197,
      "ident": 2198,
      "especially": 2199,
      "example": 2200,
      "^{-": 2201,
      "Ġsample": 2202,
      "Ġcover": 2203,
      "ranch": 2204,
      "iable": 2205,
      "run": 2206,
      "Ġrules": 2207,
      "Ġparser": 2208,
      "Ġresults": 2209,
      "span": 2210,
      "List": 2211,
      "Ġterm": 2212,
      "Ġcard": 2213,
      "Ġ(!": 2214,
      "Ġpossible": 2215,
      "Ġcertain": 2216,
      "lication": 2217,
      "Ġnow": 2218,
      "error": 2219,
      "Ġrelated": 2220,
      "LO": 2221,
      "User": 2222,
      "Ġreduce": 2223,
      "Ġ!=": 2224,
      "ecessary": 2225,
      "orem": 2226,
      "Ġprev": 2227,
      "crete": 2228,
      "uage": 2229,
      "Ġsens": 2230,
      "ession": 2231,
      "Ġsymptom": 2232,
      "lay": 2233,
      "ystem": 2234,
      "rypt": 2235,
      "Ġstrategy": 2236,
      "Ġfactors": 2237,
      "Ġimmedi": 2238,
      "Ġdu": 2239,
      "ĠDef": 2240,
      "Ġmaintain": 2241,
      "Ġformul": 2242,
      "\"]": 2243,
      "akeh": 2244,
      "IT": 2245,
      "cdot": 2246,
      "Ġsk": 2247,
      "dr": 2248,
      "((": 2249,
      "Ġbody": 2250,
      "RL": 2251,
      "SON": 2252,
      "itor": 2253,
      "Ġapproxim": 2254,
      "Ġasync": 2255,
      "Ġfiles": 2256,
      "Ġthresh": 2257,
      "Path": 2258,
      "Ġbackground": 2259,
      "ox": 2260,
      "ML": 2261,
      "event": 2262,
      "izes": 2263,
      "');": 2264,
      "Ġ@": 2265,
      "bit": 2266,
      "status": 2267,
      "Name": 2268,
      "Ġoutcom": 2269,
      "}\\)": 2270,
      "Ġlast": 2271,
      "Ġreport": 2272,
      "Ġsequence": 2273,
      "ele": 2274,
      "ashboard": 2275,
      "Ġconsistent": 2276,
      "culate": 2277,
      "Ġoperations": 2278,
      "Ġcolor": 2279,
      "));": 2280,
      "Ġpage": 2281,
      "esis": 2282,
      "Ġpartic": 2283,
      "DE": 2284,
      "code": 2285,
      "fil": 2286,
      "Ġknown": 2287,
      "ores": 2288,
      "Ġmaxim": 2289,
      "certain": 2290,
      "Ġlife": 2291,
      "16": 2292,
      "ags": 2293,
      "Ġessential": 2294,
      "Wh": 2295,
      "late": 2296,
      "itect": 2297,
      "Ġmechan": 2298,
      "bar": 2299,
      "Ġhuman": 2300,
      "Ġdistin": 2301,
      "pret": 2302,
      "Ġpresent": 2303,
      "ending": 2304,
      "Ġgeneral": 2305,
      "lose": 2306,
      "ependent": 2307,
      "por": 2308,
      "els": 2309,
      "Ġminim": 2310,
      "Ġdiv": 2311,
      "En": 2312,
      "card": 2313,
      "aps": 2314,
      "Ġcur": 2315,
      "dir": 2316,
      "ges": 2317,
      "utions": 2318,
      "Ġtransform": 2319,
      "Ġexperience": 2320,
      "Ġ?": 2321,
      "Ġlight": 2322,
      "itis": 2323,
      "Ġlink": 2324,
      "node": 2325,
      "Ġsets": 2326,
      "ĠOn": 2327,
      "Ġenvironment": 2328,
      "Ġthor": 2329,
      "Ġdomain": 2330,
      "Ġframeworks": 2331,
      "Ġmessage": 2332,
      "Ġfeatures": 2333,
      "Ġexperim": 2334,
      "otal": 2335,
      "Ġsystems": 2336,
      "ĠVal": 2337,
      "Ġangles": 2338,
      "mary": 2339,
      "rec": 2340,
      "me": 2341,
      "ĠIdent": 2342,
      "Ġtherapy": 2343,
      "Ġminimal": 2344,
      "Ġpotential": 2345,
      "ways": 2346,
      "Ġ(`": 2347,
      "urren": 2348,
      "onal": 2349,
      "lood": 2350,
      "Ġengine": 2351,
      "label": 2352,
      "ailed": 2353,
      "imate": 2354,
      "ĠTherefore": 2355,
      "Ġimprove": 2356,
      "vant": 2357,
      "Ġcar": 2358,
      "Ġtoken": 2359,
      "Ġside": 2360,
      "ouble": 2361,
      "Val": 2362,
      "mission": 2363,
      "AC": 2364,
      "pli": 2365,
      "plit": 2366,
      "fty": 2367,
      "infty": 2368,
      "Ġinside": 2369,
      "rm": 2370,
      "Ġdeep": 2371,
      "Ġderived": 2372,
      "place": 2373,
      "Ġvalidation": 2374,
      "Ġcontinuous": 2375,
      "ĠLet": 2376,
      "otion": 2377,
      "Mod": 2378,
      "mon": 2379,
      "Ġsure": 2380,
      "Ġsuccess": 2381,
      "Ġmeasure": 2382,
      "ibr": 2383,
      "Ġespecially": 2384,
      "Ġthorough": 2385,
      "ĊĠĠĠĠĠĠĠĠĠĠĠĠĠ": 2386,
      "idual": 2387,
      "Ġaccept": 2388,
      "Ġelement": 2389,
      "Ġrespons": 2390,
      "Ġexamples": 2391,
      "Ġuncertain": 2392,
      "Ġsuggests": 2393,
      "Ġuint": 2394,
      "lobal": 2395,
      "={": 2396,
      "Ġ>=": 2397,
      "Ġrange": 2398,
      "Ġpossibilities": 2399,
      "ception": 2400,
      "Ġrule": 2401,
      "chitect": 2402,
      "};": 2403,
      "dev": 2404,
      "oin": 2405,
      "Ġbased": 2406,
      "Ġsee": 2407,
      "Ġchecks": 2408,
      "Ġhard": 2409,
      "color": 2410,
      "theta": 2411,
      "Ġwho": 2412,
      "Ġbegin": 2413,
      "Ġchall": 2414,
      "Ġdefin": 2415,
      "pose": 2416,
      "Type": 2417,
      "://": 2418,
      "Ġpower": 2419,
      "Ġcontent": 2420,
      "Ġselect": 2421,
      "Ġmeaning": 2422,
      "ails": 2423,
      "_{\\": 2424,
      "Ġsituations": 2425,
      "Ġbl": 2426,
      "Implement": 2427,
      "ference": 2428,
      "SI": 2429,
      "Ġthread": 2430,
      "ĠNo": 2431,
      "Ġinvol": 2432,
      "Ġemerg": 2433,
      "ynamic": 2434,
      "force": 2435,
      ")=\\": 2436,
      "opy": 2437,
      "static": 2438,
      "atform": 2439,
      "Ġsense": 2440,
      "url": 2441,
      "Ġplay": 2442,
      "Different": 2443,
      "}^": 2444,
      "Ġpressure": 2445,
      "des": 2446,
      "ici": 2447,
      "pping": 2448,
      "rap": 2449,
      "Ġdefine": 2450,
      "ĠID": 2451,
      "Ġupdate": 2452,
      "State": 2453,
      "/*": 2454,
      "html": 2455,
      "sec": 2456,
      "âĶĢâĶĢâĶĢâĶĢ": 2457,
      "ven": 2458,
      "length": 2459,
      "cent": 2460,
      "}{\\": 2461,
      "====": 2462,
      "Cont": 2463,
      "Ġsimilarities": 2464,
      "no": 2465,
      "reason": 2466,
      "mar": 2467,
      "Ġbecom": 2468,
      "Ġcarefully": 2469,
      "Ġexists": 2470,
      "Ġinstead": 2471,
      "Taking": 2472,
      "position": 2473,
      "title": 2474,
      "way": 2475,
      "Ġusers": 2476,
      "Ġanalogous": 2477,
      "ĠIdentify": 2478,
      "ĠUn": 2479,
      "respon": 2480,
      "Ġproduction": 2481,
      "Ġremain": 2482,
      "Ġbasic": 2483,
      "arrow": 2484,
      "icro": 2485,
      "Ġiss": 2486,
      "Ġleads": 2487,
      "Ġfield": 2488,
      "Ġiter": 2489,
      "Ġconditions": 2490,
      "Ġpare": 2491,
      "\\,": 2492,
      "(&": 2493,
      "oper": 2494,
      "Ġtechn": 2495,
      "ym": 2496,
      "Ġflow": 2497,
      "ĠAfter": 2498,
      "active": 2499,
      "Ġcontrad": 2500,
      "++": 2501,
      "Ġmatrix": 2502,
      "Ġpreser": 2503,
      "Ġsl": 2504,
      "Consider": 2505,
      "Ġhyper": 2506,
      "Ġmiss": 2507,
      "times": 2508,
      "Ġbus": 2509,
      "beta": 2510,
      "argument": 2511,
      "next": 2512,
      "Ġ};": 2513,
      "ology": 2514,
      "sm": 2515,
      "lib": 2516,
      "Ġquick": 2517,
      "Ġbro": 2518,
      "Ġusually": 2519,
      "Ġconstruct": 2520,
      "ref": 2521,
      "Ġlen": 2522,
      "Ġmodels": 2523,
      "Ġ__": 2524,
      "ank": 2525,
      "Ġbuilding": 2526,
      "include": 2527,
      "Ġweight": 2528,
      "velte": 2529,
      "`)": 2530,
      "overn": 2531,
      "ĠNU": 2532,
      "Ġcomparis": 2533,
      "By": 2534,
      "book": 2535,
      ".âĢĿ": 2536,
      "Ġsource": 2537,
      "ends": 2538,
      "Ġ11": 2539,
      "verage": 2540,
      "Ġalready": 2541,
      "Ġterms": 2542,
      "test": 2543,
      "ĠRequ": 2544,
      "lying": 2545,
      "Ġlinear": 2546,
      "Ġred": 2547,
      "Ġweigh": 2548,
      "uild": 2549,
      "Ġvir": 2550,
      "OT": 2551,
      "bed": 2552,
      "Ġut": 2553,
      "Ġrequests": 2554,
      "Ġfont": 2555,
      "input": 2556,
      "Ġformat": 2557,
      "Ġ<=": 2558,
      "Ġobserv": 2559,
      "Ġeverything": 2560,
      "Ġgrid": 2561,
      "Ġdetection": 2562,
      "Ġusage": 2563,
      "Ġschema": 2564,
      "tx": 2565,
      "Ġten": 2566,
      "Ġparamet": 2567,
      "sqrt": 2568,
      "ustain": 2569,
      "ering": 2570,
      "orage": 2571,
      "Ġ[]": 2572,
      "Ġcompare": 2573,
      "Ġstat": 2574,
      "Ġgrow": 2575,
      "inds": 2576,
      "Ġargs": 2577,
      "ĠRes": 2578,
      "ogn": 2579,
      "})": 2580,
      "Ġcondition": 2581,
      "itch": 2582,
      "Ġkeys": 2583,
      "day": 2584,
      "Ġplace": 2585,
      "metry": 2586,
      "ool": 2587,
      "Ġdeploy": 2588,
      "Ġformula": 2589,
      "Ġtheorem": 2590,
      "Ġonce": 2591,
      "Ġearly": 2592,
      "Ġblood": 2593,
      "String": 2594,
      "Ġzero": 2595,
      "Ġbecomes": 2596,
      "Ġold": 2597,
      "erial": 2598,
      "AG": 2599,
      "etic": 2600,
      "igate": 2601,
      "Ġtestable": 2602,
      "(),": 2603,
      "version": 2604,
      "ears": 2605,
      "ĠĠĊĠ": 2606,
      "Ġpipeline": 2607,
      "Ġuncertainty": 2608,
      "itoring": 2609,
      "ĠAS": 2610,
      "ĠBe": 2611,
      "Ġsem": 2612,
      "sequ": 2613,
      "Ġprobability": 2614,
      "Ġwere": 2615,
      "Ġways": 2616,
      "ources": 2617,
      "}^{": 2618,
      "Ġmoral": 2619,
      "Ġthose": 2620,
      "Ġthree": 2621,
      "ope": 2622,
      "Ġremains": 2623,
      "Ġinstall": 2624,
      "verse": 2625,
      "with": 2626,
      "ided": 2627,
      "Ġinternal": 2628,
      "Ġpop": 2629,
      "Ġwrite": 2630,
      "ergy": 2631,
      "style": 2632,
      "Ġhis": 2633,
      "There": 2634,
      "Ġduring": 2635,
      "Ġpredictions": 2636,
      "Ġlanguage": 2637,
      "Ġ&&": 2638,
      "oot": 2639,
      "Ġquant": 2640,
      "Ġinterval": 2641,
      "rag": 2642,
      "Ġloss": 2643,
      "Ġprivate": 2644,
      "Ġstakeh": 2645,
      "ilon": 2646,
      "pliance": 2647,
      "oint": 2648,
      "aut": 2649,
      "Ġchild": 2650,
      "Ġcannot": 2651,
      "pir": 2652,
      "write": 2653,
      "Ġnetwork": 2654,
      "Ġmarket": 2655,
      "Ġdon": 2656,
      "Ġconclusion": 2657,
      "var": 2658,
      "Ġhealth": 2659,
      "Ġrepeated": 2660,
      "\";": 2661,
      "ĠÎ": 2662,
      "Ġrout": 2663,
      "Ġregist": 2664,
      "Ġmove": 2665,
      "api": 2666,
      "adding": 2667,
      "ĠYou": 2668,
      "Ġfree": 2669,
      "Service": 2670,
      "server": 2671,
      "Ġprec": 2672,
      "Ġnumbers": 2673,
      "Event": 2674,
      "wise": 2675,
      "store": 2676,
      "ĠCI": 2677,
      "Ġagg": 2678,
      "Ġclinical": 2679,
      "(--": 2680,
      "gen": 2681,
      "ĠOptional": 2682,
      "current": 2683,
      "Ġdirectly": 2684,
      "ĠâĢĵ": 2685,
      "Ġâī": 2686,
      "uments": 2687,
      "Ġlabel": 2688,
      "._": 2689,
      "Ġaround": 2690,
      "iddle": 2691,
      "Time": 2692,
      "Ġ30": 2693,
      "ift": 2694,
      "Ġsustain": 2695,
      "Ġitem": 2696,
      "afe": 2697,
      "Ġaff": 2698,
      "Ġfall": 2699,
      "local": 2700,
      "Ġclean": 2701,
      "Ġaudit": 2702,
      "[]": 2703,
      "ĠCl": 2704,
      "ocol": 2705,
      "Ġcir": 2706,
      "arr": 2707,
      "Ġpack": 2708,
      "Ġfound": 2709,
      "Ġtrig": 2710,
      "Ġscale": 2711,
      "Ġanother": 2712,
      "esting": 2713,
      "ĠThat": 2714,
      "Ġtesting": 2715,
      "Ġqueue": 2716,
      "Ġactive": 2717,
      "eral": 2718,
      "Ġfrequ": 2719,
      "Ġvoid": 2720,
      "process": 2721,
      "parse": 2722,
      "uc": 2723,
      "Ġabove": 2724,
      "base": 2725,
      "body": 2726,
      "rel": 2727,
      "Ġexpos": 2728,
      "eff": 2729,
      "Ġimage": 2730,
      "Ġdepth": 2731,
      "Ġsched": 2732,
      "Ġshared": 2733,
      "Ġplus": 2734,
      "Ġequal": 2735,
      "Ġmetadata": 2736,
      "radient": 2737,
      "ĠJSON": 2738,
      "idden": 2739,
      "Ġinformation": 2740,
      "iding": 2741,
      "Ġcommun": 2742,
      ".\"": 2743,
      "Ġaltern": 2744,
      "Ġstream": 2745,
      "eful": 2746,
      "99": 2747,
      "ocial": 2748,
      "At": 2749,
      "Ġstatic": 2750,
      "True": 2751,
      "vide": 2752,
      "ĠCSS": 2753,
      "Ġindic": 2754,
      "Ġduplic": 2755,
      "ares": 2756,
      "cribe": 2757,
      "Ġcapacity": 2758,
      "lection": 2759,
      "Ġdisplay": 2760,
      ")}": 2761,
      "ĠThen": 2762,
      "LI": 2763,
      "only": 2764,
      "Ġhold": 2765,
      "Ġarchitect": 2766,
      "AM": 2767,
      "pm": 2768,
      "Ġrepresent": 2769,
      "Ġeffects": 2770,
      "stream": 2771,
      "Ġpatterns": 2772,
      "Ġvolume": 2773,
      "Ġerrors": 2774,
      "phi": 2775,
      "cular": 2776,
      "md": 2777,
      "Ġcross": 2778,
      "cap": 2779,
      "std": 2780,
      "().": 2781,
      "Ġempty": 2782,
      "Ġdrug": 2783,
      "Ġdays": 2784,
      "ulate": 2785,
      "ĠNULL": 2786,
      "Therefore": 2787,
      "Requ": 2788,
      "Ġrequirement": 2789,
      "Ġcoll": 2790,
      "AN": 2791,
      "ections": 2792,
      "Ġelimination": 2793,
      "auth": 2794,
      "Ġfav": 2795,
      "####": 2796,
      "Ġfund": 2797,
      "trans": 2798,
      "top": 2799,
      "items": 2800,
      "Ġreturns": 2801,
      "Ġposition": 2802,
      "80": 2803,
      "ES": 2804,
      "Ġphi": 2805,
      "Ġconcrete": 2806,
      "aim": 2807,
      "Ġq": 2808,
      "Ġ===": 2809,
      "ĠDefine": 2810,
      "erge": 2811,
      "Ġfetch": 2812,
      "pper": 2813,
      "ĠAr": 2814,
      "Ġradius": 2815,
      "append": 2816,
      "Ġfixed": 2817,
      "ĠRed": 2818,
      "service": 2819,
      "pute": 2820,
      "pid": 2821,
      "pass": 2822,
      "PU": 2823,
      "Ġnam": 2824,
      "Ġvert": 2825,
      "Ġ```": 2826,
      "Ġworks": 2827,
      "Sub": 2828,
      "Write": 2829,
      "unk": 2830,
      "ĠRep": 2831,
      "Ġfails": 2832,
      "./": 2833,
      "Ġmatters": 2834,
      "Considering": 2835,
      "ĠRun": 2836,
      "Ġhour": 2837,
      "Ġvery": 2838,
      "Ġcharacter": 2839,
      "Ġfew": 2840,
      "ĠString": 2841,
      "Ġincludes": 2842,
      "Ġperformance": 2843,
      "check": 2844,
      "Ġdouble": 2845,
      "Ġitems": 2846,
      "psilon": 2847,
      "mathbf": 2848,
      "Ġtypes": 2849,
      "Ġsomet": 2850,
      "Ġforward": 2851,
      "Ġcompute": 2852,
      "iod": 2853,
      "son": 2854,
      "Ġexplicitly": 2855,
      "Ġsevere": 2856,
      "ĠFirst": 2857,
      "Ġupdates": 2858,
      "script": 2859,
      "inf": 2860,
      "Ġargument": 2861,
      "where": 2862,
      "Script": 2863,
      "Ġconstant": 2864,
      "olders": 2865,
      "Ġpayload": 2866,
      "rame": 2867,
      "uss": 2868,
      "Ġlooking": 2869,
      "Ġinfection": 2870,
      "Ġful": 2871,
      "emp": 2872,
      "cell": 2873,
      "ĠExample": 2874,
      "Ġsent": 2875,
      "Ġinteger": 2876,
      "Ġdecision": 2877,
      "Al": 2878,
      "Ġinvest": 2879,
      "omy": 2880,
      "Ġhypoth": 2881,
      "11": 2882,
      "}\")": 2883,
      "Ġeas": 2884,
      "Ġsynth": 2885,
      "\"\"\"": 2886,
      "Ġdiagnosis": 2887,
      "ivers": 2888,
      "ĠIN": 2889,
      "Ġsystematically": 2890,
      "risk": 2891,
      "ott": 2892,
      "Ġ+=": 2893,
      "Ġport": 2894,
      "Ġtree": 2895,
      "Ġmode": 2896,
      "older": 2897,
      "Ġorgan": 2898,
      "yze": 2899,
      "Ġpain": 2900,
      "ĠInt": 2901,
      "ither": 2902,
      "AB": 2903,
      "Ar": 2904,
      "losoph": 2905,
      "uid": 2906,
      "olution": 2907,
      "():": 2908,
      "**,": 2909,
      "Ġmis": 2910,
      "ade": 2911,
      "AD": 2912,
      "raction": 2913,
      "Ġrows": 2914,
      "xy": 2915,
      "ĊĊĠĠĠĠĠ": 2916,
      "Ġrecord": 2917,
      "Ġconfidence": 2918,
      "Ġgen": 2919,
      "Ġ]": 2920,
      "ternal": 2921,
      "conn": 2922,
      "24": 2923,
      "15": 2924,
      "Ġop": 2925,
      "Ġseen": 2926,
      "ĠList": 2927,
      "Ġbenefit": 2928,
      "umber": 2929,
      "Ġhigher": 2930,
      "ored": 2931,
      "abase": 2932,
      "Ġadapt": 2933,
      "Ġcomponent": 2934,
      "Ġtools": 2935,
      "Ġimpact": 2936,
      "Ġarrive": 2937,
      "ĠRE": 2938,
      "Ġleg": 2939,
      "${": 2940,
      "aries": 2941,
      "Ġdistribution": 2942,
      "Ġsymptoms": 2943,
      "aster": 2944,
      "Ġalong": 2945,
      "Ġparent": 2946,
      "bol": 2947,
      "Ġbeen": 2948,
      "ATE": 2949,
      "Ġclosed": 2950,
      "Ġnodes": 2951,
      "Ġindependent": 2952,
      "Ġnecessary": 2953,
      "Ġcontinue": 2954,
      "man": 2955,
      "Ġsystematic": 2956,
      "Ġpair": 2957,
      "Ġfilter": 2958,
      "RI": 2959,
      "ĠZ": 2960,
      "Ġpadding": 2961,
      "the": 2962,
      "orical": 2963,
      "adow": 2964,
      "ĠPath": 2965,
      "Ġworkflow": 2966,
      "fl": 2967,
      "sych": 2968,
      "Ġcour": 2969,
      "ĠĠĠĠĠĠ": 2970,
      "pe": 2971,
      "width": 2972,
      "item": 2973,
      "Ġfloat": 2974,
      "Ġarea": 2975,
      "Ġbranch": 2976,
      "contain": 2977,
      "Ġmonth": 2978,
      "nav": 2979,
      "Ġmarg": 2980,
      "page": 2981,
      "Ġreject": 2982,
      "Ġprevent": 2983,
      "omic": 2984,
      "parent": 2985,
      "Ġsupports": 2986,
      "Ġfeas": 2987,
      "pects": 2988,
      "partial": 2989,
      "medi": 2990,
      "safe": 2991,
      "estion": 2992,
      "Ġfundam": 2993,
      "Ġdiff": 2994,
      "ĠSQL": 2995,
      "Ġconcise": 2996,
      "())": 2997,
      "Ġenergy": 2998,
      "Pl": 2999,
      "Ġour": 3000,
      "Ġtrying": 3001,
      "ĊĊĠĠĠĠĠĠĠĠĠĠĠ": 3002,
      "}}": 3003,
      "Ġsn": 3004,
      "Ġpast": 3005,
      "Ġmo": 3006,
      "Ġlibr": 3007,
      "Ġscenario": 3008,
      "func": 3009,
      "Ġtimes": 3010,
      "Ġdependencies": 3011,
      "Ġ<<": 3012,
      "Ġprice": 3013,
      "Ġfeature": 3014,
      "Ġthreshold": 3015,
      "IR": 3016,
      "Ġintegr": 3017,
      "message": 3018,
      "MA": 3019,
      "post": 3020,
      "sigma": 3021,
      "Ġbuil": 3022,
      "]?": 3023,
      "edge": 3024,
      "estamp": 3025,
      "Ġresource": 3026,
      "Ġmg": 3027,
      "ager": 3028,
      "asing": 3029,
      "_\\": 3030,
      "Ġlatency": 3031,
      "Ġlock": 3032,
      "Ġpub": 3033,
      "Ġheart": 3034,
      "Ġscenarios": 3035,
      "Ġcontains": 3036,
      "Ġsimpl": 3037,
      "Ġweek": 3038,
      "fe": 3039,
      "ĠRec": 3040,
      "rodu": 3041,
      "like": 3042,
      "ĠSum": 3043,
      "Ġsetup": 3044,
      "overy": 3045,
      "world": 3046,
      "PA": 3047,
      "Ġlaw": 3048,
      "ceed": 3049,
      "tenant": 3050,
      "Ġantib": 3051,
      "Ġ15": 3052,
      "Ġcustomer": 3053,
      "iation": 3054,
      "eph": 3055,
      "Ġidentity": 3056,
      "Ġmind": 3057,
      "Ġmicro": 3058,
      "ently": 3059,
      "Ġseries": 3060,
      "^*": 3061,
      "atives": 3062,
      "ĠThrough": 3063,
      "Ġraise": 3064,
      "Ġmonitoring": 3065,
      "Ġfinite": 3066,
      "Un": 3067,
      "bin": 3068,
      "mathrm": 3069,
      "Ġchoose": 3070,
      "Ġprotocol": 3071,
      "Ġthinking": 3072,
      "100": 3073,
      "iciency": 3074,
      ".\")": 3075,
      "Out": 3076,
      "dis": 3077,
      "http": 3078,
      "ĠIm": 3079,
      "ĠState": 3080,
      "Ġauto": 3081,
      "Ġdashboard": 3082,
      "ĠProvide": 3083,
      "vis": 3084,
      "Ġanalyt": 3085,
      "Ġcapt": 3086,
      "ĠHTTP": 3087,
      "ĠCons": 3088,
      "Ġdetermin": 3089,
      "Ġexcept": 3090,
      "Ġhem": 3091,
      "ĠHe": 3092,
      "Ġsend": 3093,
      "Ġcycle": 3094,
      "ars": 3095,
      "Ġethical": 3096,
      "acing": 3097,
      "Ġgenerate": 3098,
      "ĊĠĠĠĠĠĠĠĠĠĠĠĠĠĠĠĠĠĠĠĠĠĠĠ": 3099,
      "ET": 3100,
      "sl": 3101,
      "ĠThey": 3102,
      "Ġrat": 3103,
      "Ġasking": 3104,
      "30": 3105,
      "mut": 3106,
      "amily": 3107,
      "actions": 3108,
      "description": 3109,
      "Ġsus": 3110,
      "Ġdeg": 3111,
      "ograph": 3112,
      "âĶĤ": 3113,
      "Ġplatform": 3114,
      "ned": 3115,
      "Ġsym": 3116,
      "ĠWhen": 3117,
      "icle": 3118,
      "ighb": 3119,
      "Ġlogging": 3120,
      "result": 3121,
      "nown": 3122,
      "ĠConsider": 3123,
      "Ġshe": 3124,
      "dom": 3125,
      "Ġreduces": 3126,
      "print": 3127,
      "Ġcult": 3128,
      "Ġstable": 3129,
      "ega": 3130,
      "Ġtenant": 3131,
      "Ġfields": 3132,
      "Ġsecurity": 3133,
      "pped": 3134,
      "Ġbool": 3135,
      "Ġfully": 3136,
      "Ġfeed": 3137,
      "Ġnegative": 3138,
      "Ġcach": 3139,
      "raft": 3140,
      "amples": 3141,
      "Ġweb": 3142,
      "ders": 3143,
      "essages": 3144,
      "Ġcommit": 3145,
      "ba": 3146,
      "rable": 3147,
      "Add": 3148,
      "Ġlarg": 3149,
      "til": 3150,
      "lease": 3151,
      "itional": 3152,
      "Pr": 3153,
      "sin": 3154,
      "Ġrece": 3155,
      "Ġglobal": 3156,
      "Ġarray": 3157,
      "plication": 3158,
      "pected": 3159,
      "Ġtokens": 3160,
      "Client": 3161,
      "idate": 3162,
      "overnance": 3163,
      "ĠImplement": 3164,
      "Ġ16": 3165,
      "Ġ200": 3166,
      "SA": 3167,
      "Ġcompact": 3168,
      "Ġrelations": 3169,
      "Ġconfirm": 3170,
      "mem": 3171,
      "step": 3172,
      "ĠPr": 3173,
      "nowled": 3174,
      "Ġbusiness": 3175,
      "Ġcut": 3176,
      "ĠPost": 3177,
      "Ġscre": 3178,
      "Ġgoal": 3179,
      "Ġfeasible": 3180,
      "host": 3181,
      "Ġlogs": 3182,
      "Ġrecurs": 3183,
      "Sh": 3184,
      "Ġapplication": 3185,
      "ĠApproach": 3186,
      ")**": 3187,
      "iler": 3188,
      "exp": 3189,
      "cious": 3190,
      "^\\": 3191,
      "hib": 3192,
      "Ġpreced": 3193,
      "Ġdevelop": 3194,
      "ĠTrue": 3195,
      "Ġoutcomes": 3196,
      "Is": 3197,
      "rong": 3198,
      "sv": 3199,
      "Ġaspects": 3200,
      "Ġdevice": 3201,
      "client": 3202,
      "mt": 3203,
      "vare": 3204,
      "amma": 3205,
      "Ġrole": 3206,
      "varepsilon": 3207,
      "iqu": 3208,
      "sim": 3209,
      "Ġdue": 3210,
      "ils": 3211,
      "Ġ25": 3212,
      "ifact": 3213,
      "Ġenough": 3214,
      "Ġflexibility": 3215,
      "Ġevaluate": 3216,
      "LECT": 3217,
      "vidence": 3218,
      "Ġsince": 3219,
      "otic": 3220,
      "Ġsocial": 3221,
      "urrency": 3222,
      "Data": 3223,
      "section": 3224,
      "Ġstates": 3225,
      "Ġdifferences": 3226,
      "Ġraw": 3227,
      "group": 3228,
      "Ġvector": 3229,
      "ended": 3230,
      "Ġ50": 3231,
      "Def": 3232,
      "Ġill": 3233,
      "Ġmatches": 3234,
      "pack": 3235,
      "Ġinterpret": 3236,
      "Ġher": 3237,
      "Ġstructures": 3238,
      "One": 3239,
      "can": 3240,
      "hand": 3241,
      "Ġalways": 3242,
      "column": 3243,
      "Ġsignific": 3244,
      "75": 3245,
      "Ġtruth": 3246,
      "ogen": 3247,
      "Ġworld": 3248,
      "()`": 3249,
      "Ġcontradiction": 3250,
      "err": 3251,
      "Ġdynamic": 3252,
      "thers": 3253,
      "Ġefficient": 3254,
      "Ġarchitecture": 3255,
      "Ġroll": 3256,
      "Ġsqu": 3257,
      "Ġwon": 3258,
      "Ġcompliance": 3259,
      "ensive": 3260,
      "Ġsubst": 3261,
      "ĠCont": 3262,
      "Ġack": 3263,
      "eli": 3264,
      "Ġincreases": 3265,
      "upport": 3266,
      "ming": 3267,
      "Ġswitch": 3268,
      "Ġindiv": 3269,
      "Ġfundamental": 3270,
      "ale": 3271,
      "ects": 3272,
      "case": 3273,
      "tings": 3274,
      "ĠSer": 3275,
      "Ġteam": 3276,
      "Rep": 3277,
      "Ġrot": 3278,
      "ĠAd": 3279,
      "ĠSince": 3280,
      "eterm": 3281,
      "Ġlab": 3282,
      "Ġsuper": 3283,
      "Ġadv": 3284,
      "typ": 3285,
      "Ġtasks": 3286,
      "ĠShow": 3287,
      "field": 3288,
      "jective": 3289,
      "Ġlayout": 3290,
      "Log": 3291,
      "TE": 3292,
      "ROM": 3293,
      "]:": 3294,
      "Ġprimary": 3295,
      "Ġentry": 3296,
      "Ġadjustments": 3297,
      "Ġthrow": 3298,
      "fix": 3299,
      "icity": 3300,
      "Ġdecom": 3301,
      "Ġwidth": 3302,
      "Ġelev": 3303,
      "empot": 3304,
      "Ġcoord": 3305,
      "Ġchalleng": 3306,
      "inate": 3307,
      "onds": 3308,
      "Ġactiv": 3309,
      "une": 3310,
      "dering": 3311,
      "Ġlimited": 3312,
      "TO": 3313,
      "Ġquality": 3314,
      "Ġcriter": 3315,
      "':": 3316,
      "root": 3317,
      "Ġsearch": 3318,
      "weight": 3319,
      "Ġcauses": 3320,
      "uro": 3321,
      "Ġinflam": 3322,
      "Ġregul": 3323,
      "Ġproperly": 3324,
      "ĠDo": 3325,
      "ĠEach": 3326,
      "emia": 3327,
      "Col": 3328,
      "ber": 3329,
      "limit": 3330,
      "task": 3331,
      "Ġ()": 3332,
      "uture": 3333,
      "alculate": 3334,
      "Ġbit": 3335,
      "Ġemail": 3336,
      "ĠCompare": 3337,
      "annel": 3338,
      "Ġmatter": 3339,
      "Ġensuring": 3340,
      "Ġlater": 3341,
      "link": 3342,
      "Ġmuch": 3343,
      "oding": 3344,
      "Ġrecommendation": 3345,
      "Ġpractical": 3346,
      "Ġhistory": 3347,
      "Ġinputs": 3348,
      "Find": 3349,
      "ĊĠĠĠĠĠĠĠĠĠĠĠĠĠĠĠĠĠĠĠĠĠĠĠĠ": 3350,
      "Ġidea": 3351,
      "Ġroom": 3352,
      "Ġfeel": 3353,
      "inst": 3354,
      "ĠOr": 3355,
      "Ġhistorical": 3356,
      "Because": 3357,
      "ĠQu": 3358,
      "Ġlimits": 3359,
      "Ġmaximum": 3360,
      "inator": 3361,
      "isions": 3362,
      "Ġbinary": 3363,
      "Ġcome": 3364,
      "Ġapply": 3365,
      "ĠJava": 3366,
      "Ġbalances": 3367,
      "API": 3368,
      "qquad": 3369,
      "Ġfig": 3370,
      "Ġdp": 3371,
      "Ġ24": 3372,
      "Ġcontract": 3373,
      "ĠOb": 3374,
      "ĠCreate": 3375,
      "Ġspeed": 3376,
      "Ġexplore": 3377,
      "tes": 3378,
      "total": 3379,
      "Ġscore": 3380,
      "Ġremo": 3381,
      "aid": 3382,
      "cos": 3383,
      "ĠAI": 3384,
      "Ġlimitations": 3385,
      "ponent": 3386,
      "Ġabsol": 3387,
      "On": 3388,
      "Ġes": 3389,
      "Ġcause": 3390,
      "Ġstyle": 3391,
      "header": 3392,
      "Ġsustainability": 3393,
      "pol": 3394,
      "request": 3395,
      "boxed": 3396,
      "delta": 3397,
      "Ġmig": 3398,
      "Ġperiod": 3399,
      "shot": 3400,
      "Ġimmediate": 3401,
      "db": 3402,
      "Ġruns": 3403,
      "Ġ--------------------------------": 3404,
      "Ġsrc": 3405,
      "Ġ/>": 3406,
      "RU": 3407,
      "ĠMod": 3408,
      "(-": 3409,
      "ney": 3410,
      "oad": 3411,
      "Ġtoo": 3412,
      "Then": 3413,
      "ĠâĪ": 3414,
      "Ġstructured": 3415,
      "Ġbroad": 3416,
      "Thus": 3417,
      "Ġcourse": 3418,
      "'(": 3419,
      "create": 3420,
      "ronic": 3421,
      "Ġhours": 3422,
      "ee": 3423,
      "ql": 3424,
      "Ġobjectives": 3425,
      "ĠâĶĤ": 3426,
      "Ġbr": 3427,
      "Ġcounter": 3428,
      "hing": 3429,
      "output": 3430,
      "elines": 3431,
      "ĠHowever": 3432,
      "Ġsorted": 3433,
      "Ġsan": 3434,
      "Ġgap": 3435,
      "ĠSo": 3436,
      "Ġobjects": 3437,
      "Ġmargin": 3438,
      "hash": 3439,
      "Ġcomput": 3440,
      "lat": 3441,
      "ury": 3442,
      "Ġresources": 3443,
      "ĠTo": 3444,
      "OU": 3445,
      "Ġindividual": 3446,
      "|\\": 3447,
      "ited": 3448,
      "Ġreliable": 3449,
      "Ġcenter": 3450,
      "Ġphilosoph": 3451,
      "ng": 3452,
      "rays": 3453,
      "Ġeither": 3454,
      "ĠPre": 3455,
      "Ġsafe": 3456,
      "hi": 3457,
      "Ġothers": 3458,
      "Ġsolutions": 3459,
      "Ġpython": 3460,
      "Ġpush": 3461,
      "Ġ})": 3462,
      "Ġclaim": 3463,
      "Ġclose": 3464,
      "ane": 3465,
      "arant": 3466,
      "mathcal": 3467,
      "Ġsemant": 3468,
      "iol": 3469,
      "Ġcontrib": 3470,
      "Ġheaders": 3471,
      "vices": 3472,
      "Ġax": 3473,
      "Ġelect": 3474,
      "public": 3475,
      "token": 3476,
      "ensity": 3477,
      "true": 3478,
      "default": 3479,
      "Ġfactor": 3480,
      "dec": 3481,
      "actor": 3482,
      "product": 3483,
      "posed": 3484,
      "pay": 3485,
      "Ġsal": 3486,
      "Ġmention": 3487,
      "Ġforce": 3488,
      "Ġrights": 3489,
      "][": 3490,
      "Ġnav": 3491,
      "ĠUser": 3492,
      "ĠâĶľ": 3493,
      "Now": 3494,
      "tn": 3495,
      "Ġalloc": 3496,
      "Ġshare": 3497,
      "ffic": 3498,
      "Ġdiag": 3499,
      "Ġchallenges": 3500,
      "Ġunit": 3501,
      "Ġchoice": 3502,
      "sql": 3503,
      "Ġdys": 3504,
      "Ġopp": 3505,
      "riend": 3506,
      "Ġnear": 3507,
      "rupt": 3508,
      "de": 3509,
      "**.": 3510,
      "igation": 3511,
      "iry": 3512,
      "Ġgive": 3513,
      "ĠSet": 3514,
      "apshot": 3515,
      "Ġstarting": 3516,
      "Ġdistributed": 3517,
      "Ġnu": 3518,
      "Ġenforce": 3519,
      "ttps": 3520,
      "Ġassoci": 3521,
      "Ġdatabase": 3522,
      "Ġworker": 3523,
      "iter": 3524,
      "Ġitself": 3525,
      "Ġcorrectly": 3526,
      "DB": 3527,
      "dist": 3528,
      "etime": 3529,
      "Ġrisks": 3530,
      "ership": 3531,
      "izer": 3532,
      "ustomer": 3533,
      "Ġdepends": 3534,
      "itory": 3535,
      "arp": 3536,
      "otes": 3537,
      "irements": 3538,
      "01": 3539,
      "target": 3540,
      "enses": 3541,
      "Ġbaseline": 3542,
      "cel": 3543,
      "}=": 3544,
      "ises": 3545,
      "polog": 3546,
      "Ġheader": 3547,
      "Ġoption": 3548,
      "vert": 3549,
      "Ġbrain": 3550,
      "Ġput": 3551,
      "pling": 3552,
      "Ġstakeholders": 3553,
      "hy": 3554,
      "atal": 3555,
      "lement": 3556,
      "ifier": 3557,
      "ties": 3558,
      "rect": 3559,
      "rium": 3560,
      "ĠFalse": 3561,
      "Ġcreated": 3562,
      "Ġstrict": 3563,
      "Ġcomparisons": 3564,
      "Ġreduced": 3565,
      "iology": 3566,
      "ĠHTML": 3567,
      "inu": 3568,
      "valu": 3569,
      "Ġreflect": 3570,
      "Ġrelationship": 3571,
      "18": 3572,
      "SQL": 3573,
      "alk": 3574,
      "rip": 3575,
      "ĠOut": 3576,
      "heme": 3577,
      "ln": 3578,
      "Ġruntime": 3579,
      "Ġboundary": 3580,
      "Ġintrodu": 3581,
      "Ġ'@": 3582,
      "Ġacute": 3583,
      "Ġoptimal": 3584,
      "Ġrelease": 3585,
      "Ġguid": 3586,
      "Ġaggreg": 3587,
      "uccess": 3588,
      "Ġla": 3589,
      "Ġ{}": 3590,
      "Ġuntil": 3591,
      "ĠStep": 3592,
      "Ġparse": 3593,
      "Ġestim": 3594,
      "rome": 3595,
      "Ġyet": 3596,
      "open": 3597,
      "Ġtake": 3598,
      "Ġren": 3599,
      "Ġregion": 3600,
      "-----": 3601,
      "Ġseg": 3602,
      "Ġkid": 3603,
      "Ġtransition": 3604,
      "Ġnovel": 3605,
      "Ġexamine": 3606,
      "Ġthing": 3607,
      "Ġstorage": 3608,
      "ĠSystem": 3609,
      "Ġconcept": 3610,
      "Ġtre": 3611,
      "dots": 3612,
      "ĠMain": 3613,
      "ding": 3614,
      "isma": 3615,
      "olic": 3616,
      "ĠSp": 3617,
      "Ġring": 3618,
      "ytes": 3619,
      "eries": 3620,
      "Ġ\"--": 3621,
      "Ġheight": 3622,
      "How": 3623,
      "It": 3624,
      "Ġdetails": 3625,
      "Ġdelay": 3626,
      "Ġsituation": 3627,
      "ats": 3628,
      "Ġcr": 3629,
      "lout": 3630,
      "eploy": 3631,
      "email": 3632,
      "Ġperson": 3633,
      "CK": 3634,
      "Ġweak": 3635,
      "ponse": 3636,
      "Ġbecome": 3637,
      "Ġguard": 3638,
      "Ġrelevant": 3639,
      "Ġdid": 3640,
      "match": 3641,
      "Evidence": 3642,
      "ĠPros": 3643,
      "Ġtitle": 3644,
      "Ġinsight": 3645,
      "IM": 3646,
      "Sever": 3647,
      "TL": 3648,
      "df": 3649,
      "Ġrest": 3650,
      "ested": 3651,
      "Ġones": 3652,
      "60": 3653,
      "Use": 3654,
      "Ġnumer": 3655,
      "Ġharm": 3656,
      "Ġactions": 3657,
      "Ġacknowled": 3658,
      "lining": 3659,
      "Ġtoget": 3660,
      "udget": 3661,
      "ĠNOT": 3662,
      "Ġtogether": 3663,
      "ED": 3664,
      "itivity": 3665,
      "Ġnat": 3666,
      "irection": 3667,
      "Ġstop": 3668,
      "Ġfunctional": 3669,
      "Ġintegration": 3670,
      "last": 3671,
      "ĠNode": 3672,
      "Ġexpon": 3673,
      "known": 3674,
      "mark": 3675,
      "Ġexpect": 3676,
      "Ġdeb": 3677,
      "Ġobjective": 3678,
      "Ġpassword": 3679,
      "Ġinit": 3680,
      "Ġreduction": 3681,
      "ater": 3682,
      "Ġscope": 3683,
      "Ġcorrectness": 3684,
      "Ġincrease": 3685,
      "Ġdeeper": 3686,
      "But": 3687,
      "Ġdifferential": 3688,
      "Ġissues": 3689,
      "ablish": 3690,
      "'re": 3691,
      "call": 3692,
      "dex": 3693,
      "Ġdb": 3694,
      "vari": 3695,
      "Ġhttp": 3696,
      "Ġgradient": 3697,
      "ĠCS": 3698,
      "vas": 3699,
      "Ġreasoned": 3700,
      "gre": 3701,
      "\\|": 3702,
      "Ġrenal": 3703,
      "Ġrelative": 3704,
      "Ġeffective": 3705,
      "dat": 3706,
      "AP": 3707,
      "De": 3708,
      "push": 3709,
      "Ġnorm": 3710,
      "Ġmissing": 3711,
      "Ġexposure": 3712,
      "Ġslow": 3713,
      "Ġhal": 3714,
      "Ġhappens": 3715,
      "Delta": 3716,
      "uff": 3717,
      "Ġshape": 3718,
      "Ġaccur": 3719,
      "Ġidentifying": 3720,
      "seud": 3721,
      "Ġbucket": 3722,
      "Ġbalance": 3723,
      "Ġinvestigate": 3724,
      "Sp": 3725,
      "rh": 3726,
      "Ġtor": 3727,
      "Ġtimeout": 3728,
      "Context": 3729,
      "Ġserial": 3730,
      "Ġbox": 3731,
      "Ġexamining": 3732,
      "gba": 3733,
      "ived": 3734,
      "Value": 3735,
      ",âĢĿ": 3736,
      "Ġaverage": 3737,
      "Ġpsych": 3738,
      "Pre": 3739,
      "cast": 3740,
      "Ġmix": 3741,
      "Ġep": 3742,
      "Ġtopolog": 3743,
      "ivery": 3744,
      "Approach": 3745,
      "Ġchain": 3746,
      "Ġcompares": 3747,
      "Ġratio": 3748,
      "NA": 3749,
      "Ġthings": 3750,
      "Ġexpert": 3751,
      "Request": 3752,
      "ords": 3753,
      "ĠDB": 3754,
      "ĠRet": 3755,
      "Ġmaking": 3756,
      "model": 3757,
      "Ġgroups": 3758,
      "Since": 3759,
      "loud": 3760,
      "plications": 3761,
      "Ġabsolute": 3762,
      "Ġnil": 3763,
      "ridge": 3764,
      "Ġ);": 3765,
      "Ġdest": 3766,
      "omal": 3767,
      "chron": 3768,
      "Ġinterface": 3769,
      "Ġoverl": 3770,
      "vue": 3771,
      "alle": 3772,
      "unch": 3773,
      "Ċĉĉ": 3774,
      "Ġisol": 3775,
      "search": 3776,
      "Ġnever": 3777,
      "Ġunless": 3778,
      "Ġnp": 3779,
      "Ġshowing": 3780,
      "content": 3781,
      "Ġalternative": 3782,
      "Im": 3783,
      "Ġ14": 3784,
      "proble": 3785,
      "neg": 3786,
      "Ġdim": 3787,
      "Ġalone": 3788,
      "Several": 3789,
      "Se": 3790,
      "gent": 3791,
      "Ġuseful": 3792,
      "Ġroute": 3793,
      "Ġmach": 3794,
      "Ġcomparable": 3795,
      "Ġthought": 3796,
      "Rec": 3797,
      "Ġexternal": 3798,
      "osp": 3799,
      "rawing": 3800,
      "Here": 3801,
      "normal": 3802,
      "empt": 3803,
      "Ġoutline": 3804,
      "Ġedges": 3805,
      "ĠBelow": 3806,
      "Ġmessages": 3807,
      "ĠInst": 3808,
      "Ġartifact": 3809,
      "Ġgrowth": 3810,
      "ugin": 3811,
      "Ġversus": 3812,
      "ffering": 3813,
      "Ġhappen": 3814,
      "PC": 3815,
      "Ġir": 3816,
      "Store": 3817,
      "Ġconscious": 3818,
      "appro": 3819,
      "FF": 3820,
      "lation": 3821,
      "patient": 3822,
      "Ġservices": 3823,
      "Ġbasics": 3824,
      "Ġtrigger": 3825,
      "Ġnum": 3826,
      "abilities": 3827,
      "Ġencounter": 3828,
      "Ġseparate": 3829,
      "lower": 3830,
      "Ġsuff": 3831,
      "efficient": 3832,
      "Ġden": 3833,
      "Ġbatch": 3834,
      "Ġhad": 3835,
      "Ġgra": 3836,
      "ĠSome": 3837,
      "ĠURL": 3838,
      "Config": 3839,
      "SH": 3840,
      "Set": 3841,
      "orph": 3842,
      "Ġdead": 3843,
      "Ġcriteria": 3844,
      "Ġtraining": 3845,
      "Par": 3846,
      "Ġ${": 3847,
      "Ġcentral": 3848,
      "Ġoptional": 3849,
      "etes": 3850,
      "Ġdecisions": 3851,
      "ottom": 3852,
      "using": 3853,
      "Ġneuro": 3854,
      "Ġcells": 3855,
      "ingu": 3856,
      "epts": 3857,
      "ĠData": 3858,
      "Node": 3859,
      "det": 3860,
      "ernel": 3861,
      "space": 3862,
      "CE": 3863,
      "arts": 3864,
      "buf": 3865,
      "Ġspecial": 3866,
      "Ġdirectory": 3867,
      "Ġemerges": 3868,
      "EY": 3869,
      "ÃĹ": 3870,
      "Ġ\\((": 3871,
      "Ġlayer": 3872,
      "Ġintegers": 3873,
      "Ġcateg": 3874,
      "Ġneighb": 3875,
      "ifying": 3876,
      "Ġmodern": 3877,
      "Ġcolumns": 3878,
      "Ġcompet": 3879,
      "Ġrealize": 3880,
      "Ġstrongly": 3881,
      "eep": 3882,
      "ancy": 3883,
      "ivot": 3884,
      "ĠGo": 3885,
      "Ġcomparative": 3886,
      "Ġsignificant": 3887,
      "cale": 3888,
      "Ġcounts": 3889,
      "Ġms": 3890,
      "Ġwait": 3891,
      "ĠSec": 3892,
      "ĠMon": 3893,
      "Ġtele": 3894,
      "MS": 3895,
      "Ġsplit": 3896,
      "Ġinhib": 3897,
      "Ġair": 3898,
      "Ġinj": 3899,
      "Ġprompt": 3900,
      "comple": 3901,
      "ĠThere": 3902,
      "Ġcreates": 3903,
      "Ġextrem": 3904,
      "ND": 3905,
      "values": 3906,
      "free": 3907,
      "rangle": 3908,
      "mid": 3909,
      "Ġtail": 3910,
      "Ġprove": 3911,
      "Ġflag": 3912,
      "Ġinsights": 3913,
      "pip": 3914,
      "Ġ18": 3915,
      "Ġsubset": 3916,
      "Ġfast": 3917,
      "utable": 3918,
      "Ġhost": 3919,
      "Ġdifference": 3920,
      "Ġtheme": 3921,
      "Ġclearly": 3922,
      "Ġlessons": 3923,
      "ĠType": 3924,
      "ĠNew": 3925,
      "come": 3926,
      "HER": 3927,
      "Ġcos": 3928,
      "uler": 3929,
      "Ġdoesn": 3930,
      "Ġbounded": 3931,
      "svelte": 3932,
      "}`": 3933,
      "Ġpros": 3934,
      "ured": 3935,
      "Ġparts": 3936,
      "Ġoptimization": 3937,
      "Ġvirt": 3938,
      ")(": 3939,
      "num": 3940,
      "req": 3941,
      "query": 3942,
      "ĠExp": 3943,
      "Ġdistance": 3944,
      "Ġexisting": 3945,
      "ĠWeb": 3946,
      "PO": 3947,
      "Ġgreat": 3948,
      "Ġdetect": 3949,
      "Ġsynd": 3950,
      "Ġtell": 3951,
      "Ġsays": 3952,
      "omega": 3953,
      "Ġspread": 3954,
      "Ġminimum": 3955,
      "]`": 3956,
      "Ġexpress": 3957,
      "Ġ60": 3958,
      "queue": 3959,
      "ZE": 3960,
      "âĢľ": 3961,
      "Ġrgba": 3962,
      "ĠBuild": 3963,
      "ouse": 3964,
      "Ġleading": 3965,
      "Sec": 3966,
      "anal": 3967,
      "Ġbytes": 3968,
      "duction": 3969,
      "Ġsignal": 3970,
      "Ġpractice": 3971,
      "Ġfigure": 3972,
      "Ġmit": 3973,
      "idx": 3974,
      "Ġproduce": 3975,
      "Ġsuggest": 3976,
      "Ġviol": 3977,
      "Ġcontrols": 3978,
      "Order": 3979,
      "Ġapart": 3980,
      "comp": 3981,
      "Ġsimulation": 3982,
      "Ġviewpoints": 3983,
      "Ġjobs": 3984,
      "Per": 3985,
      "Ġanim": 3986,
      "ifications": 3987,
      "Inter": 3988,
      "Ġflags": 3989,
      "ĠStart": 3990,
      "initely": 3991,
      "Ġbul": 3992,
      "Ġbudget": 3993,
      "Ġyears": 3994,
      "Another": 3995,
      "Ġauthor": 3996,
      "Ġapproximately": 3997,
      "Ġengineering": 3998,
      "Ġinject": 3999,
      "ront": 4000,
      "Ġstatist": 4001,
      ")-": 4002,
      "No": 4003,
      "ĠCan": 4004,
      "allel": 4005,
      "phas": 4006,
      "Ġprivacy": 4007,
      "https": 4008,
      "Ġdependency": 4009,
      "Testing": 4010,
      "ĠHigh": 4011,
      "Ġ19": 4012,
      "ensions": 4013,
      "return": 4014,
      "ventional": 4015,
      "atter": 4016,
      "Ġeig": 4017,
      "omial": 4018,
      "Ġge": 4019,
      "Ġbelow": 4020,
      "Ġwants": 4021,
      "Ġlearning": 4022,
      "Ġpopulation": 4023,
      ">>": 4024,
      "FA": 4025,
      "Ġremove": 4026,
      "small": 4027,
      "Ġmass": 4028,
      "Ġreplace": 4029,
      "ĠSE": 4030,
      "ĠBut": 4031,
      "Ġaddresses": 4032,
      "Ġlearned": 4033,
      "Ġqueries": 4034,
      "Ġlibrary": 4035,
      "Ġinqu": 4036,
      "Ġ'./": 4037,
      "Ġdecre": 4038,
      "Ġelevated": 4039,
      "Ġencountered": 4040,
      "33": 4041,
      "CH": 4042,
      "Qu": 4043,
      "Ġarrays": 4044,
      "Drawing": 4045,
      "Ġtrace": 4046,
      "Ġheav": 4047,
      "Ġconcern": 4048,
      "Ġdiscuss": 4049,
      "):**": 4050,
      "users": 4051,
      "Result": 4052,
      "table": 4053,
      "wind": 4054,
      "Ġfuture": 4055,
      "Ġendpoint": 4056,
      "ĠCompute": 4057,
      "join": 4058,
      "Ġtraffic": 4059,
      "subset": 4060,
      "Ġdistinctions": 4061,
      "EX": 4062,
      "ands": 4063,
      "ĠUI": 4064,
      "ik": 4065,
      "erv": 4066,
      "Ġlenses": 4067,
      "Ġmodes": 4068,
      "iversal": 4069,
      "do": 4070,
      "{}.": 4071,
      "Ġtemper": 4072,
      "Ġimmediately": 4073,
      "ĠSc": 4074,
      "Ġrespect": 4075,
      "Ġprocesses": 4076,
      "Ġrapid": 4077,
      "Ġconfiguration": 4078,
      "ION": 4079,
      "OP": 4080,
      "erves": 4081,
      "icies": 4082,
      "ĠPR": 4083,
      "Ġcancer": 4084,
      "Ġdefined": 4085,
      "Ġcand": 4086,
      "roid": 4087,
      "Ġanswering": 4088,
      "Ġvariable": 4089,
      "Ġfrequency": 4090,
      "Ġsay": 4091,
      "urb": 4092,
      "change": 4093,
      "osite": 4094,
      "Ġpartition": 4095,
      "build": 4096,
      "\".": 4097,
      "Auth": 4098,
      "Ġdf": 4099,
      "Ġprecedents": 4100,
      "Ġfn": 4101,
      "ocument": 4102,
      "ensor": 4103,
      ".)": 4104,
      "mp": 4105,
      "abil": 4106,
      "Ġconsum": 4107,
      "ursor": 4108,
      "Ġteams": 4109,
      "Ġbur": 4110,
      "Ġ}}": 4111,
      "Ġreminds": 4112,
      "Ġattrib": 4113,
      "insight": 4114,
      "ocker": 4115,
      "tim": 4116,
      "Ġrecon": 4117,
      "Ġquestioning": 4118,
      "HERE": 4119,
      "Ġsch": 4120,
      "Ġrev": 4121,
      "Ġcollect": 4122,
      "Ġattack": 4123,
      "Ġsurv": 4124,
      "LT": 4125,
      "fit": 4126,
      "orrect": 4127,
      "Ġrefer": 4128,
      "Ġinvalid": 4129,
      "control": 4130,
      "Ġperf": 4131,
      "Ġassign": 4132,
      "Module": 4133,
      "bound": 4134,
      "npm": 4135,
      "ĠAt": 4136,
      "Ġpur": 4137,
      "Ġtox": 4138,
      "Ġrunning": 4139,
      "Ġinquiry": 4140,
      "lict": 4141,
      "opt": 4142,
      "iform": 4143,
      "elete": 4144,
      "Ġchronic": 4145,
      "Ġframe": 4146,
      "module": 4147,
      "marize": 4148,
      "Ġtheory": 4149,
      "Ġlooks": 4150,
      "Ġamount": 4151,
      "Ġcalls": 4152,
      ")/": 4153,
      "Ġstage": 4154,
      "ĠGit": 4155,
      "matrix": 4156,
      "Ġtypically": 4157,
      "empotency": 4158,
      "source": 4159,
      "Ġfamily": 4160,
      "ĠAss": 4161,
      "Ġtiming": 4162,
      "Ġsanity": 4163,
      "eps": 4164,
      "Read": 4165,
      "Ġpivot": 4166,
      "ĠNext": 4167,
      "Ġstored": 4168,
      "Ġmonths": 4169,
      "ees": 4170,
      "oma": 4171,
      "Ġnote": 4172,
      "define": 4173,
      "Ġentire": 4174,
      "brid": 4175,
      "Ġage": 4176,
      "ledge": 4177,
      "password": 4178,
      "});": 4179,
      "itation": 4180,
      "Ġlines": 4181,
      "Ġprom": 4182,
      "Ġknowledge": 4183,
      "Int": 4184,
      "cache": 4185,
      "ably": 4186,
      "Ġ40": 4187,
      "Ġobser": 4188,
      "Ġequival": 4189,
      "Ġgoals": 4190,
      "Ġentries": 4191,
      "plicity": 4192,
      "prev": 4193,
      "erts": 4194,
      "sort": 4195,
      "Ġwors": 4196,
      "Ġdate": 4197,
      "plates": 4198,
      "Ġpolicies": 4199,
      "dt": 4200,
      "Ġ`.": 4201,
      "These": 4202,
      "ĠAs": 4203,
      "enerate": 4204,
      "inguish": 4205,
      "Ġinjury": 4206,
      "ĠValue": 4207,
      ")|": 4208,
      "CD": 4209,
      "co": 4210,
      "Ġscan": 4211,
      "Ġreli": 4212,
      "Ġcorrespon": 4213,
      "Ġgenerally": 4214,
      ")\\,": 4215,
      "Ġallowed": 4216,
      "Ġfin": 4217,
      "Ġfit": 4218,
      "Ġgr": 4219,
      "ĠCore": 4220,
      "ĠInclude": 4221,
      "Ġconflict": 4222,
      "Exception": 4223,
      "Ġdefinition": 4224,
      "Ġantibi": 4225,
      "Ġpred": 4226,
      "roller": 4227,
      "Ġdistinct": 4228,
      "Past": 4229,
      "Ġ\\[": 4230,
      "ponents": 4231,
      "Ġdele": 4232,
      "Ġkidney": 4233,
      "lass": 4234,
      "Ġwrong": 4235,
      "Ġgovernance": 4236,
      "Ġwondering": 4237,
      "90": 4238,
      "Ġcalled": 4239,
      "Ġweeks": 4240,
      "tool": 4241,
      "Ġcomplexities": 4242,
      "Ġvisual": 4243,
      "Ġdeterministic": 4244,
      "95": 4245,
      "CRE": 4246,
      "URL": 4247,
      "Ġday": 4248,
      "Ġvul": 4249,
      "Ġcompany": 4250,
      "Ġextra": 4251,
      "template": 4252,
      "Ġmechanism": 4253,
      "Ġpublish": 4254,
      "hood": 4255,
      "Ġbre": 4256,
      "Ġrational": 4257,
      "ĠVer": 4258,
      "ĠYour": 4259,
      "ological": 4260,
      "iph": 4261,
      "Ġcopy": 4262,
      "Ġduration": 4263,
      "height": 4264,
      "web": 4265,
      "Ġtemplate": 4266,
      "fd": 4267,
      "stra": 4268,
      "Ġasy": 4269,
      "aged": 4270,
      "Ġdatas": 4271,
      "operator": 4272,
      "Ġdeath": 4273,
      "Ġclarity": 4274,
      "Ġevaluation": 4275,
      "Ġsyndrome": 4276,
      "ones": 4277,
      "Ġrect": 4278,
      "Ġorders": 4279,
      "Ġrol": 4280,
      "Ġembed": 4281,
      "Ġlarger": 4282,
      "ĠâĶĶ": 4283,
      "cir": 4284,
      "first": 4285,
      "ĠInter": 4286,
      "gamma": 4287,
      "window": 4288,
      "Ġstra": 4289,
      "Ġ\\]": 4290,
      "forward": 4291,
      "Ġguarant": 4292,
      "Ġsmallest": 4293,
      "Ġdelivery": 4294,
      "Ġconnection": 4295,
      "Ġsession": 4296,
      "Ġinstr": 4297,
      "**</": 4298,
      "ifies": 4299,
      "metrics": 4300,
      "Ġwritten": 4301,
      "Plan": 4302,
      "eq": 4303,
      "Ġinflu": 4304,
      "Ġcalc": 4305,
      "my": 4306,
      "ĠWork": 4307,
      "Ġdashboards": 4308,
      "la": 4309,
      "rets": 4310,
      "Ġreference": 4311,
      "ĠHere": 4312,
      "ressive": 4313,
      "Ġparameter": 4314,
      "PS": 4315,
      "inity": 4316,
      "Ġdrop": 4317,
      "Ġglu": 4318,
      "ĠDe": 4319,
      "ĠBecause": 4320,
      "Index": 4321,
      "Ġbuffer": 4322,
      "shadow": 4323,
      "Ġcalcul": 4324,
      "iddleware": 4325,
      "Ġfore": 4326,
      "Ġreality": 4327,
      "Ġperspective": 4328,
      "Ġutil": 4329,
      "ĠInteg": 4330,
      "ilerplate": 4331,
      "istency": 4332,
      "ĠMake": 4333,
      "matory": 4334,
      "ategy": 4335,
      "Ġsecret": 4336,
      "ĠAny": 4337,
      "Ġblocks": 4338,
      "Ġcontainer": 4339,
      "HT": 4340,
      "year": 4341,
      "Ġinsert": 4342,
      "Ġlive": 4343,
      "Ġvariance": 4344,
      "Ġsummary": 4345,
      "Ġparameters": 4346,
      "Ġdeployment": 4347,
      "leep": 4348,
      "async": 4349,
      "Ġ----------------------------------------------------------------": 4350,
      "erate": 4351,
      "Ġ{\"": 4352,
      "SIZE": 4353,
      "Ġtoward": 4354,
      "osing": 4355,
      "Ġjson": 4356,
      "Sc": 4357,
      "Ġproposed": 4358,
      "Ġinvolved": 4359,
      "Ġhypothesis": 4360,
      "=(": 4361,
      "erive": 4362,
      "Content": 4363,
      "14": 4364,
      "Ġtick": 4365,
      "Ġautomatically": 4366,
      "Ġthoroughly": 4367,
      "First": 4368,
      "gth": 4369,
      "ĠSim": 4370,
      "Ġassess": 4371,
      "rength": 4372,
      "Ġethics": 4373,
      "gence": 4374,
      "Ġsuffering": 4375,
      "Ġdeserves": 4376,
      "Ġparticular": 4377,
      "Ġduplicates": 4378,
      "Ġrollback": 4379,
      "SR": 4380,
      "ĠCLI": 4381,
      "Ġadj": 4382,
      "Ġpriorit": 4383,
      "He": 4384,
      "cial": 4385,
      "urable": 4386,
      "apse": 4387,
      "Ġsmo": 4388,
      "system": 4389,
      "etermine": 4390,
      "Ġacknowledging": 4391,
      "Ġing": 4392,
      "ryption": 4393,
      "poss": 4394,
      "Ġupper": 4395,
      "Ġmedic": 4396,
      "Ġexplored": 4397,
      "Ġdecomposition": 4398,
      "DD": 4399,
      "dL": 4400,
      "Ġpure": 4401,
      "aring": 4402,
      "Ġprocessing": 4403,
      "Ġhashing": 4404,
      "Count": 4405,
      "high": 4406,
      "ilib": 4407,
      "Ġmedical": 4408,
      "Cre": 4409,
      "ĠAnal": 4410,
      "ĠWrite": 4411,
      "Ġlonger": 4412,
      "Ġinitially": 4413,
      "Hand": 4414,
      "ded": 4415,
      "graph": 4416,
      "}_": 4417,
      "Ġfour": 4418,
      "Ġword": 4419,
      "Ġmodule": 4420,
      "filter": 4421,
      "Approaching": 4422,
      "$.": 4423,
      "Element": 4424,
      "mand": 4425,
      "rust": 4426,
      "ĠDis": 4427,
      "ĠLog": 4428,
      "Ġenv": 4429,
      "Ġoperation": 4430,
      "info": 4431,
      "ĠPar": 4432,
      "Ġincident": 4433,
      "Map": 4434,
      "oose": 4435,
      "Ġmerge": 4436,
      "Ġbacter": 4437,
      "Ġos": 4438,
      "Ġminutes": 4439,
      "Ġclinically": 4440,
      "egin": 4441,
      "reasoned": 4442,
      "Ġsquare": 4443,
      "payload": 4444,
      "With": 4445,
      "inters": 4446,
      "reed": 4447,
      "Ġmus": 4448,
      "Ġrates": 4449,
      "Ġalert": 4450,
      "17": 4451,
      "IG": 4452,
      "Ġinform": 4453,
      "Ġemphas": 4454,
      "ĠReact": 4455,
      "ker": 4456,
      "Ġchoices": 4457,
      "Server": 4458,
      "Ref": 4459,
      "css": 4460,
      "Ġgenerating": 4461,
      "Ġproperties": 4462,
      "Designing": 4463,
      "Ġconsequ": 4464,
      "ĠSD": 4465,
      "select": 4466,
      "Ġanti": 4467,
      "Ġvulner": 4468,
      "och": 4469,
      "yles": 4470,
      "Ġnone": 4471,
      "ude": 4472,
      "Socket": 4473,
      "den": 4474,
      "dim": 4475,
      "Ġrollout": 4476,
      "enge": 4477,
      "roke": 4478,
      "Ġbug": 4479,
      "ĠCheck": 4480,
      "ersion": 4481,
      "Ġsetting": 4482,
      "Ġdetailed": 4483,
      "Ġbuilt": 4484,
      "ots": 4485,
      "ĠDate": 4486,
      "ĠDict": 4487,
      "());": 4488,
      "bra": 4489,
      "fg": 4490,
      "Ġenable": 4491,
      "akes": 4492,
      "Ġhighest": 4493,
      "Ġjustify": 4494,
      "structions": 4495,
      "200": 4496,
      "Ġpi": 4497,
      "Ġmom": 4498,
      "Ġpriority": 4499,
      "dge": 4500,
      "Ġgiving": 4501,
      "ĠPer": 4502,
      "iques": 4503,
      "Ġadvanced": 4504,
      ")]": 4505,
      ")}{": 4506,
      "Ġrecovery": 4507,
      "operatorname": 4508,
      "My": 4509,
      "alls": 4510,
      "40": 4511,
      "rout": 4512,
      "Ġanomal": 4513,
      "ĠOR": 4514,
      "Ġprevious": 4515,
      "Arg": 4516,
      "Ġstraight": 4517,
      "Calculate": 4518,
      "gle": 4519,
      "Ġsolid": 4520,
      "Ġcreating": 4521,
      "Ġassuming": 4522,
      ".\"\"\"": 4523,
      "Token": 4524,
      "uard": 4525,
      "what": 4526,
      "common": 4527,
      "Product": 4528,
      "Ġworst": 4529,
      "friend": 4530,
      "Ġfair": 4531,
      "Status": 4532,
      "Ġclasses": 4533,
      "Ġintegral": 4534,
      "istance": 4535,
      "area": 4536,
      "Ġreads": 4537,
      "Ġimproves": 4538,
      "Ġfeedback": 4539,
      "dx": 4540,
      "Ġconsole": 4541,
      "Ġoutside": 4542,
      "bs": 4543,
      "counter": 4544,
      "Ġsin": 4545,
      "Ġrepl": 4546,
      "Ġappl": 4547,
      "project": 4548,
      "Ġpool": 4549,
      "Ġminor": 4550,
      "Ġmedication": 4551,
      "aneous": 4552,
      "AS": 4553,
      "Message": 4554,
      "Ġgate": 4555,
      "Ġchunk": 4556,
      "Item": 4557,
      "direct": 4558,
      "Ġstores": 4559,
      "Ġ\\).": 4560,
      "Ġcred": 4561,
      "option": 4562,
      "zero": 4563,
      "Ġpan": 4564,
      "Ġwar": 4565,
      "Ġarbit": 4566,
      "PR": 4567,
      "net": 4568,
      "uction": 4569,
      "ailwind": 4570,
      "rowser": 4571,
      "========": 4572,
      "Ġcommunication": 4573,
      "Ġsomething": 4574,
      "ĠJavaScript": 4575,
      "langle": 4576,
      "}\"": 4577,
      "isms": 4578,
      "Ġequilib": 4579,
      "Ġattempt": 4580,
      "ournal": 4581,
      "Ġdetail": 4582,
      "Ġhelps": 4583,
      "tle": 4584,
      "Ġmental": 4585,
      "ung": 4586,
      "Ġcalculate": 4587,
      "Ġauthent": 4588,
      "âĶĢâĶĢâĶĢâĶĢâĶĢâĶĢâĶĢâĶĢ": 4589,
      "From": 4590,
      "ĠUp": 4591,
      "Ġparallel": 4592,
      "Ġendpoints": 4593,
      "ĠTrans": 4594,
      "uint": 4595,
      "omen": 4596,
      "Ġhosp": 4597,
      "ĠPl": 4598,
      "^{\\": 4599,
      "Ġallows": 4600,
      "books": 4601,
      "Ġmal": 4602,
      "ĠAut": 4603,
      "ĠDec": 4604,
      "aily": 4605,
      "Ġclassic": 4606,
      "Ġfindings": 4607,
      "SER": 4608,
      "Ġsmaller": 4609,
      "Ġtrad": 4610,
      "Ġhar": 4611,
      "Ġgame": 4612,
      "Ġ500": 4613,
      "Ġconvergence": 4614,
      "Ġwrites": 4615,
      "\\,\\": 4616,
      "meta": 4617,
      "pag": 4618,
      "send": 4619,
      "Ġve": 4620,
      "Ġdose": 4621,
      "Ġargparse": 4622,
      "FS": 4623,
      "Not": 4624,
      "Ġsys": 4625,
      "gebra": 4626,
      "Ġassumption": 4627,
      "device": 4628,
      "iers": 4629,
      "prod": 4630,
      "Ġexpression": 4631,
      "Ġsemantics": 4632,
      "itors": 4633,
      "ĠRout": 4634,
      "------------------------": 4635,
      "Ġsatisfy": 4636,
      "ĠRedis": 4637,
      "([": 4638,
      "Ġaim": 4639,
      "score": 4640,
      "Ġmachine": 4641,
      "Ms": 4642,
      "iting": 4643,
      "ĠThese": 4644,
      "Ġsoft": 4645,
      "Ġremaining": 4646,
      "Ġsometimes": 4647,
      "arily": 4648,
      "uster": 4649,
      "ĠBash": 4650,
      "cluding": 4651,
      "Ġcausing": 4652,
      "256": 4653,
      "Ġlaunch": 4654,
      "Ġrank": 4655,
      "Ġprimes": 4656,
      "Ġoccurs": 4657,
      "Ġoutcome": 4658,
      "\"],": 4659,
      "Rout": 4660,
      "otics": 4661,
      "Ġtrust": 4662,
      "Ġmapping": 4663,
      "Ġsecure": 4664,
      "Response": 4665,
      "memory": 4666,
      "Ġtelemetry": 4667,
      "All": 4668,
      "Ġturn": 4669,
      "ĠCol": 4670,
      "Ġaccord": 4671,
      "Ġpractices": 4672,
      "Ġsimplicity": 4673,
      "Ġtimestamp": 4674,
      "nu": 4675,
      "Ġded": 4676,
      "angular": 4677,
      "Ġwords": 4678,
      "driven": 4679,
      "del": 4680,
      "Ġdone": 4681,
      "ostic": 4682,
      "ĠUs": 4683,
      "Ġcolors": 4684,
      "Ġphen": 4685,
      "Prove": 4686,
      "Be": 4687,
      "\\/": 4688,
      "fs": 4689,
      "uit": 4690,
      "Ġmeet": 4691,
      "ĠRead": 4692,
      "Ġtransmission": 4693,
      "Ġacid": 4694,
      "Ġrare": 4695,
      "response": 4696,
      "cd": 4697,
      "loor": 4698,
      "Ġ((": 4699,
      "Ġdescription": 4700,
      "ÏĢ": 4701,
      "Ġkernel": 4702,
      "Ġ42": 4703,
      "tein": 4704,
      "Ġpoor": 4705,
      "Ġcoefficient": 4706,
      "Ġvas": 4707,
      "Ġobtain": 4708,
      "Ġpointers": 4709,
      "Ġkeeping": 4710,
      "Async": 4711,
      "begin": 4712,
      "arter": 4713,
      "urther": 4714,
      "ventory": 4715,
      "Ġhybrid": 4716,
      "Load": 4717,
      "unction": 4718,
      "Ġleak": 4719,
      "ocal": 4720,
      "Ġroots": 4721,
      "xi": 4722,
      "Ob": 4723,
      "empty": 4724,
      "ibly": 4725,
      "Build": 4726,
      "csv": 4727,
      "Ġsides": 4728,
      "ĠFROM": 4729,
      "Ġbutton": 4730,
      "Ġtempor": 4731,
      "Ġestablish": 4732,
      "txt": 4733,
      "ĠÃĹ": 4734,
      "Ġpul": 4735,
      "Ġfront": 4736,
      "Ġconv": 4737,
      "ria": 4738,
      "Ġâī¤": 4739,
      "PE": 4740,
      "find": 4741,
      "../": 4742,
      "ynomial": 4743,
      "ĠIDs": 4744,
      "Ġgluc": 4745,
      "fill": 4746,
      "optional": 4747,
      "this": 4748,
      "Ġsimulate": 4749,
      "Ġphase": 4750,
      "Ġauton": 4751,
      "Ġprogramming": 4752,
      "Ġappear": 4753,
      "apping": 4754,
      "Ġideas": 4755,
      "Ġcommands": 4756,
      "Ġlegal": 4757,
      "Get": 4758,
      "Ġhref": 4759,
      "Ġstroke": 4760,
      "ister": 4761,
      "ros": 4762,
      "icated": 4763,
      "ĠPh": 4764,
      "Ġ[\"": 4765,
      "ĠMy": 4766,
      "Ġconcurrent": 4767,
      "Ġbias": 4768,
      "layer": 4769,
      "ĠOutput": 4770,
      "Ġtren": 4771,
      "omorph": 4772,
      "ames": 4773,
      "abor": 4774,
      "Input": 4775,
      "Ġrecords": 4776,
      "Ġefficiency": 4777,
      "ĠYes": 4778,
      "Ġamong": 4779,
      "iologic": 4780,
      "utive": 4781,
      "rief": 4782,
      "aves": 4783,
      "oice": 4784,
      "ĠFl": 4785,
      "Ġround": 4786,
      "ips": 4787,
      "Ġactual": 4788,
      "Ġconcepts": 4789,
      "Ġincreasing": 4790,
      "Ġestimate": 4791,
      "Ġnatural": 4792,
      "rim": 4793,
      "Ġrecogn": 4794,
      ">`": 4795,
      "zz": 4796,
      "update": 4797,
      "Ġconcurrency": 4798,
      "!**": 4799,
      "Head": 4800,
      "room": 4801,
      "ivate": 4802,
      "Ġexceed": 4803,
      "array": 4804,
      ",\"": 4805,
      "Code": 4806,
      "sw": 4807,
      "ĠMet": 4808,
      "bg": 4809,
      "Ġtables": 4810,
      "ulti": 4811,
      "oster": 4812,
      "spect": 4813,
      "Ġfailures": 4814,
      "mediate": 4815,
      "']": 4816,
      "Ass": 4817,
      "Can": 4818,
      "ĊĠĠĠĠĠĠ": 4819,
      "ĠEm": 4820,
      "ĠFind": 4821,
      "Ġpersist": 4822,
      "Ġproperty": 4823,
      "Ġconnected": 4824,
      "Ġexecution": 4825,
      "When": 4826,
      "Ġcurve": 4827,
      ")\\).": 4828,
      "CU": 4829,
      "Ġbar": 4830,
      "rails": 4831,
      "Ġregister": 4832,
      "ifically": 4833,
      "ampling": 4834,
      "Ġuniform": 4835,
      "format": 4836,
      "Ġlevels": 4837,
      "Ġurl": 4838,
      "sign": 4839,
      "Ġcompat": 4840,
      "Ġprovided": 4841,
      "Ġmodeling": 4842,
      "Ġdiab": 4843,
      "Ġteach": 4844,
      "Ġexponential": 4845,
      "bytes": 4846,
      "attern": 4847,
      "ĠSvelte": 4848,
      "cles": 4849,
      "Ġpolynomial": 4850,
      "ĠAPIs": 4851,
      "gn": 4852,
      "strip": 4853,
      "Ġretention": 4854,
      "Ġoverall": 4855,
      "Example": 4856,
      "Ġpartial": 4857,
      "Ġseverity": 4858,
      "Ġsurface": 4859,
      "Ġavoids": 4860,
      "espace": 4861,
      "Ġexperiments": 4862,
      "Ġplayer": 4863,
      "Ġcaching": 4864,
      "Form": 4865,
      "ged": 4866,
      "number": 4867,
      "}:": 4868,
      "idation": 4869,
      "ĠForm": 4870,
      "ĠApply": 4871,
      "olean": 4872,
      "br": 4873,
      "Ġactually": 4874,
      "Ġfluid": 4875,
      "ooks": 4876,
      "Ġarbitr": 4877,
      "['": 4878,
      "Ġrad": 4879,
      "related": 4880,
      "Ġinstructions": 4881,
      "eter": 4882,
      "ptr": 4883,
      "Ġidx": 4884,
      "erialize": 4885,
      "Ġtopological": 4886,
      "ĠReturn": 4887,
      "mation": 4888,
      "atin": 4889,
      "Ġpersonal": 4890,
      "Ġmemb": 4891,
      "Ġsnapshot": 4892,
      "ply": 4893,
      "portion": 4894,
      "Ġadding": 4895,
      "Ġbenefits": 4896,
      "theme": 4897,
      "olicy": 4898,
      "cons": 4899,
      "Ġproducts": 4900,
      "Why": 4901,
      "Ġcalculation": 4902,
      "35": 4903,
      "yond": 4904,
      "}=\\": 4905,
      "leed": 4906,
      "Ġbeyond": 4907,
      "Ġ[[": 4908,
      "ING": 4909,
      "used": 4910,
      "Ġimposs": 4911,
      "tau": 4912,
      "Ġmatching": 4913,
      "Ġoccur": 4914,
      "Ġsynthesis": 4915,
      "Ġmm": 4916,
      "Ġenter": 4917,
      "Ġscreening": 4918,
      "greSQL": 4919,
      "II": 4920,
      "Ġcou": 4921,
      "Ġyields": 4922,
      "Ġ80": 4923,
      "paring": 4924,
      "Ġexperiment": 4925,
      "varphi": 4926,
      "plot": 4927,
      "rr": 4928,
      "ird": 4929,
      "Ġstatements": 4930,
      "friendly": 4931,
      "45": 4932,
      "Ġtag": 4933,
      "Ġhor": 4934,
      "Ġunknown": 4935,
      "Ġselection": 4936,
      "ENT": 4937,
      "Ġchildren": 4938,
      "Ġsymbol": 4939,
      "rams": 4940,
      "ĠKeep": 4941,
      "Ġfollows": 4942,
      ".\",": 4943,
      "ipp": 4944,
      "Ġfill": 4945,
      "Ġtogg": 4946,
      "ĠAR": 4947,
      "Ġresol": 4948,
      "Ġnotes": 4949,
      "Ġspaces": 4950,
      "Ġnoise": 4951,
      "Prov": 4952,
      "Ġtemplates": 4953,
      "Ġopposite": 4954,
      "\\):": 4955,
      "ĠLRU": 4956,
      "ĠUsing": 4957,
      "Ġcomparison": 4958,
      "Ġhalf": 4959,
      "bal": 4960,
      "ov": 4961,
      "entry": 4962,
      "very": 4963,
      "ĠDes": 4964,
      "Ġchallenge": 4965,
      "KD": 4966,
      "Each": 4967,
      "Ġwhole": 4968,
      "Ġ`/": 4969,
      "defined": 4970,
      "ĠError": 4971,
      "words": 4972,
      "Ġequilibrium": 4973,
      "IL": 4974,
      "Ġcatch": 4975,
      "Ġpages": 4976,
      "ĠAND": 4977,
      "ĠOpen": 4978,
      "Ġpointer": 4979,
      "Ġpreferred": 4980,
      "Ġthresholds": 4981,
      "Ġmeaningful": 4982,
      "ĠRequirements": 4983,
      "!</": 4984,
      "Line": 4985,
      "iate": 4986,
      "ĠSLO": 4987,
      "elling": 4988,
      "rows": 4989,
      "Ġdepending": 4990,
      "Ġfocusing": 4991,
      "Ġtechniques": 4992,
      "Ġlabels": 4993,
      "Ġextreme": 4994,
      "Ġinequ": 4995,
      "Ġna": 4996,
      "Ġ-->": 4997,
      "Ġboundaries": 4998,
      "writ": 4999,
      "Ġland": 5000,
      "Ġstrings": 5001,
      "Ġadditional": 5002,
      "Ġactivity": 5003,
      "Ġloading": 5004,
      "types": 5005,
      "Ġmoment": 5006,
      "inates": 5007,
      "Ġbind": 5008,
      "ĠIs": 5009,
      "Ġroles": 5010,
      "ĠWith": 5011,
      "Ġpharm": 5012,
      "Ġremote": 5013,
      "Ġconnect": 5014,
      "=$": 5015,
      "NT": 5016,
      "bum": 5017,
      "Ġwater": 5018,
      "ctive": 5019,
      "ĠCPU": 5020,
      "Ġcorrected": 5021,
      "Trans": 5022,
      "Ġfallback": 5023,
      "Ġvertices": 5024,
      "Ġconsciousness": 5025,
      "%,": 5026,
      "CO": 5027,
      "Ġbleed": 5028,
      "image": 5029,
      "ritical": 5030,
      "Initial": 5031,
      "Ġinstance": 5032,
      "dp": 5033,
      "Ġfurther": 5034,
      "Ġwatch": 5035,
      "Ġboilerplate": 5036,
      "Ġstandards": 5037,
      "Ver": 5038,
      "ello": 5039,
      "oses": 5040,
      "oggle": 5041,
      "Ġsmooth": 5042,
      "gular": 5043,
      "ĠReg": 5044,
      "Ġunn": 5045,
      "Ġinfinitely": 5046,
      "LA": 5047,
      "ender": 5048,
      "Ġ\"__": 5049,
      "SELECT": 5050,
      ")^{": 5051,
      "ij": 5052,
      "oom": 5053,
      "ician": 5054,
      "Ġexport": 5055,
      "Ġuniversal": 5056,
      ")\\),": 5057,
      "cin": 5058,
      "}\\).": 5059,
      "Ġign": 5060,
      "inks": 5061,
      "letion": 5062,
      "aults": 5063,
      "haps": 5064,
      "ortality": 5065,
      "Ġroutes": 5066,
      "Ġassumes": 5067,
      "float": 5068,
      "wo": 5069,
      "Ġease": 5070,
      "ĠNot": 5071,
      "0000": 5072,
      "ĠMaintain": 5073,
      "ĠValueError": 5074,
      "chem": 5075,
      "Ġgl": 5076,
      "__\":": 5077,
      "Ġresponses": 5078,
      "Ġschool": 5079,
      "CR": 5080,
      "None": 5081,
      "Task": 5082,
      "uple": 5083,
      "ze": 5084,
      "Ġradi": 5085,
      "Ġappend": 5086,
      "âĶľ": 5087,
      "Ġmaterial": 5088,
      "sets": 5089,
      "Ġstudy": 5090,
      "Ġhospital": 5091,
      "\"),": 5092,
      "05": 5093,
      "job": 5094,
      "chest": 5095,
      "Ġloc": 5096,
      "Ġsettings": 5097,
      "primary": 5098,
      "Ġobservation": 5099,
      "Select": 5100,
      "View": 5101,
      "Ġfailed": 5102,
      "Ġdensity": 5103,
      "Ġbeli": 5104,
      "Ġstress": 5105,
      "ounds": 5106,
      "ĠDE": 5107,
      "----------": 5108,
      "Ġconsistency": 5109,
      "context": 5110,
      "Ġcirc": 5111,
      "Ġmsg": 5112,
      "sk": 5113,
      "romise": 5114,
      "Ġimages": 5115,
      "Ġrouting": 5116,
      "?âĢĿ": 5117,
      "ASE": 5118,
      "Ġpositions": 5119,
      "Ġsignals": 5120,
      "Ġderive": 5121,
      "which": 5122,
      "Ġnames": 5123,
      "Solve": 5124,
      "Ġcoun": 5125,
      "ptim": 5126,
      "Ġensures": 5127,
      "Ġcombinator": 5128,
      "Explaining": 5129,
      "nab": 5130,
      "uzz": 5131,
      "erve": 5132,
      "onic": 5133,
      "thread": 5134,
      "seq": 5135,
      "strict": 5136,
      "Ġinfinity": 5137,
      "Ġformal": 5138,
      "Ġoptimized": 5139,
      "Ġanalytic": 5140,
      "CP": 5141,
      "False": 5142,
      "rategy": 5143,
      "keys": 5144,
      "click": 5145,
      "INT": 5146,
      "Ġviews": 5147,
      "Ġaligns": 5148,
      "ĠSummarize": 5149,
      "ĠPostgreSQL": 5150,
      "ĠDoes": 5151,
      "Ġpy": 5152,
      "ĠSub": 5153,
      "Ġalerts": 5154,
      "tsx": 5155,
      "pert": 5156,
      "ĠMan": 5157,
      "ĠInput": 5158,
      "Ġcoverage": 5159,
      "approx": 5160,
      "UT": 5161,
      "Ġcogn": 5162,
      "amps": 5163,
      "izable": 5164,
      "Ġplanning": 5165,
      "Ġsafely": 5166,
      "Ġimmune": 5167,
      "ites": 5168,
      "ĠThus": 5169,
      "remove": 5170,
      "Ġsurve": 5171,
      "Ġdelete": 5172,
      "lear": 5173,
      "Ġwhose": 5174,
      "ortic": 5175,
      "ĠBy": 5176,
      "Ġtrial": 5177,
      "Ġgeomet": 5178,
      "Ġsizes": 5179,
      "Ġprefix": 5180,
      "Ġsurg": 5181,
      "allow": 5182,
      "ĠRust": 5183,
      "Ġweights": 5184,
      "Ġmetric": 5185,
      "lines": 5186,
      "patch": 5187,
      "Ġsound": 5188,
      "Ġpd": 5189,
      "Ġ(âĢľ": 5190,
      "Ġimpl": 5191,
      "Ġcustomers": 5192,
      "going": 5193,
      "Up": 5194,
      "amb": 5195,
      "ĠTime": 5196,
      "Ġapproval": 5197,
      "Ġplt": 5198,
      "Ġeduc": 5199,
      "Ġprotect": 5200,
      ">(": 5201,
      "aired": 5202,
      "grid": 5203,
      "udit": 5204,
      "(\"--": 5205,
      "ĠKey": 5206,
      "Listener": 5207,
      "Ġcapture": 5208,
      "package": 5209,
      "roph": 5210,
      "Ġshift": 5211,
      "ĠBY": 5212,
      "Ġroad": 5213,
      "ĠOption": 5214,
      "Ġtransaction": 5215,
      "Ġbook": 5216,
      "Ġartifacts": 5217,
      "break": 5218,
      "lim": 5219,
      "ux": 5220,
      "}\\),": 5221,
      "Ġresearch": 5222,
      "Ġ({": 5223,
      "ĠDerive": 5224,
      "Ġcomplement": 5225,
      "!--": 5226,
      "Ġyield": 5227,
      "Ġdrift": 5228,
      "Ġdetermine": 5229,
      "Ġrecursive": 5230,
      "negative": 5231,
      "Patient": 5232,
      "iment": 5233,
      "Ġ\\),": 5234,
      "ĠTask": 5235,
      "Ġsync": 5236,
      "cellation": 5237,
      "ABLE": 5238,
      "Ad": 5239,
      "core": 5240,
      "ios": 5241,
      "orn": 5242,
      "aph": 5243,
      "Ġsubstant": 5244,
      "Run": 5245,
      "long": 5246,
      "yroid": 5247,
      "Ġexc": 5248,
      "slate": 5249,
      "otential": 5250,
      "Ġrelat": 5251,
      "Ġcoh": 5252,
      "Ġverification": 5253,
      "Kit": 5254,
      "Ġfaster": 5255,
      "Ġ13": 5256,
      "Ġbeta": 5257,
      "command": 5258,
      "Ġbackend": 5259,
      "Ġhypert": 5260,
      "ById": 5261,
      "valuate": 5262,
      "Ent": 5263,
      "Ġsoci": 5264,
      "ugg": 5265,
      "ophys": 5266,
      "Ġhardware": 5267,
      "Ġnuanced": 5268,
      "Ġsegment": 5269,
      "ĠDAG": 5270,
      "Ġrecept": 5271,
      "Rate": 5272,
      "lig": 5273,
      "ulin": 5274,
      "adjust": 5275,
      "Ġalgebra": 5276,
      "Ġadmin": 5277,
      "Ġactivation": 5278,
      "subseteq": 5279,
      "Ġwra": 5280,
      "Ġ\\\\": 5281,
      "ository": 5282,
      "Ġinvolve": 5283,
      "Ġfavored": 5284,
      "Ġodd": 5285,
      "Ġinvari": 5286,
      "ĠAngular": 5287,
      "Ġrelationships": 5288,
      "Ġeigen": 5289,
      "****": 5290,
      "ĠON": 5291,
      "Date": 5292,
      "tok": 5293,
      "ĠSuccess": 5294,
      "track": 5295,
      "Ġ90": 5296,
      "Ġowner": 5297,
      "Post": 5298,
      "customer": 5299,
      "ycle": 5300,
      "Ġshell": 5301,
      "Ġresistance": 5302,
      "Ġspect": 5303,
      "feature": 5304,
      "Next": 5305,
      "vector": 5306,
      "}}{": 5307,
      "Ġtouch": 5308,
      "enario": 5309,
      "Ġstudent": 5310,
      "EventListener": 5311,
      "Ġsusp": 5312,
      "hn": 5313,
      "Ġtheories": 5314,
      "ĠConfig": 5315,
      "missions": 5316,
      "Ġisn": 5317,
      "ritis": 5318,
      "ĠProduct": 5319,
      "Ġextend": 5320,
      "Ġstudies": 5321,
      "center": 5322,
      "ĠâĶľâĶĢâĶĢ": 5323,
      "Ġdysfunction": 5324,
      "Ġtemperature": 5325,
      "BC": 5326,
      "Bu": 5327,
      "false": 5328,
      "mia": 5329,
      "Ġmen": 5330,
      "Ġstory": 5331,
      "ump": 5332,
      "Ġclassical": 5333,
      "Ġtransfer": 5334,
      "Ġreducing": 5335,
      "price": 5336,
      "Ġprinciple": 5337,
      "Ġautomated": 5338,
      "Ġpreferences": 5339,
      "Ġassociated": 5340,
      "Ġarbitrary": 5341,
      "Ġunnecessary": 5342,
      "EM": 5343,
      "Ġgeneration": 5344,
      "Ġboot": 5345,
      "rolling": 5346,
      "ography": 5347,
      "Ġnaive": 5348,
      "oral": 5349,
      "Ġhom": 5350,
      "ueue": 5351,
      "Ġemp": 5352,
      "Ġeffort": 5353,
      "Ġeffectively": 5354,
      "Ġbleeding": 5355,
      "IC": 5356,
      "drop": 5357,
      "Ġ17": 5358,
      "bucket": 5359,
      "Ġpreserves": 5360,
      "Ġconstructive": 5361,
      "atalog": 5362,
      "Ġaccording": 5363,
      "New": 5364,
      "rl": 5365,
      "scale": 5366,
      "erc": 5367,
      "Ġinher": 5368,
      "ĠIV": 5369,
      "Ġresidual": 5370,
      "Ġinflammation": 5371,
      "\"`": 5372,
      "tip": 5373,
      "Ġlack": 5374,
      "exts": 5375,
      "localhost": 5376,
      "Ġvertex": 5377,
      ")?": 5378,
      "Text": 5379,
      "btn": 5380,
      "eses": 5381,
      "itution": 5382,
      "Ġmil": 5383,
      "oney": 5384,
      "sole": 5385,
      "Ġexperimental": 5386,
      "Ġbeginner": 5387,
      "ĠSELECT": 5388,
      "aced": 5389,
      "Ġstarts": 5390,
      "ruction": 5391,
      "Ġsensitivity": 5392,
      "Ġopacity": 5393,
      "Limit": 5394,
      "Phi": 5395,
      "rations": 5396,
      "ctx": 5397,
      "ĠSupport": 5398,
      "Ġconserv": 5399,
      "avas": 5400,
      "Ġclarifying": 5401,
      "Ġinterpretation": 5402,
      "aff": 5403,
      "âĪ": 5404,
      "isely": 5405,
      "child": 5406,
      "Inst": 5407,
      "Ġloops": 5408,
      "Ġanalytics": 5409,
      "simple": 5410,
      "Ġcombinatorial": 5411,
      "500": 5412,
      "KEY": 5413,
      "SO": 5414,
      "Ġfood": 5415,
      "Ġfmt": 5416,
      "Ġnarrow": 5417,
      "ĠCD": 5418,
      "clus": 5419,
      "Ġchannel": 5420,
      "orders": 5421,
      "created": 5422,
      "Ġbehind": 5423,
      "Ġkeeps": 5424,
      "Ġselected": 5425,
      "ĠSummary": 5426,
      "Ġrotation": 5427,
      "Ġcandidate": 5428,
      "avascript": 5429,
      "Using": 5430,
      "border": 5431,
      "eration": 5432,
      "Ġdark": 5433,
      "ups": 5434,
      "ĠMap": 5435,
      "ĠHand": 5436,
      "ĠGiven": 5437,
      "Ġregular": 5438,
      "Ġconcent": 5439,
      "king": 5440,
      "most": 5441,
      "icon": 5442,
      "ĠĠĠĠĠĠĠĠĠ": 5443,
      "produ": 5444,
      "Ġheap": 5445,
      "Ġtranslate": 5446,
      "Ġrecall": 5447,
      "Ġrisky": 5448,
      "ART": 5449,
      "Ġimprovement": 5450,
      "Ġconsequences": 5451,
      "Open": 5452,
      "Your": 5453,
      "Ġsection": 5454,
      "Ġpseud": 5455,
      "Ġfraction": 5456,
      "Ġhim": 5457,
      "Ġcong": 5458,
      "Ġgot": 5459,
      "ĠRem": 5460,
      "Ġ32": 5461,
      "Ġintroduces": 5462,
      "Argument": 5463,
      "Dis": 5464,
      "Ġaria": 5465,
      "Ġsite": 5466,
      "Ġoxy": 5467,
      "Ġarguments": 5468,
      "Ġtyping": 5469,
      "Ġcosts": 5470,
      "Ġescal": 5471,
      "Ġglucose": 5472,
      "pop": 5473,
      "ride": 5474,
      "Start": 5475,
      "encing": 5476,
      "random": 5477,
      "split": 5478,
      "uria": 5479,
      "Ġvan": 5480,
      "ĠOver": 5481,
      "}\\,": 5482,
      "Ġtimest": 5483,
      "Ġ??": 5484,
      "FR": 5485,
      "javascript": 5486,
      "Ġstability": 5487,
      "ĠEvent": 5488,
      "âĢĿ)": 5489,
      "msg": 5490,
      "Repository": 5491,
      "deg": 5492,
      "Ġmagn": 5493,
      "Ġdaily": 5494,
      "Ġinduct": 5495,
      "Ġhit": 5496,
      "Ġhidden": 5497,
      "ops": 5498,
      "Ġsecrets": 5499,
      "ructure": 5500,
      "Ġfavor": 5501,
      "Ġeasy": 5502,
      "hyd": 5503,
      "Ġequivalent": 5504,
      "range": 5505,
      "ui": 5506,
      "Ġtum": 5507,
      "Ġmedi": 5508,
      "ĠDocker": 5509,
      "ĠEX": 5510,
      "Ġcontact": 5511,
      "scss": 5512,
      "services": 5513,
      "Ġlinks": 5514,
      "full": 5515,
      "gers": 5516,
      "Ġod": 5517,
      "expect": 5518,
      "rier": 5519,
      "ternative": 5520,
      "Ġstakeholder": 5521,
      "ĠVerify": 5522,
      "delete": 5523,
      "Ġmid": 5524,
      "Ġdam": 5525,
      "unc": 5526,
      "ema": 5527,
      "chang": 5528,
      "ague": 5529,
      "Ġsomeone": 5530,
      "Ġtypical": 5531,
      "accur": 5532,
      "Ġinflammatory": 5533,
      "ĊĠĠĠĠĠĠĠĠĠĠĠĠĠĠĠĠĠĠĠĠĠĠĠĠĠĠĠ": 5534,
      "CREATE": 5535,
      "Ġnature": 5536,
      "though": 5537,
      "Ġtravel": 5538,
      "region": 5539,
      "annels": 5540,
      "vascular": 5541,
      "Ġtoxicity": 5542,
      "Ġdiabetes": 5543,
      "tract": 5544,
      "Ġsave": 5545,
      "ising": 5546,
      "Ġrepos": 5547,
      "ĠDesign": 5548,
      "ills": 5549,
      "Ġdistinguish": 5550,
      "neum": 5551,
      "metric": 5552,
      "Ġtracking": 5553,
      "Ġlayers": 5554,
      "Dec": 5555,
      "Ġbridge": 5556,
      "assium": 5557,
      "osen": 5558,
      "ĠRef": 5559,
      "ĠRev": 5560,
      "__(": 5561,
      "Ġideal": 5562,
      "Handler": 5563,
      "nabla": 5564,
      "Us": 5565,
      "ectors": 5566,
      "Ġ1000": 5567,
      "osph": 5568,
      "Ġencryption": 5569,
      "Ġrobustness": 5570,
      "Ġserialize": 5571,
      "Ġperfect": 5572,
      "Ġobserved": 5573,
      "CL": 5574,
      "tag": 5575,
      "orpor": 5576,
      "ĠAvoid": 5577,
      "article": 5578,
      "ĠGraph": 5579,
      "Ġhighlight": 5580,
      "Ġregression": 5581,
      "Ġotherwise": 5582,
      "Ġstronger": 5583,
      "Ġupdated": 5584,
      "handle": 5585,
      "Ġtorus": 5586,
      "leq": 5587,
      "Ġtoler": 5588,
      "Ġjo": 5589,
      "Ġexpans": 5590,
      "Ġdesp": 5591,
      "Ġboard": 5592,
      "Ġdelta": 5593,
      "Ġrender": 5594,
      "onia": 5595,
      "Ġ`(": 5596,
      "acters": 5597,
      "ĠMin": 5598,
      "components": 5599,
      "appa": 5600,
      "Ġordering": 5601,
      "Ġimmun": 5602,
      "Ġreports": 5603,
      "Ġeasier": 5604,
      "ĠCSV": 5605,
      "pc": 5606,
      "Ġexit": 5607,
      "exec": 5608,
      "Ġupon": 5609,
      "Ġsmok": 5610,
      "Ġchanged": 5611,
      "Ġcommonly": 5612,
      "########": 5613,
      "fetch": 5614,
      "ĊĊĠĠ": 5615,
      "Ġclock": 5616,
      "eck": 5617,
      "Ġpathophys": 5618,
      "Ġreading": 5619,
      "riority": 5620,
      "Ġphenomen": 5621,
      "/\\": 5622,
      "Met": 5623,
      "TT": 5624,
      "]]": 5625,
      "astic": 5626,
      "Ġrecent": 5627,
      "obile": 5628,
      "neq": 5629,
      "clear": 5630,
      "constra": 5631,
      "Ġissue": 5632,
      "Ġcollapse": 5633,
      "ĠSvelteKit": 5634,
      "*.": 5635,
      "dig": 5636,
      "sample": 5637,
      "Ġven": 5638,
      "ĠWHERE": 5639,
      "Ġaccum": 5640,
      "cdots": 5641,
      "urrence": 5642,
      "Ġlaws": 5643,
      "Ġbrief": 5644,
      "Ġech": 5645,
      "Ġtransport": 5646,
      "Ġtransparent": 5647,
      "Ġsupported": 5648,
      "Ġurgent": 5649,
      "Model": 5650,
      "`).": 5651,
      "fn": 5652,
      "sys": 5653,
      "Ġthrom": 5654,
      "Ġunits": 5655,
      "Ġsimply": 5656,
      "Ġinteraction": 5657,
      "Ġcomplet": 5658,
      "Ġ$\\": 5659,
      "Ġhandles": 5660,
      "Ġidentified": 5661,
      "Ġtargets": 5662,
      "bigu": 5663,
      "Ġaffected": 5664,
      "Ġburden": 5665,
      "circ": 5666,
      "router": 5667,
      "Ġstraightforward": 5668,
      "Ġmortality": 5669,
      "icial": 5670,
      "Ġproportion": 5671,
      "Ġsubject": 5672,
      "Ġhandler": 5673,
      "pathy": 5674,
      "Ġphilosophical": 5675,
      "ĠTypeScript": 5676,
      "FI": 5677,
      "bl": 5678,
      "uly": 5679,
      "Ġmade": 5680,
      "idity": 5681,
      "Ġdevelopment": 5682,
      "ĠModel": 5683,
      "WT": 5684,
      "lace": 5685,
      "icate": 5686,
      "amin": 5687,
      "ĠPatient": 5688,
      "Ġ85": 5689,
      "Ġmeasures": 5690,
      "Ġplatforms": 5691,
      "Ġdespite": 5692,
      "Ġproced": 5693,
      "chain": 5694,
      "Ġintr": 5695,
      "Ġquot": 5696,
      "arian": 5697,
      "Ġjud": 5698,
      "Ġexpand": 5699,
      "Ġsubsequ": 5700,
      "Ġdiscrim": 5701,
      "ORT": 5702,
      "Ġcontaining": 5703,
      "files": 5704,
      "CS": 5705,
      "]),": 5706,
      "cmd": 5707,
      "including": 5708,
      "Ġstrength": 5709,
      "Ġvent": 5710,
      "agement": 5711,
      "Ġseed": 5712,
      "Ġworkers": 5713,
      "Ġrefus": 5714,
      "Ġincreased": 5715,
      "Ġprevents": 5716,
      "Ġaffect": 5717,
      "columns": 5718,
      "Ġneighbor": 5719,
      "Creating": 5720,
      "'),": 5721,
      "Size": 5722,
      "sure": 5723,
      "Ġmot": 5724,
      "derr": 5725,
      "Ġequations": 5726,
      "Ġextract": 5727,
      "floor": 5728,
      "Ġseems": 5729,
      "Ġacqu": 5730,
      "schema": 5731,
      "iveness": 5732,
      "Ġguide": 5733,
      "?.": 5734,
      "Break": 5735,
      "med": 5736,
      "oll": 5737,
      "Ġlung": 5738,
      "Ġintervention": 5739,
      "ologic": 5740,
      "piratory": 5741,
      "aclass": 5742,
      "Ġlit": 5743,
      "izon": 5744,
      "headers": 5745,
      "Ġcharacters": 5746,
      "Ġantibiotics": 5747,
      "uling": 5748,
      "odo": 5749,
      "Ġprofile": 5750,
      "expected": 5751,
      "Ġplain": 5752,
      "ierarch": 5753,
      "Ġincrement": 5754,
      "axis": 5755,
      "Ġsnipp": 5756,
      "Ġfrag": 5757,
      "img": 5758,
      "Ġforms": 5759,
      "That": 5760,
      "Ġduplicate": 5761,
      "urbation": 5762,
      "\"{": 5763,
      "'.": 5764,
      "85": 5765,
      "motion": 5766,
      "ĠÂ": 5767,
      "inating": 5768,
      "ised": 5769,
      "Ġolder": 5770,
      "Ġoxygen": 5771,
      "close": 5772,
      "Ġrepo": 5773,
      "odium": 5774,
      "ĠAuth": 5775,
      "Ġ`<": 5776,
      "aved": 5777,
      "Ġabst": 5778,
      "Ġversions": 5779,
      "Ġoperational": 5780,
      "layout": 5781,
      "}^{\\": 5782,
      "Ġtreated": 5783,
      "Ġdynam": 5784,
      "Ġvice": 5785,
      "struction": 5786,
      "Ġkind": 5787,
      "Ġheur": 5788,
      "Ġseconds": 5789,
      "addEventListener": 5790,
      "Ġpackage": 5791,
      "Ġsampling": 5792,
      "rot": 5793,
      "Ġdual": 5794,
      "amil": 5795,
      "ibration": 5796,
      "ĠProve": 5797,
      "Ġimproved": 5798,
      "Ġdefinitions": 5799,
      "ĠService": 5800,
      "Ġ~": 5801,
      "Ġ---": 5802,
      "Ġfoot": 5803,
      "Ġbits": 5804,
      "Ġmetab": 5805,
      "Ġempir": 5806,
      "Ġsufficient": 5807,
      "copy": 5808,
      "dep": 5809,
      "Ġsaid": 5810,
      "stable": 5811,
      "ĠCR": 5812,
      "ĠCar": 5813,
      "charge": 5814,
      "Ġshif": 5815,
      "Ġdescribe": 5816,
      "Ġoverhead": 5817,
      "objective": 5818,
      "loads": 5819,
      "Ġvulnerability": 5820,
      "Red": 5821,
      "Reg": 5822,
      "az": 5823,
      "bon": 5824,
      "util": 5825,
      "Ġchosen": 5826,
      "Ġretry": 5827,
      "Ġhighly": 5828,
      "Ġgenerated": 5829,
      "issue": 5830,
      "Ġdeliver": 5831,
      "Ġmaps": 5832,
      "container": 5833,
      "instance": 5834,
      "ĠAnalyze": 5835,
      "(`": 5836,
      "Hub": 5837,
      "faces": 5838,
      "ĠAcc": 5839,
      "^{(": 5840,
      "Ġelif": 5841,
      "Ġdomains": 5842,
      "ĠEng": 5843,
      "uppose": 5844,
      "Ġunderstanding": 5845,
      "monary": 5846,
      "Ġemploy": 5847,
      "Ġodds": 5848,
      "LP": 5849,
      "ulo": 5850,
      "Ġdeserialize": 5851,
      "Ġequals": 5852,
      "ictionary": 5853,
      "Ġsensitive": 5854,
      "Ġsurvival": 5855,
      "Ġshock": 5856,
      "Ġsubgroup": 5857,
      "Ġready": 5858,
      "Ġinvolving": 5859,
      "22": 5860,
      "Hence": 5861,
      "eve": 5862,
      "kappa": 5863,
      "Ġbrowser": 5864,
      "ĠRequest": 5865,
      "problem": 5866,
      "wait": 5867,
      "Ġwalk": 5868,
      "extra": 5869,
      "Ġplugin": 5870,
      "Ġproduces": 5871,
      "Ġgets": 5872,
      "metic": 5873,
      "ĠâĶľâĶĢ": 5874,
      "Ġtimestamps": 5875,
      "Ġinductive": 5876,
      "Frame": 5877,
      "doc": 5878,
      "pub": 5879,
      "rx": 5880,
      "Ġinline": 5881,
      "emb": 5882,
      "ĠST": 5883,
      "exit": 5884,
      "Ġappears": 5885,
      "Ġmoderate": 5886,
      "Ġparsing": 5887,
      "Ġcardi": 5888,
      "Ġattributes": 5889,
      "ias": 5890,
      "eness": 5891,
      "Ġthird": 5892,
      "routes": 5893,
      "Ġadults": 5894,
      "proved": 5895,
      "Ġprogression": 5896,
      "Ġmigration": 5897,
      "Ġgrav": 5898,
      "att": 5899,
      "itable": 5900,
      "Ġpropag": 5901,
      "positive": 5902,
      "chronous": 5903,
      "war": 5904,
      "Ġbad": 5905,
      "Ġalbum": 5906,
      "crib": 5907,
      "Ġsoftware": 5908,
      "OC": 5909,
      "onical": 5910,
      "Ġcrypt": 5911,
      "Ġpneum": 5912,
      "Ġneph": 5913,
      "Ġanalyze": 5914,
      "tenance": 5915,
      "Ġvisible": 5916,
      "Ġbrute": 5917,
      "Fe": 5918,
      "UE": 5919,
      "ĠĠĊ": 5920,
      "ĠTreat": 5921,
      "Ġprotein": 5922,
      "ecycle": 5923,
      "Ġinfinite": 5924,
      "veloper": 5925,
      "Ġpipelines": 5926,
      "Ġparticle": 5927,
      "Big": 5928,
      "Base": 5929,
      "holder": 5930,
      "iring": 5931,
      "Ġmodules": 5932,
      "Ġdatetime": 5933,
      "Ġmechanisms": 5934,
      "Ġprecisely": 5935,
      "Ġgreater": 5936,
      "EXT": 5937,
      "accuracy": 5938,
      "66": 5939,
      "Edge": 5940,
      "oss": 5941,
      "Ġtransformation": 5942,
      "MP": 5943,
      "Potential": 5944,
      "lier": 5945,
      "Ġmask": 5946,
      "------": 5947,
      "ĠMark": 5948,
      "Ġplans": 5949,
      "Ġexecute": 5950,
      "Ġquickly": 5951,
      "AGE": 5952,
      "Ġtherefore": 5953,
      "Ġexcess": 5954,
      "abled": 5955,
      "ĠDr": 5956,
      "Ġmanager": 5957,
      "123": 5958,
      "Ġderiving": 5959,
      "Ġpotassium": 5960,
      "rafting": 5961,
      "errors": 5962,
      "13": 5963,
      "ai": 5964,
      "react": 5965,
      "Ġsections": 5966,
      "Ġcru": 5967,
      "ulated": 5968,
      "Ġspecifically": 5969,
      "Ġoffset": 5970,
      "Ġparticip": 5971,
      "OW": 5972,
      "Ġhover": 5973,
      "ife": 5974,
      "ĠAm": 5975,
      "800": 5976,
      "CI": 5977,
      "CSS": 5978,
      "FT": 5979,
      "bug": 5980,
      "Ġmild": 5981,
      "Ġdirection": 5982,
      "Ġinteractions": 5983,
      "Ġregard": 5984,
      "Ġversa": 5985,
      "ĠWhy": 5986,
      "Ġtooling": 5987,
      "LOCK": 5988,
      "Ġpairs": 5989,
      "itute": 5990,
      "omm": 5991,
      "Ġhep": 5992,
      "ilation": 5993,
      "ithmetic": 5994,
      "opath": 5995,
      "overline": 5996,
      "Ġencrypt": 5997,
      "Component": 5998,
      "ORD": 5999,
      "Ġiteration": 6000,
      "Ġhypotheses": 6001,
      "19": 6002,
      "cpp": 6003,
      "Ġbel": 6004,
      "usr": 6005,
      "Ġhot": 6006,
      "amine": 6007,
      "ĠTailwind": 6008,
      "Ġ['": 6009,
      "Theme": 6010,
      "Ġparams": 6011,
      "Ġoperator": 6012,
      "reedom": 6013,
      "Ġinequality": 6014,
      "Ġtumor": 6015,
      "gate": 6016,
      "Ġ----------": 6017,
      "idents": 6018,
      "ambda": 6019,
      "Ġenfor": 6020,
      "Ġworkflows": 6021,
      ")+": 6022,
      "gram": 6023,
      "Ġintermediate": 6024,
      "Ġenvironments": 6025,
      "Ġhypertension": 6026,
      "aml": 6027,
      "Conn": 6028,
      "Ġstarted": 6029,
      "Ġtriangle": 6030,
      "iverse": 6031,
      "Ġemergency": 6032,
      "++)": 6033,
      "Ġinternally": 6034,
      "ĠWebSocket": 6035,
      "Ġconcerns": 6036,
      "after": 6037,
      "ean": 6038,
      "ids": 6039,
      "Ġconventional": 6040,
      "Ġspan": 6041,
      "Ġstructural": 6042,
      "offset": 6043,
      "Ġoutputs": 6044,
      "Ġ!==": 6045,
      "ensional": 6046,
      "Ġinvolves": 6047,
      "Ġhome": 6048,
      "ĠHence": 6049,
      "ĠOne": 6050,
      "Ġpersistent": 6051,
      "required": 6052,
      "Ġreporting": 6053,
      "Pay": 6054,
      "di": 6055,
      "Ġorth": 6056,
      "essions": 6057,
      "Ġshap": 6058,
      "Ġcluster": 6059,
      "ĠOper": 6060,
      "linear": 6061,
      "Ġownership": 6062,
      "Ġrepeat": 6063,
      "Ġmaintaining": 6064,
      "elemetry": 6065,
      "Ġacceptable": 6066,
      "Below": 6067,
      "23": 6068,
      "flex": 6069,
      "align": 6070,
      "Ġmotion": 6071,
      "Ġreq": 6072,
      "ploring": 6073,
      "Ġimplications": 6074,
      "afety": 6075,
      "parser": 6076,
      "ĠChoose": 6077,
      "equiv": 6078,
      "Ġlabor": 6079,
      "Ġisolation": 6080,
      "]);": 6081,
      "cil": 6082,
      "ka": 6083,
      "null": 6084,
      "Ġrealizing": 6085,
      "Ġbasis": 6086,
      "ĠApplying": 6087,
      "ganize": 6088,
      "Ġterminal": 6089,
      "Ġschedule": 6090,
      "Ġcategory": 6091,
      "Ġcorresponding": 6092,
      "na": 6093,
      "then": 6094,
      "ĠclassName": 6095,
      "cribed": 6096,
      "auto": 6097,
      "contained": 6098,
      "Ġdegree": 6099,
      "Determine": 6100,
      "non": 6101,
      "tra": 6102,
      "Ġtags": 6103,
      "Ġcloud": 6104,
      "ropy": 6105,
      "ĠTTL": 6106,
      "Ġextension": 6107,
      "Ġbalanced": 6108,
      "Ġautomation": 6109,
      "IME": 6110,
      "Ġbacterial": 6111,
      "dark": 6112,
      "ein": 6113,
      "vol": 6114,
      "Ġcursor": 6115,
      "ilter": 6116,
      "Ġneut": 6117,
      "Ġrespiratory": 6118,
      "illance": 6119,
      "sharp": 6120,
      "Ġsecondary": 6121,
      "Ġregulatory": 6122,
      "(()": 6123,
      "pg": 6124,
      "esh": 6125,
      "oded": 6126,
      "ĠEvaluate": 6127,
      "Ġcontr": 6128,
      "Ġdisk": 6129,
      "Ġavoiding": 6130,
      "CA": 6131,
      "Sum": 6132,
      "pers": 6133,
      "tail": 6134,
      "Ġ------------------------": 6135,
      "uting": 6136,
      "omer": 6137,
      "ulations": 6138,
      "Ġdisorder": 6139,
      "Ġenlight": 6140,
      "front": 6141,
      "ĠStore": 6142,
      "Ġsystemic": 6143,
      "Ġfollowed": 6144,
      "Ġbreakdown": 6145,
      "Ġdefinitive": 6146,
      "how": 6147,
      "ene": 6148,
      "Ġstabil": 6149,
      "odies": 6150,
      "ĠBo": 6151,
      "Ġquad": 6152,
      "earch": 6153,
      "Ġowns": 6154,
      "$,": 6155,
      "Hash": 6156,
      "xl": 6157,
      "Ġstale": 6158,
      "herence": 6159,
      "Ġallocation": 6160,
      "focus": 6161,
      "Ġdro": 6162,
      "Ġinner": 6163,
      "ifiers": 6164,
      "Ġcomments": 6165,
      "vironment": 6166,
      "Ġvirus": 6167,
      "Ġlibraries": 6168,
      "Ġbelief": 6169,
      "constraints": 6170,
      "File": 6171,
      "duration": 6172,
      "pattern": 6173,
      "izations": 6174,
      "ressed": 6175,
      "anger": 6176,
      "aken": 6177,
      "ĠVue": 6178,
      "ventions": 6179,
      "Ġcontinuity": 6180,
      "Ġeliminate": 6181,
      "Ġstreaming": 6182,
      "Outlining": 6183,
      "Ġguardrails": 6184,
      "problems": 6185,
      "Perhaps": 6186,
      "Ġecho": 6187,
      "Breaking": 6188,
      "firm": 6189,
      "Ġpen": 6190,
      "ĠShe": 6191,
      "Ġhyd": 6192,
      "ĠObserv": 6193,
      "epsis": 6194,
      "UN": 6195,
      "git": 6196,
      "animate": 6197,
      "ĠCAN": 6198,
      "Ġyear": 6199,
      "ĠFe": 6200,
      "Ġmanif": 6201,
      "Ġencoding": 6202,
      "Ġcircle": 6203,
      "Ġrecursion": 6204,
      "Verification": 6205,
      "Ġenlightening": 6206,
      "Right": 6207,
      "kit": 6208,
      "}</": 6209,
      "ĠMany": 6210,
      "(\"/": 6211,
      "Ġargue": 6212,
      "Ġdomin": 6213,
      "Ġmedia": 6214,
      "Ġnormalized": 6215,
      "Ġasympt": 6216,
      "Ġexpansion": 6217,
      "='": 6218,
      "OS": 6219,
      "OST": 6220,
      "icacy": 6221,
      "Ġbyte": 6222,
      "ategory": 6223,
      "method": 6224,
      "Ġdownstream": 6225,
      "Ġcontradict": 6226,
      "Ġmarketing": 6227,
      "ĠDescribe": 6228,
      "Ġsurgery": 6229,
      "Pass": 6230,
      "ca": 6231,
      "erior": 6232,
      "org": 6233,
      "Ġinference": 6234,
      "impl": 6235,
      "âĢĿ,": 6236,
      "Ġequality": 6237,
      "commit": 6238,
      "Ġspecify": 6239,
      "timeout": 6240,
      "Ġattach": 6241,
      "Ġimply": 6242,
      "ĠUnder": 6243,
      "Ġweighing": 6244,
      "ĠSpec": 6245,
      "ĠAutom": 6246,
      "Vari": 6247,
      "sync": 6248,
      "onym": 6249,
      "Ġsleep": 6250,
      "asure": 6251,
      "Ġrestrict": 6252,
      "Ġplane": 6253,
      "Ġstudents": 6254,
      "Ġobservability": 6255,
      "ĠDisc": 6256,
      "rum": 6257,
      "Ġassume": 6258,
      "Ġanalogy": 6259,
      "Implementing": 6260,
      "Ġdidn": 6261,
      "Ġpurpose": 6262,
      "iny": 6263,
      "Ġfar": 6264,
      "ĠIP": 6265,
      "Ġ<!--": 6266,
      "Ġprime": 6267,
      "Ġposit": 6268,
      "Ġrecurrence": 6269,
      "Ġprovider": 6270,
      "Ġimpaired": 6271,
      "Ġregistry": 6272,
      "Ġcounterexample": 6273,
      "Ġdimensions": 6274,
      "Ġrefusal": 6275,
      "SM": 6276,
      "Version": 6277,
      "frame": 6278,
      "Ġcop": 6279,
      "alloc": 6280,
      "Ġbeaut": 6281,
      "Ġcompared": 6282,
      "anges": 6283,
      "Ġidempotency": 6284,
      "Ġsurveillance": 6285,
      "csharp": 6286,
      "has": 6287,
      "Ġ],": 6288,
      "insert": 6289,
      "\\)-": 6290,
      "Ġintu": 6291,
      "Ġarithmetic": 6292,
      "Ġkth": 6293,
      "Ġheat": 6294,
      "socket": 6295,
      "scenario": 6296,
      "Ġpossibly": 6297,
      "Ġpriorities": 6298,
      "Ġexistence": 6299,
      "}/": 6300,
      "inner": 6301,
      "ename": 6302,
      "Ġsa": 6303,
      "Ġfat": 6304,
      "char": 6305,
      "ĠPart": 6306,
      "osition": 6307,
      "ĠHidden": 6308,
      "Ġfever": 6309,
      "Ġoverlap": 6310,
      "ipher": 6311,
      "HE": 6312,
      "MD": 6313,
      "NS": 6314,
      "inc": 6315,
      "Ġmill": 6316,
      "Ġstay": 6317,
      "Ġtruly": 6318,
      "Ġapplic": 6319,
      "Ġspe": 6320,
      "Ġclassification": 6321,
      "Ġconstraint": 6322,
      "Ġexperi": 6323,
      "Ġsummar": 6324,
      "Ġimprovements": 6325,
      "Ġquantum": 6326,
      "Ġtriggers": 6327,
      "complete": 6328,
      "Ġcognitive": 6329,
      "alternative": 6330,
      "Ġpick": 6331,
      "ivation": 6332,
      "ayout": 6333,
      "ĠBase": 6334,
      "Ġpregn": 6335,
      "Ġrefresh": 6336,
      "Ġcapabilities": 6337,
      "Ġmoving": 6338,
      "Ġdataset": 6339,
      "grade": 6340,
      "zy": 6341,
      "}-": 6342,
      "Ġtakes": 6343,
      "Ġapi": 6344,
      "erved": 6345,
      "Ġreplay": 6346,
      "ĠBack": 6347,
      "Ġconstruction": 6348,
      "Ġeng": 6349,
      "ĠConn": 6350,
      "Ġantic": 6351,
      "ĠWho": 6352,
      "buffer": 6353,
      "ĠEnsure": 6354,
      "ĠReplace": 6355,
      "Ġmixed": 6356,
      "Ġveloc": 6357,
      "atinine": 6358,
      "Ġnested": 6359,
      "ĠEC": 6360,
      "ilde": 6361,
      "Ġintegrate": 6362,
      "adjustment": 6363,
      "Work": 6364,
      "gener": 6365,
      "java": 6366,
      "rating": 6367,
      "isdom": 6368,
      "ĠPresent": 6369,
      "Ġatomic": 6370,
      "=\"#": 6371,
      "ubation": 6372,
      "/(": 6373,
      "/`": 6374,
      "Field": 6375,
      "gment": 6376,
      "ratic": 6377,
      "Ġtier": 6378,
      "Ġdict": 6379,
      "Ġhierarch": 6380,
      "Ġ\"-": 6381,
      "Ġagents": 6382,
      "Ġgeneric": 6383,
      "await": 6384,
      "Ġpreserve": 6385,
      "uzzle": 6386,
      ">,": 6387,
      "Check": 6388,
      "critical": 6389,
      "uman": 6390,
      "Ġdiagnostic": 6391,
      "latest": 6392,
      "dimensional": 6393,
      ")`.": 6394,
      "Ġplot": 6395,
      "oles": 6396,
      "ĠCKD": 6397,
      "Ġabnormal": 6398,
      "aware": 6399,
      "Ġallowing": 6400,
      "Ġhumans": 6401,
      "Ġindependently": 6402,
      "expectation": 6403,
      "ULT": 6404,
      "Ġchat": 6405,
      "getElement": 6406,
      "Ġsensor": 6407,
      "Ġsuccessful": 6408,
      "Ġprecision": 6409,
      "ĠInstall": 6410,
      "ĠInterpret": 6411,
      "Ġreceptor": 6412,
      "getElementById": 6413,
      "#!": 6414,
      "city": 6415,
      "dated": 6416,
      "support": 6417,
      "itarian": 6418,
      "Ġmening": 6419,
      "Ġoral": 6420,
      "ugment": 6421,
      "Ġaccel": 6422,
      "events": 6423,
      "ogy": 6424,
      "oids": 6425,
      "Ġmeasurable": 6426,
      "Ġintervals": 6427,
      "author": 6428,
      "Ġtraceability": 6429,
      "55": 6430,
      "Det": 6431,
      "dart": 6432,
      "yl": 6433,
      "}\",": 6434,
      "redu": 6435,
      "Ġrevers": 6436,
      "improved": 6437,
      "olar": 6438,
      "uning": 6439,
      "Ġextends": 6440,
      "Ġcombination": 6441,
      "Ġalignment": 6442,
      "Ġapproximation": 6443,
      "Ġhappened": 6444,
      "Acc": 6445,
      "Att": 6446,
      "gress": 6447,
      "Ġbiolog": 6448,
      "ĠTest": 6449,
      "Ġconsumer": 6450,
      "ailability": 6451,
      "Ġeleg": 6452,
      "otherapy": 6453,
      "Ġlinked": 6454,
      "Ġcharacteristic": 6455,
      "US": 6456,
      "WS": 6457,
      "Window": 6458,
      "kt": 6459,
      "Ġsamples": 6460,
      "Ġbund": 6461,
      "Ġlib": 6462,
      "Ġalpha": 6463,
      "ĠĠĠĠĠĠĠĠĠĠ": 6464,
      "Ġspi": 6465,
      "formance": 6466,
      "itionally": 6467,
      "Ġefficacy": 6468,
      "shape": 6469,
      "Ġrefact": 6470,
      "System": 6471,
      "mask": 6472,
      "xx": 6473,
      "route": 6474,
      "Ġwast": 6475,
      "stderr": 6476,
      "Ġconversion": 6477,
      "Ġ(-": 6478,
      "Ġcomes": 6479,
      "ĠDet": 6480,
      "ĠDepend": 6481,
      "Ġsocket": 6482,
      "Ġbuf": 6483,
      "ribute": 6484,
      "Ġcontrolled": 6485,
      "Ġcountry": 6486,
      "Command": 6487,
      "Ġreviews": 6488,
      "Column": 6489,
      "cost": 6490,
      "strap": 6491,
      "Ġpercent": 6492,
      "bool": 6493,
      "ounding": 6494,
      "\"></": 6495,
      "Ġmonitor": 6496,
      "perturbation": 6497,
      "JSON": 6498,
      "UM": 6499,
      "wrap": 6500,
      "Ġwisdom": 6501,
      "Ġdir": 6502,
      "ĠDeploy": 6503,
      "Ġuncon": 6504,
      "coming": 6505,
      "Ġfewer": 6506,
      "Ġfilters": 6507,
      "Ġtimeline": 6508,
      "Ġtargeted": 6509,
      "Ġslice": 6510,
      "Subproblem": 6511,
      "analogy": 6512,
      "#!/": 6513,
      "ĠĊĠĠ": 6514,
      "ison": 6515,
      "iful": 6516,
      "Ġclick": 6517,
      "Ġretries": 6518,
      "plicate": 6519,
      "Ġdecl": 6520,
      "entials": 6521,
      "show": 6522,
      "Ġinsulin": 6523,
      "Ġderivative": 6524,
      "second": 6525,
      "Define": 6526,
      "Ġillust": 6527,
      "Ġenforcement": 6528,
      "Query": 6529,
      "Ġelegant": 6530,
      "PT": 6531,
      "Ġfreedom": 6532,
      "Ġgain": 6533,
      "Ġgold": 6534,
      "ĠGive": 6535,
      "Ġenh": 6536,
      "ordion": 6537,
      "Ġstartup": 6538,
      "Ġmultiplication": 6539,
      "Ġdocumentation": 6540,
      "Ġfalls": 6541,
      "Ġsynthes": 6542,
      "Em": 6543,
      "Url": 6544,
      "yaml": 6545,
      "},\\": 6546,
      "Ġtissue": 6547,
      "ember": 6548,
      "Init": 6549,
      "Ġrecip": 6550,
      "Ġmultip": 6551,
      "Ġmaintenance": 6552,
      "Ġbacklog": 6553,
      "Ġtrain": 6554,
      "ĠWhile": 6555,
      "Ġskip": 6556,
      "Ġrouter": 6557,
      "connect": 6558,
      "Ġculture": 6559,
      "Oper": 6560,
      "}'": 6561,
      "Ġmath": 6562,
      "arin": 6563,
      "stop": 6564,
      "ĠRandom": 6565,
      "Ġoperating": 6566,
      "Change": 6567,
      "Ġdiffic": 6568,
      "Ġfinish": 6569,
      "Ġpiec": 6570,
      "orb": 6571,
      "asic": 6572,
      "isting": 6573,
      "Ġproxy": 6574,
      "emo": 6575,
      "ĠPo": 6576,
      "Ġjournal": 6577,
      "Ġsizeof": 6578,
      "Ġtemp": 6579,
      "Ġgraphs": 6580,
      "Ġacceptance": 6581,
      "inux": 6582,
      "timestamp": 6583,
      ">{": 6584,
      "?:": 6585,
      "OK": 6586,
      "care": 6587,
      "hover": 6588,
      "occ": 6589,
      "release": 6590,
      "Ġske": 6591,
      "Ġsodium": 6592,
      "Ġtrials": 6593,
      "Organize": 6594,
      "Ġpathophysiology": 6595,
      "%;": 6596,
      ".).": 6597,
      "Min": 6598,
      "au": 6599,
      "Ġult": 6600,
      "Ġsing": 6601,
      "utf": 6602,
      "Ġoffer": 6603,
      "Ġprevention": 6604,
      "ĠGe": 6605,
      "Ġdeficiency": 6606,
      "Ġangle": 6607,
      "ĠAlso": 6608,
      "ĠResult": 6609,
      "Ġvirtual": 6610,
      "IST": 6611,
      "OIN": 6612,
      "mode": 6613,
      "tfrac": 6614,
      "Ġinode": 6615,
      "istics": 6616,
      "Ġchart": 6617,
      "Ġevolution": 6618,
      "ĊĠĠĠĠĠĠĠĠĠĠĠĠĠĠĠĠĠ": 6619,
      "Ġdiscovery": 6620,
      "Items": 6621,
      "Ġaccuracy": 6622,
      "Ġinjection": 6623,
      "plotlib": 6624,
      "Ret": 6625,
      "gres": 6626,
      "inode": 6627,
      "Ġtight": 6628,
      "umption": 6629,
      "outcome": 6630,
      "-----------": 6631,
      "ypical": 6632,
      "ĠNormal": 6633,
      "Ġagree": 6634,
      "Ġmutation": 6635,
      "Ġindividuals": 6636,
      "Ġfairness": 6637,
      "cup": 6638,
      "{(": 6639,
      "Ġmerg": 6640,
      "Ġreverse": 6641,
      "ĠAll": 6642,
      "ĠFrame": 6643,
      "byte": 6644,
      "Ġblue": 6645,
      "Ġcongestion": 6646,
      "tree": 6647,
      "imum": 6648,
      "heap": 6649,
      "urally": 6650,
      "Ġgates": 6651,
      "ĠRNA": 6652,
      "ĠDP": 6653,
      "Ġdefining": 6654,
      "prove": 6655,
      "psi": 6656,
      "Ġrandomized": 6657,
      "record": 6658,
      "processing": 6659,
      "Ġillness": 6660,
      "Ġcomputation": 6661,
      "Ġnavigation": 6662,
      "Ġimplies": 6663,
      "Active": 6664,
      "Hg": 6665,
      "session": 6666,
      "ĠFile": 6667,
      "Ġdiscrete": 6668,
      "ĠProject": 6669,
      "Ġscaling": 6670,
      "Ġmismatch": 6671,
      "ephal": 6672,
      "UC": 6673,
      "sem": 6674,
      "Ġcmd": 6675,
      "Ġalter": 6676,
      "Ġchance": 6677,
      "login": 6678,
      "Ġconsiderations": 6679,
      "Ġdriver": 6680,
      "Ġdocuments": 6681,
      "mean": 6682,
      "Ġrectangle": 6683,
      "ĠmmHg": 6684,
      "Ġpieces": 6685,
      "fail": 6686,
      "napshot": 6687,
      "Ġchem": 6688,
      "Ġmac": 6689,
      "Ġreprodu": 6690,
      "Ġ`[": 6691,
      "Ġtransitions": 6692,
      "Ġrecover": 6693,
      "Ġurine": 6694,
      "Ċĉĉĉ": 6695,
      "omorphic": 6696,
      "IV": 6697,
      "Utc": 6698,
      "Ġtherm": 6699,
      "Ġhtml": 6700,
      "elves": 6701,
      "ĠCalculate": 6702,
      "Ġorchest": 6703,
      "perf": 6704,
      "Ġimplementing": 6705,
      "Ġtraject": 6706,
      "Ġconvert": 6707,
      "Ġresponsive": 6708,
      "MAX": 6709,
      "rho": 6710,
      "Total": 6711,
      "gradient": 6712,
      "Ġcatalog": 6713,
      "ales": 6714,
      "ayes": 6715,
      "strong": 6716,
      "evidence": 6717,
      "Ġcaused": 6718,
      "validate": 6719,
      "icians": 6720,
      "Array": 6721,
      "ĠServer": 6722,
      "<\\": 6723,
      "FC": 6724,
      "Ġsql": 6725,
      "Ġpuzzle": 6726,
      "Ġballs": 6727,
      "Ġran": 6728,
      "Ġ'{": 6729,
      "Ġscores": 6730,
      "ango": 6731,
      "Ġadded": 6732,
      "Ġhelper": 6733,
      "paren": 6734,
      "Ġincorrect": 6735,
      "Ġwriting": 6736,
      "Ġreceive": 6737,
      "Ġstrictly": 6738,
      "Ġadjac": 6739,
      "Ġtoggle": 6740,
      "ws": 6741,
      "lore": 6742,
      "irebase": 6743,
      "ocard": 6744,
      "Ġrecurrent": 6745,
      "Ġregions": 6746,
      "Ġordered": 6747,
      "Ġwindows": 6748,
      "Ġswitches": 6749,
      "Preparing": 6750,
      "Ġauthentication": 6751,
      "Ġroadmap": 6752,
      "lers": 6753,
      "real": 6754,
      "itude": 6755,
      "resource": 6756,
      "ĠEar": 6757,
      "Ġintended": 6758,
      "=\"$": 6759,
      "making": 6760,
      "Ġproviding": 6761,
      "Ġagent": 6762,
      "minus": 6763,
      "Ġimmutable": 6764,
      "Ġaway": 6765,
      "ĠâīĪ": 6766,
      "ĠIntegrate": 6767,
      "IP": 6768,
      "Queue": 6769,
      "ued": 6770,
      "Ġtax": 6771,
      "eric": 6772,
      "rees": 6773,
      "orrh": 6774,
      "Ġple": 6775,
      "Ġliter": 6776,
      "ĠSolve": 6777,
      "Ġcomplications": 6778,
      "ĠFinal": 6779,
      "ĠMath": 6780,
      "Ġmeasurements": 6781,
      "Ġfiltering": 6782,
      "features": 6783,
      "products": 6784,
      "FROM": 6785,
      "HEN": 6786,
      "LS": 6787,
      "dest": 6788,
      "nd": 6789,
      "sent": 6790,
      "Ġmoney": 6791,
      "Ġwav": 6792,
      "Ġsto": 6793,
      "Ġstyles": 6794,
      "Ġcanonical": 6795,
      "Ġunderlying": 6796,
      "ointment": 6797,
      "Ġanimation": 6798,
      "Ġassessment": 6799,
      "Do": 6800,
      "Length": 6801,
      "Options": 6802,
      "toggle": 6803,
      "wide": 6804,
      "ĠTEXT": 6805,
      "ĠPers": 6806,
      "Ġlie": 6807,
      "ften": 6808,
      "Ġmanual": 6809,
      "Ġdesired": 6810,
      "loading": 6811,
      "ergic": 6812,
      "Ġrequested": 6813,
      "Ġrejecting": 6814,
      "Ġ255": 6815,
      "ĠâĶĶâĶĢâĶĢ": 6816,
      "ĠReview": 6817,
      "leg": 6818,
      "usable": 6819,
      "Ġchest": 6820,
      "Ġ95": 6821,
      "Ġoverlapping": 6822,
      "*,": 6823,
      "ateral": 6824,
      "Ġstand": 6825,
      "heet": 6826,
      "Ġconsent": 6827,
      "iented": 6828,
      "Ġlisting": 6829,
      "Ġincorpor": 6830,
      "Ġclients": 6831,
      "accordion": 6832,
      "ĠRedu": 6833,
      "Ġscreen": 6834,
      "Ġcrucial": 6835,
      "here": 6836,
      "pmatrix": 6837,
      "alty": 6838,
      "Ġmole": 6839,
      "Ġlists": 6840,
      "adence": 6841,
      "abling": 6842,
      "Ġreset": 6843,
      "anguage": 6844,
      "Ġemit": 6845,
      "ĠJS": 6846,
      "Ġlocally": 6847,
      "Ġurinary": 6848,
      "mitted": 6849,
      "Ġcardio": 6850,
      "Develop": 6851,
      "Ops": 6852,
      "crypt": 6853,
      "Ġfract": 6854,
      "Ġgovern": 6855,
      "Ġshadow": 6856,
      "Storage": 6857,
      "ĠGet": 6858,
      "Ġlogical": 6859,
      "Ġedema": 6860,
      "addr": 6861,
      "Ġjustice": 6862,
      "Ġtracks": 6863,
      "Ġclosure": 6864,
      "Valid": 6865,
      "Ġelectron": 6866,
      "Ġpulmonary": 6867,
      "400": 6868,
      "MIT": 6869,
      "jango": 6870,
      "Ġtx": 6871,
      "Ġflo": 6872,
      "Ġbott": 6873,
      "Ġpropose": 6874,
      "Ġorg": 6875,
      "Ġassert": 6876,
      "ĠEven": 6877,
      "ĠMat": 6878,
      "Ġkill": 6879,
      "Ġsubs": 6880,
      "Ġmarkdown": 6881,
      "Ġnormalization": 6882,
      "Ġiterating": 6883,
      "inuous": 6884,
      "Ġguarantees": 6885,
      "Ġingestion": 6886,
      "OD": 6887,
      "fmt": 6888,
      "lor": 6889,
      "ses": 6890,
      "loop": 6891,
      "Ġprocessed": 6892,
      "Ġprotection": 6893,
      "Ġprogressive": 6894,
      "Ġcovering": 6895,
      "ĠClient": 6896,
      "Ġcohort": 6897,
      ":\",": 6898,
      "rb": 6899,
      "Ġfish": 6900,
      "Ġground": 6901,
      "ĠGPU": 6902,
      "Ġoverride": 6903,
      "Ġchecking": 6904,
      "Ġlimiting": 6905,
      "Ġrefactor": 6906,
      "Ġcarry": 6907,
      "Ġpreserving": 6908,
      "Ġfrequent": 6909,
      "Ġintegrity": 6910,
      "binom": 6911,
      "Ġcoordination": 6912,
      "Ġreflects": 6913,
      "ĠSecurity": 6914,
      "ĠUpdate": 6915,
      "opathy": 6916,
      "IS": 6917,
      "Man": 6918,
      "ying": 6919,
      "Ġdut": 6920,
      "Ġjava": 6921,
      "Ġthroughput": 6922,
      "summary": 6923,
      "Ġproducing": 6924,
      "Ġcorrelation": 6925,
      "loader": 6926,
      "ĠOnly": 6927,
      "Ġreliability": 6928,
      "Ġanomalies": 6929,
      "Ġapplies": 6930,
      "Ġtrends": 6931,
      "Ġhorizon": 6932,
      "fol": 6933,
      "your": 6934,
      "Ġ-----": 6935,
      "Ġben": 6936,
      "Ġinfer": 6937,
      "Ġprof": 6938,
      "ĠNe": 6939,
      "ynchronous": 6940,
      "Ġambigu": 6941,
      "Ġlifecycle": 6942,
      "Ġdevices": 6943,
      "Ġexecutable": 6944,
      "Ġcultural": 6945,
      "Ġsales": 6946,
      "Ġgateway": 6947,
      "ĠĊĠĠĊ": 6948,
      ";\\": 6949,
      "Equ": 6950,
      "land": 6951,
      "reh": 6952,
      "Ġthyroid": 6953,
      "ĠGener": 6954,
      "Ġjoin": 6955,
      "Ġcreatinine": 6956,
      "ĠĠĠĠĠĠĠĠĠĠĠĠĠĠĠĠĠĠĠĠĠĠĠĠĠĠĠĠĠĠĠĠ": 6957,
      "Color": 6958,
      "ĠExplore": 6959,
      "Integ": 6960,
      "ĠSDK": 6961,
      "Ġescalation": 6962,
      "OL": 6963,
      "[:": 6964,
      "Ġmer": 6965,
      "Ġwid": 6966,
      "Ġongoing": 6967,
      "Ġ\"^": 6968,
      "Ġcontra": 6969,
      "ypes": 6970,
      "ĠInitial": 6971,
      "Ġrelation": 6972,
      "afka": 6973,
      "Ġsigns": 6974,
      "Ġachieve": 6975,
      "Ġroutine": 6976,
      "Ġhemorrh": 6977,
      "Print": 6978,
      "Ġsynthesized": 6979,
      "Btn": 6980,
      "El": 6981,
      "batch": 6982,
      "icing": 6983,
      "Ġnarr": 6984,
      "istically": 6985,
      "verification": 6986,
      "Ġcontrolling": 6987,
      "Ġ'../": 6988,
      "Ġadds": 6989,
      "Ġadvant": 6990,
      "Ġprem": 6991,
      "oxy": 6992,
      "Ġcollabor": 6993,
      "Ġrejected": 6994,
      "Record": 6995,
      "Ġsafer": 6996,
      "kstra": 6997,
      "rest": 6998,
      "abs": 6999,
      "Ġ\\(|": 7000,
      "Ġcolle": 7001,
      "Ġattention": 7002,
      "Ġdiscount": 7003,
      "Ġcycles": 7004,
      "blocks": 7005,
      "Ġscheduling": 7006,
      "Ġefficiently": 7007,
      "hal": 7008,
      "}$": 7009,
      "ancing": 7010,
      "Ġok": 7011,
      "Ġ(\"": 7012,
      "Ġ`\"": 7013,
      "ĠDev": 7014,
      "ultaneous": 7015,
      "sumer": 7016,
      "Ġrelate": 7017,
      "application": 7018,
      "teness": 7019,
      "Ġleader": 7020,
      "ĠOrder": 7021,
      "tooltip": 7022,
      "branch": 7023,
      "cfg": 7024,
      "stack": 7025,
      "elp": 7026,
      "lyce": 7027,
      "ective": 7028,
      "ĠCo": 7029,
      "eft": 7030,
      "Ġlex": 7031,
      "Ġscient": 7032,
      "Ġspecified": 7033,
      "Ġlatest": 7034,
      "ĠWhich": 7035,
      "Ġmarked": 7036,
      "Ġhypot": 7037,
      "Ġutility": 7038,
      "FAULT": 7039,
      "ĠDiscuss": 7040,
      "65": 7041,
      "HA": 7042,
      "Sl": 7043,
      "cover": 7044,
      "}(\\": 7045,
      "Ġfresh": 7046,
      "oman": 7047,
      "loss": 7048,
      "Ġhous": 7049,
      "ĠCode": 7050,
      "Ġ\\([": 7051,
      "Ġyes": 7052,
      "Ġadverse": 7053,
      "ĠLa": 7054,
      "tolog": 7055,
      "cipl": 7056,
      "Ġsupporting": 7057,
      "End": 7058,
      "ĠArg": 7059,
      "Ġdiagonal": 7060,
      "Ġcoefficients": 7061,
      "PORT": 7062,
      "bottom": 7063,
      "mic": 7064,
      "ðŁ": 7065,
      "Ġburn": 7066,
      "Ġinverse": 7067,
      "Ġnet": 7068,
      "Ġles": 7069,
      "Ġ`--": 7070,
      "ĠMA": 7071,
      "ipal": 7072,
      "Ġaddition": 7073,
      "ractical": 7074,
      "Ġheld": 7075,
      "Ġpasses": 7076,
      "Ġweighted": 7077,
      "Ġiniti": 7078,
      "Header": 7079,
      "Aut": 7080,
      "RPC": 7081,
      "fram": 7082,
      "farin": 7083,
      "Ġsigma": 7084,
      "Ġbig": 7085,
      "Ġinduction": 7086,
      "Ġlies": 7087,
      "otype": 7088,
      "amount": 7089,
      "ĠSPI": 7090,
      "exists": 7091,
      "Ġreasonable": 7092,
      "Ġchanging": 7093,
      "Ġoffline": 7094,
      "Ġtruths": 7095,
      "Ġguidance": 7096,
      "Ġepis": 7097,
      "ODE": 7098,
      "rices": 7099,
      "train": 7100,
      "Ġws": 7101,
      "Ġrely": 7102,
      "Ġecon": 7103,
      "Ġ('": 7104,
      "irth": 7105,
      "Ġimaging": 7106,
      "Ġexplos": 7107,
      "argv": 7108,
      "Ġtested": 7109,
      "Ġlogin": 7110,
      "Ġrelig": 7111,
      "Ġsentence": 7112,
      "Ph": 7113,
      "dependent": 7114,
      "pres": 7115,
      "olith": 7116,
      "Struct": 7117,
      "ĠDist": 7118,
      "ugins": 7119,
      "Ġspac": 7120,
      "Ġkin": 7121,
      "Ġmodular": 7122,
      "Ġdoct": 7123,
      "Ġcreation": 7124,
      "Ġcorrel": 7125,
      "object": 7126,
      "Ġreadonly": 7127,
      "Ġoperators": 7128,
      "modal": 7129,
      "Ġsuperior": 7130,
      "Ġautonomy": 7131,
      "Ġbinding": 7132,
      "Ġdamage": 7133,
      "Ġpositives": 7134,
      "29": 7135,
      "><": 7136,
      "DIR": 7137,
      "uper": 7138,
      "olving": 7139,
      "Ġexchange": 7140,
      "Ġchecklist": 7141,
      "metadata": 7142,
      "Ġimpair": 7143,
      "Ġincidents": 7144,
      "Note": 7145,
      "fact": 7146,
      "lin": 7147,
      "aterm": 7148,
      "itutions": 7149,
      "Ġhooks": 7150,
      "Ġforces": 7151,
      "umab": 7152,
      "Ġareas": 7153,
      "Ġundefined": 7154,
      "setminus": 7155,
      "Ġboolean": 7156,
      "Analyze": 7157,
      "Ġstrongest": 7158,
      "VER": 7159,
      "cur": 7160,
      "cending": 7161,
      "fort": 7162,
      "hist": 7163,
      "ipping": 7164,
      "Ġnational": 7165,
      "rian": 7166,
      "Ġresil": 7167,
      "Ġsolving": 7168,
      "Ġmeta": 7169,
      "Ġreasons": 7170,
      "Ġcombined": 7171,
      "Ġvirtue": 7172,
      "gr": 7173,
      "}_{": 7174,
      "Ġpull": 7175,
      "Ġfals": 7176,
      "entries": 7177,
      "iles": 7178,
      "Ġserious": 7179,
      "Ġtwice": 7180,
      "mptomatic": 7181,
      "Ġrepresentation": 7182,
      "Ġconsumers": 7183,
      "Ġimpossible": 7184,
      "Ġphenomena": 7185,
      "Bus": 7186,
      "joint": 7187,
      "leverage": 7188,
      "Ġster": 7189,
      "Ġgre": 7190,
      "Ġresolution": 7191,
      "ĠFast": 7192,
      "Ġdischarge": 7193,
      "Ġmatrices": 7194,
      "ĠValidate": 7195,
      "Ġprecise": 7196,
      "AME": 7197,
      "instein": 7198,
      "Ġstatistical": 7199,
      "Ġreferences": 7200,
      "Ġpharmac": 7201,
      ":.": 7202,
      "GET": 7203,
      "options": 7204,
      "rs": 7205,
      "alities": 7206,
      "Ġmuc": 7207,
      "Ġreve": 7208,
      "Ġperforms": 7209,
      "Ġarticle": 7210,
      "ĠValidation": 7211,
      "Ġaccepted": 7212,
      "Ġalternatives": 7213,
      "ĠREST": 7214,
      "printf": 7215,
      "Ġremoves": 7216,
      "latency": 7217,
      "Variables": 7218,
      "atermark": 7219,
      "cases": 7220,
      "nodes": 7221,
      "itter": 7222,
      "ĠTool": 7223,
      "assumption": 7224,
      "ĠBayes": 7225,
      "Ġdispatch": 7226,
      "ĠException": 7227,
      "Ġcountable": 7228,
      "Ġshortest": 7229,
      "Ġposts": 7230,
      "Ġconverges": 7231,
      "Ġgeneralizable": 7232,
      "Ġmoves": 7233,
      "Ġworsening": 7234,
      "Ġbreath": 7235,
      "Ġresolved": 7236,
      "Ġunconventional": 7237,
      "DR": 7238,
      "deploy": 7239,
      "site": 7240,
      "replace": 7241,
      "ivial": 7242,
      "emic": 7243,
      "ĠOptim": 7244,
      "creative": 7245,
      "Ġinvas": 7246,
      "Ġdemonstrate": 7247,
      "ĠChange": 7248,
      "Ġvolat": 7249,
      "elihood": 7250,
      "ĠObject": 7251,
      "Ġnorms": 7252,
      "Ġheavy": 7253,
      "pan": 7254,
      "report": 7255,
      "Ġband": 7256,
      "ĠOk": 7257,
      "Ġplaus": 7258,
      "...'": 7259,
      "address": 7260,
      "Ġ70": 7261,
      "Ġflows": 7262,
      "Ġconstructor": 7263,
      "Ġembedded": 7264,
      "balance": 7265,
      "DT": 7266,
      "rich": 7267,
      "td": 7268,
      "Ġsends": 7269,
      "Ġsources": 7270,
      "Ġmobile": 7271,
      "Ġcompreh": 7272,
      "Invalid": 7273,
      "ERR": 7274,
      "Ġinstability": 7275,
      "Web": 7276,
      "Ġredirect": 7277,
      "Ġquantity": 7278,
      "Ġthromb": 7279,
      "96": 7280,
      "depend": 7281,
      "Ġsessions": 7282,
      "Ġdictionary": 7283,
      "icts": 7284,
      "Ġhaving": 7285,
      "Ġshard": 7286,
      "ĠEvery": 7287,
      "Ġdifferentiable": 7288,
      "frast": 7289,
      "Ġdiscover": 7290,
      "Ġalgorithms": 7291,
      "Ġreplacement": 7292,
      "Ġcardiovascular": 7293,
      "Ġexplosion": 7294,
      "Card": 7295,
      "Dr": 7296,
      "aceful": 7297,
      "Ġconven": 7298,
      "unit": 7299,
      "emory": 7300,
      "Ġintent": 7301,
      "make": 7302,
      "ĠStandard": 7303,
      "Ġprintf": 7304,
      "Ġsentences": 7305,
      "Ġdebug": 7306,
      "ĠDateTime": 7307,
      "Ġmetabolic": 7308,
      "PL": 7309,
      "ban": 7310,
      "oag": 7311,
      "ĠĠĠĠĠĠĠĠĠĠĠ": 7312,
      "Ġemotion": 7313,
      "ĠJo": 7314,
      "Ġhelpful": 7315,
      "$$$.": 7316,
      "Ġthreads": 7317,
      "Ġtechnology": 7318,
      "ĠGitHub": 7319,
      "delay": 7320,
      "Group": 7321,
      "family": 7322,
      "iom": 7323,
      "Ġliving": 7324,
      "Ġlookup": 7325,
      "Ġprojects": 7326,
      "functional": 7327,
      "Ġdivis": 7328,
      "Ġaggressive": 7329,
      "Ġaggregate": 7330,
      "Ġcrash": 7331,
      "Ġapplied": 7332,
      "Given": 7333,
      "TH": 7334,
      "\\{": 7335,
      "hidden": 7336,
      "rab": 7337,
      "Ġliver": 7338,
      "ectious": 7339,
      "Ġresp": 7340,
      "Ġresolve": 7341,
      "Ġscatter": 7342,
      "evel": 7343,
      "Ġworth": 7344,
      "Ġbuilds": 7345,
      "domain": 7346,
      "Selector": 7347,
      "Ġsubstantial": 7348,
      "03": 7349,
      "pact": 7350,
      "Ġcipher": 7351,
      "Ġprostate": 7352,
      "Ġ\"/": 7353,
      "allback": 7354,
      "ĠGovernance": 7355,
      "Ġintern": 7356,
      "Ġphot": 7357,
      "Ġasks": 7358,
      "Ġcards": 7359,
      "mediated": 7360,
      "Ġsuscept": 7361,
      "Ġsegments": 7362,
      "nums": 7363,
      "ĠâĶĶâĶĢ": 7364,
      "clusive": 7365,
      "changed": 7366,
      "ailo": 7367,
      "frastructure": 7368,
      "').": 7369,
      "Mon": 7370,
      "dose": 7371,
      "kg": 7372,
      "rine": 7373,
      "recommend": 7374,
      "Ġyoun": 7375,
      "Ġcomputed": 7376,
      "component": 7377,
      "formed": 7378,
      "Ġcommunity": 7379,
      "Ġcontracts": 7380,
      "Ġnumeric": 7381,
      "Ġmedicine": 7382,
      "cellationToken": 7383,
      "Ġsuspension": 7384,
      ">;": 7385,
      "document": 7386,
      "qrt": 7387,
      "Ġfed": 7388,
      "Ġdra": 7389,
      "ĠRisk": 7390,
      "Ġchannels": 7391,
      "Ġinfections": 7392,
      "Ġclinician": 7393,
      "bigl": 7394,
      "Ġclaims": 7395,
      "Ġinstruments": 7396,
      "Ġparticularly": 7397,
      "Ġcompatibility": 7398,
      "Ġcontrast": 7399,
      "!\\": 7400,
      "DL": 7401,
      "scal": 7402,
      "etal": 7403,
      "ĠTABLE": 7404,
      "Ġ23": 7405,
      "Ġarter": 7406,
      "Ġreadmission": 7407,
      "Ġfacts": 7408,
      "Ġorigin": 7409,
      "bigr": 7410,
      "ĠInstead": 7411,
      "Ġrationale": 7412,
      "Ġasymptomatic": 7413,
      ".\\": 7414,
      "Tim": 7415,
      "zard": 7416,
      "Ġaugment": 7417,
      "istry": 7418,
      "empor": 7419,
      "plements": 7420,
      "username": 7421,
      "ĠNote": 7422,
      "plicated": 7423,
      "Ġdecide": 7424,
      "Ġ600": 7425,
      "views": 7426,
      "Ġexplanations": 7427,
      "Ġearlier": 7428,
      "ographic": 7429,
      "ogenic": 7430,
      "Ġ---------------------------------------------------------------------------": 7431,
      "Ġconvex": 7432,
      "DF": 7433,
      "Ġtied": 7434,
      "Ġbg": 7435,
      "ĠCa": 7436,
      "opsy": 7437,
      "Ġability": 7438,
      "Ġsimultaneous": 7439,
      "ogene": 7440,
      "Ġmomentum": 7441,
      "âĶľâĶĢ": 7442,
      "oxygen": 7443,
      ")**:": 7444,
      "21": 7445,
      "oration": 7446,
      "Ġfs": 7447,
      "iginal": 7448,
      "Stream": 7449,
      "Ġcompile": 7450,
      "ipeline": 7451,
      "Ġindices": 7452,
      "Ġdemand": 7453,
      "Ġampl": 7454,
      "ĠTrack": 7455,
      "Ġmorality": 7456,
      "runtime": 7457,
      "Ġadaptive": 7458,
      "Ġheuristic": 7459,
      "Ġinternational": 7460,
      "YY": 7461,
      "cers": 7462,
      "mun": 7463,
      "mega": 7464,
      "Ġ,": 7465,
      "Ġtro": 7466,
      "Ġca": 7467,
      "stitute": 7468,
      "rail": 7469,
      "Ġshown": 7470,
      "note": 7471,
      "Ġremoved": 7472,
      "Git": 7473,
      "Policy": 7474,
      "tic": 7475,
      "Ġcity": 7476,
      "Ġcert": 7477,
      "Ġcodes": 7478,
      "Ġdry": 7479,
      "Ġdrag": 7480,
      "Ġreplication": 7481,
      "admin": 7482,
      "Ġimg": 7483,
      "prisma": 7484,
      "requests": 7485,
      "Ġlowers": 7486,
      "while": 7487,
      "Ġfinding": 7488,
      "sym": 7489,
      "Ġanticoag": 7490,
      "FO": 7491,
      "role": 7492,
      "rial": 7493,
      "ĠNarrow": 7494,
      "locks": 7495,
      "licts": 7496,
      "ĠProcess": 7497,
      "Ġrefine": 7498,
      "hemas": 7499,
      "leted": 7500,
      "Ġparen": 7501,
      "Ġcoordinates": 7502,
      "policy": 7503,
      "Ġdelayed": 7504,
      "Ġwaiting": 7505,
      "Ġmitigate": 7506,
      "tokens": 7507,
      "Ġabstract": 7508,
      "!(\"": 7509,
      "Back": 7510,
      "fast": 7511,
      "lists": 7512,
      "Ġfirm": 7513,
      "ĠIg": 7514,
      "Ġprod": 7515,
      "ĠRel": 7516,
      "Ġhazard": 7517,
      "boarding": 7518,
      "Ġdigits": 7519,
      "Ġasyncio": 7520,
      "month": 7521,
      "Ġconditional": 7522,
      "Ġexperiences": 7523,
      "Ġcontraind": 7524,
      "Ġsil": 7525,
      "Ġfi": 7526,
      "Ġann": 7527,
      "Ġhence": 7528,
      "Ġstri": 7529,
      "ods": 7530,
      "ĠMRI": 7531,
      "Ġscience": 7532,
      "even": 7533,
      "\":\"": 7534,
      "Ġpolit": 7535,
      "Ġcapac": 7536,
      "Ġincubation": 7537,
      "Ġdatasets": 7538,
      "02": 7539,
      "elect": 7540,
      "ipped": 7541,
      "wid": 7542,
      "Ġfac": 7543,
      "andas": 7544,
      "Ġcontexts": 7545,
      "ĠMore": 7546,
      "Ġcomputes": 7547,
      "ysical": 7548,
      "ĠJWT": 7549,
      "Ġsorting": 7550,
      "Control": 7551,
      "HTTP": 7552,
      "Ġdifficult": 7553,
      "BAC": 7554,
      "Fl": 7555,
      "home": 7556,
      "tan": 7557,
      "uation": 7558,
      "atively": 7559,
      "Ġpie": 7560,
      "Ġpending": 7561,
      "lots": 7562,
      "Ġ(\\": 7563,
      "Ġusize": 7564,
      "ĠKEY": 7565,
      "Ġtyped": 7566,
      "Ġcapital": 7567,
      "Timeout": 7568,
      "Ġnamed": 7569,
      "Products": 7570,
      "\"}": 7571,
      "GIN": 7572,
      "Number": 7573,
      "[\\": 7574,
      "save": 7575,
      "success": 7576,
      "||": 7577,
      "inations": 7578,
      "antic": 7579,
      "âĢĿ.": 7580,
      "Ġdefaults": 7581,
      "Ġdifferentiation": 7582,
      "scape": 7583,
      "Ġguidelines": 7584,
      "Ġdimension": 7585,
      "Ġnums": 7586,
      "Parser": 7587,
      "Ġvelocity": 7588,
      "Del": 7589,
      "}+": 7590,
      "aling": 7591,
      "Ġface": 7592,
      "Ġwinds": 7593,
      "ĠCamb": 7594,
      "ĠThree": 7595,
      "aria": 7596,
      "Ġexpensive": 7597,
      "Ġpartitions": 7598,
      "Ġnonzero": 7599,
      "Ġsignature": 7600,
      "Ġasked": 7601,
      "Ġsynchron": 7602,
      "Ġtrip": 7603,
      "seconds": 7604,
      "Ġindicators": 7605,
      "ĠControl": 7606,
      "ĠGraphQL": 7607,
      "sens": 7608,
      "ĠÏ": 7609,
      "inical": 7610,
      "Ġsqrt": 7611,
      "Ġmph": 7612,
      "Ġreusable": 7613,
      "ste": 7614,
      "Ġisinstance": 7615,
      "ĠTac": 7616,
      "userId": 7617,
      "ĠBridge": 7618,
      "auss": 7619,
      "apply": 7620,
      "Ġmonot": 7621,
      "Ġdeli": 7622,
      "255": 7623,
      "yzing": 7624,
      "Ġskin": 7625,
      "Controller": 7626,
      "Ġfeelings": 7627,
      "Ġemphasize": 7628,
      "Router": 7629,
      "arterly": 7630,
      "''": 7631,
      "DP": 7632,
      "riction": 7633,
      "uages": 7634,
      "once": 7635,
      "Ġmiddleware": 7636,
      "ĠIter": 7637,
      "Ġuniverse": 7638,
      "ocation": 7639,
      "ĠExt": 7640,
      "Ġusername": 7641,
      "poses": 7642,
      "Ġencephal": 7643,
      "Ġbehavi": 7644,
      "Ġ120": 7645,
      "Ġsimpler": 7646,
      "Ġshifts": 7647,
      "Ġtrajectory": 7648,
      ")).": 7649,
      "best": 7650,
      "ha": 7651,
      "za": 7652,
      "Ġcas": 7653,
      "Ġ\".": 7654,
      "Ġcompiler": 7655,
      "Ġretri": 7656,
      "Ġtransient": 7657,
      "ishing": 7658,
      "ĠEnforce": 7659,
      "Ġpregnancy": 7660,
      "Ġcomprehensive": 7661,
      "%.": 7662,
      "HC": 7663,
      "ww": 7664,
      "organ": 7665,
      "Ġmesh": 7666,
      "ĊĠĠĠĠĠĠĠĠĠĠ": 7667,
      "Ġrich": 7668,
      "apter": 7669,
      "ultip": 7670,
      "ĠHy": 7671,
      "Exploring": 7672,
      "Ġcounting": 7673,
      "$$$,": 7674,
      "accent": 7675,
      "Ġguideline": 7676,
      "Ġinstrument": 7677,
      "Ġanomaly": 7678,
      "Ġcredentials": 7679,
      "Ġhouses": 7680,
      "ns": 7681,
      "priority": 7682,
      "uck": 7683,
      "arse": 7684,
      "etter": 7685,
      "Ġng": 7686,
      "Ġexception": 7687,
      "artment": 7688,
      "Ġresid": 7689,
      "Ġrespond": 7690,
      "Answer": 7691,
      "Ġtopic": 7692,
      "Ġdigit": 7693,
      "Ġindicated": 7694,
      "Ġteaching": 7695,
      "Ġglomer": 7696,
      "itarianism": 7697,
      "(...": 7698,
      "72": 7699,
      "=-": 7700,
      "Ġfine": 7701,
      "access": 7702,
      "oub": 7703,
      "Ġ\\,": 7704,
      "Ġ\\{": 7705,
      "Ġoblig": 7706,
      "Ġoverflow": 7707,
      "Ġcook": 7708,
      "Ġcoins": 7709,
      "Ġposterior": 7710,
      "Ġtorch": 7711,
      "Ġsuffix": 7712,
      "Ġlocation": 7713,
      "Ġrepository": 7714,
      "Page": 7715,
      "double": 7716,
      "eb": 7717,
      "Ġinser": 7718,
      "Ġstories": 7719,
      "ĠPromise": 7720,
      "Ġ300": 7721,
      "ĠStrategy": 7722,
      "Ġserum": 7723,
      "equate": 7724,
      "typed": 7725,
      "Ġworsen": 7726,
      "Ġscanning": 7727,
      "ĠNarrows": 7728,
      "ĠTacoma": 7729,
      "Top": 7730,
      "done": 7731,
      "fers": 7732,
      "lg": 7733,
      "watch": 7734,
      "Ġbron": 7735,
      "utdown": 7736,
      "stage": 7737,
      "Ġconj": 7738,
      "Ġalmost": 7739,
      "ĠEuler": 7740,
      "integ": 7741,
      "Ġprim": 7742,
      "Ġlogger": 7743,
      "worker": 7744,
      "Ġ_,": 7745,
      "ĠRouter": 7746,
      "Provider": 7747,
      "Ġconcentration": 7748,
      "Ġventric": 7749,
      "Ġpneumonia": 7750,
      "Ġthermal": 7751,
      "ĠCambrian": 7752,
      "48": 7753,
      "Cache": 7754,
      "mb": 7755,
      "Ġdraw": 7756,
      "aset": 7757,
      "ĠArt": 7758,
      "ĠPlayer": 7759,
      "enced": 7760,
      "---|": 7761,
      "ĠGenerate": 7762,
      "ntax": 7763,
      "prot": 7764,
      "Ġinterrupt": 7765,
      "Ġresponsibility": 7766,
      "PAT": 7767,
      "custom": 7768,
      "}>": 7769,
      "Ġcat": 7770,
      "road": 7771,
      "Ġdanger": 7772,
      "Ġstages": 7773,
      "gex": 7774,
      "Ġimplements": 7775,
      "team": 7776,
      "pons": 7777,
      "week": 7778,
      "short": 7779,
      "ergies": 7780,
      "player": 7781,
      "Ġscheduler": 7782,
      "capacity": 7783,
      "Ġlargest": 7784,
      "Ġsemantic": 7785,
      "POST": 7786,
      "mm": 7787,
      "Ġdt": 7788,
      "eth": 7789,
      "through": 7790,
      "thritis": 7791,
      "ĠPolicy": 7792,
      "Ġchurn": 7793,
      "ocode": 7794,
      "ĠInc": 7795,
      "}\\,\\": 7796,
      "Ġcalibration": 7797,
      "Compute": 7798,
      "yzer": 7799,
      "Ġstats": 7800,
      "ĠPrisma": 7801,
      "Ġmigrations": 7802,
      "Ġstatistics": 7803,
      "Ġtemporary": 7804,
      "ijkstra": 7805,
      "Ġfalsify": 7806,
      "Over": 7807,
      "power": 7808,
      "inia": 7809,
      "ivacy": 7810,
      "seed": 7811,
      "Ġ22": 7812,
      "ĠDocument": 7813,
      "Ġdefer": 7814,
      "soft": 7815,
      "Ġdeletion": 7816,
      "ission": 7817,
      "Ġsigned": 7818,
      "Ġdrinks": 7819,
      "Engine": 7820,
      "secret": 7821,
      "Ġtechnical": 7822,
      "Ġcleanup": 7823,
      "Ġrepresented": 7824,
      "Ġsynthetic": 7825,
      "AV": 7826,
      "Hello": 7827,
      "Ġlate": 7828,
      "Ġvote": 7829,
      "ĠNumber": 7830,
      "ocyt": 7831,
      "âĢĿ).": 7832,
      "ĠStream": 7833,
      "Ġvariant": 7834,
      "Ġpresence": 7835,
      "params": 7836,
      "Ġdrive": 7837,
      "Ġpayoff": 7838,
      "Ġbiopsy": 7839,
      "Ġpotentially": 7840,
      "Ġgrows": 7841,
      "ooter": 7842,
      "Button": 7843,
      "Ġconservation": 7844,
      "600": 7845,
      "font": 7846,
      "ls": 7847,
      "ners": 7848,
      "sup": 7849,
      "uled": 7850,
      "Ġfits": 7851,
      "Ġbottom": 7852,
      "omain": 7853,
      "ĠCT": 7854,
      "Ġsuitable": 7855,
      "ensus": 7856,
      "ĠExec": 7857,
      "Ġgoing": 7858,
      "Ġmonolith": 7859,
      "rightarrow": 7860,
      "Ġestablished": 7861,
      "Dev": 7862,
      "}+\\": 7863,
      "Ġtaking": 7864,
      "Ġcough": 7865,
      "Ġmiddle": 7866,
      "Ġhon": 7867,
      "Ġlove": 7868,
      "Ġuniqu": 7869,
      "cond": 7870,
      "Ġplas": 7871,
      "logic": 7872,
      "Ġgoes": 7873,
      "remote": 7874,
      "etermin": 7875,
      "Ġinsertion": 7876,
      "Assume": 7877,
      "ĠReturns": 7878,
      "Ġquadratic": 7879,
      "*)": 7880,
      "Co": 7881,
      "Mut": 7882,
      "vation": 7883,
      "Ġthreat": 7884,
      "styles": 7885,
      "Ġidentical": 7886,
      "ĠComple": 7887,
      "Ġdemo": 7888,
      "Ġaccessible": 7889,
      "Ġseparation": 7890,
      "Ġobservations": 7891,
      "Ġpurely": 7892,
      "ochastic": 7893,
      "Ġneighborhood": 7894,
      "/**": 7895,
      "EC": 7896,
      "Ġstoring": 7897,
      "ilder": 7898,
      "Ġprolong": 7899,
      "Ġ`@": 7900,
      "Ġunion": 7901,
      "Ġprisma": 7902,
      "Ġenabling": 7903,
      "Ġdefinite": 7904,
      "Ġ1024": 7905,
      "Ġscalar": 7906,
      "interval": 7907,
      "Output": 7908,
      "Ġsalt": 7909,
      "Ġairway": 7910,
      "Ġmuscle": 7911,
      "Ġdelirium": 7912,
      "kal": 7913,
      "Ġcadence": 7914,
      "Ġreaction": 7915,
      "elial": 7916,
      "Ġstick": 7917,
      "results": 7918,
      "Ġ`{": 7919,
      "Ġrh": 7920,
      "clic": 7921,
      "ĠDetermine": 7922,
      "Ġrequiring": 7923,
      "Ġmodulo": 7924,
      "Ġ45": 7925,
      "Ġcollection": 7926,
      "Ġconfounding": 7927,
      "neighb": 7928,
      "classList": 7929,
      "Ġtimer": 7930,
      "Ġconnections": 7931,
      "Ġlaboratory": 7932,
      "NP": 7933,
      "Row": 7934,
      "Sim": 7935,
      "currency": 7936,
      "anim": 7937,
      "eling": 7938,
      "ĠIts": 7939,
      "urations": 7940,
      "Ġscroll": 7941,
      "Ġdeveloper": 7942,
      "Ġinfo": 7943,
      "Ġgenerator": 7944,
      "Ġimplemented": 7945,
      "predict": 7946,
      "partum": 7947,
      "Ġmeasured": 7948,
      "visible": 7949,
      "grad": 7950,
      "iary": 7951,
      "Ġ),": 7952,
      "Ġtwe": 7953,
      "Ġvectors": 7954,
      "osed": 7955,
      "Ġunstable": 7956,
      "ĠNow": 7957,
      "Ġcompleteness": 7958,
      "Ġconflicts": 7959,
      "Ġregim": 7960,
      "Ġ750": 7961,
      "Ġhelpers": 7962,
      "Ġnormalize": 7963,
      "Ġindexes": 7964,
      "ĠResponse": 7965,
      "Ġplaceholder": 7966,
      "slug": 7967,
      "rosis": 7968,
      "Ġpersistence": 7969,
      "Ġgravit": 7970,
      ")`,": 7971,
      "/+": 7972,
      "CON": 7973,
      "GFR": 7974,
      "each": 7975,
      "ications": 7976,
      "Ġusual": 7977,
      "ĠTheorem": 7978,
      "Ġ++": 7979,
      "ĠEst": 7980,
      "Ġoutlining": 7981,
      "Ġparity": 7982,
      "Ġproven": 7983,
      "Ġvariants": 7984,
      "ĠCommon": 7985,
      "Ġmyocard": 7986,
      "clean": 7987,
      "LEN": 7988,
      "subs": 7989,
      "Clar": 7990,
      "Ġindicates": 7991,
      "ĠPrefer": 7992,
      "Ġexpectations": 7993,
      "directed": 7994,
      "ĠEnglish": 7995,
      ":\"": 7996,
      "Go": 7997,
      "\\}": 7998,
      "^+": 7999,
      "wt": 8000,
      "Ġ^": 8001,
      "Ġpun": 8002,
      "Ġinventory": 8003,
      "etween": 8004,
      "sth": 8005,
      "Ġstaging": 8006,
      "under": 8007,
      "oder": 8008,
      "Ġexerc": 8009,
      "ĠAct": 8010,
      "ĠNotes": 8011,
      "Ġenumer": 8012,
      "Ġreally": 8013,
      "nea": 8014,
      "Ġquantities": 8015,
      "Ġaggregation": 8016,
      "Ġestimates": 8017,
      "Found": 8018,
      "Main": 8019,
      "UR": 8020,
      "ah": 8021,
      "enant": 8022,
      "Ġgram": 8023,
      "Ġord": 8024,
      "keep": 8025,
      "Ġasynchronous": 8026,
      "ĠDi": 8027,
      "Ġled": 8028,
      "Ġconting": 8029,
      "Ġpermissions": 8030,
      "ĠIncre": 8031,
      "mselves": 8032,
      "Exp": 8033,
      "Ġprediction": 8034,
      "Ġsequencing": 8035,
      "Ġdivide": 8036,
      "Ġmov": 8037,
      "Ġperiodic": 8038,
      "Ġinfluence": 8039,
      "Ġeigenvalues": 8040,
      "\"},": 8041,
      "26": 8042,
      "cursor": 8043,
      "dog": 8044,
      "rogate": 8045,
      "Ġannot": 8046,
      "Ġwall": 8047,
      "stolic": 8048,
      "Ġcanary": 8049,
      "duced": 8050,
      "Ġseason": 8051,
      "Ġdifferentiate": 8052,
      "Ġcheckpoints": 8053,
      "ĠKPI": 8054,
      "Ġdownload": 8055,
      "rank": 8056,
      "Ġphysics": 8057,
      "Ġprobabilities": 8058,
      "ĠAdditionally": 8059,
      "={{": 8060,
      "ĠRuntime": 8061,
      "Ġhemod": 8062,
      "Ġconceptual": 8063,
      "Ġexponent": 8064,
      "Ġreconstruct": 8065,
      "UP": 8066,
      "cp": 8067,
      "merge": 8068,
      "none": 8069,
      "Ġts": 8070,
      "Ġthemselves": 8071,
      "Ġbounds": 8072,
      "Ġincons": 8073,
      "Ġstays": 8074,
      "ĠTuple": 8075,
      "Ġ'/": 8076,
      "ĠNon": 8077,
      "Ġseek": 8078,
      "Ġincluded": 8079,
      "Ġfear": 8080,
      "Ġflush": 8081,
      "Ġends": 8082,
      "Ġresulting": 8083,
      "submit": 8084,
      "Ġcombine": 8085,
      "Ġoccup": 8086,
      "venue": 8087,
      "flag": 8088,
      "Ġbulbs": 8089,
      "Ġignore": 8090,
      "Ġeducation": 8091,
      "depth": 8092,
      "Ġalbumin": 8093,
      "'d": 8094,
      "78": 8095,
      "NAME": 8096,
      "Suppose": 8097,
      "WHERE": 8098,
      "\\\\": 8099,
      "Ġfib": 8100,
      "Ġ-\\": 8101,
      "Ġ\"\"": 8102,
      "aper": 8103,
      "Ġadherence": 8104,
      "\"):": 8105,
      "poch": 8106,
      "Ġcovari": 8107,
      "ĠCommand": 8108,
      "private": 8109,
      "Ġdocs": 8110,
      "register": 8111,
      "Ġcaches": 8112,
      "Ġoptionally": 8113,
      "Ġattempts": 8114,
      "Ġapprovals": 8115,
      "Password": 8116,
      "Filter": 8117,
      "PM": 8118,
      "tice": 8119,
      "Ġtend": 8120,
      "Ġctx": 8121,
      "ilateral": 8122,
      "Ġglob": 8123,
      "ĠAnt": 8124,
      "Ġ\"@": 8125,
      "ĠEu": 8126,
      "Ġreturned": 8127,
      "eval": 8128,
      "Ġinteractive": 8129,
      "Ġinstitutions": 8130,
      "Ġzone": 8131,
      "Ġpredictive": 8132,
      "Ġspecificity": 8133,
      "END": 8134,
      "Ġflexible": 8135,
      "Ġaligned": 8136,
      "Ġqueues": 8137,
      "Ġheavier": 8138,
      "Ġsubsequence": 8139,
      "Off": 8140,
      "Sort": 8141,
      "Session": 8142,
      "VAL": 8143,
      "mma": 8144,
      "sur": 8145,
      "Ġslight": 8146,
      "ana": 8147,
      "Ġhook": 8148,
      "eless": 8149,
      "Ġonline": 8150,
      "associ": 8151,
      "ĠPOST": 8152,
      "portant": 8153,
      "Ġscop": 8154,
      "Ġscoring": 8155,
      "ubern": 8156,
      "Ġdisrupt": 8157,
      "Ġcompleted": 8158,
      "Ġmanaging": 8159,
      "Ġ64": 8160,
      "Ġreadiness": 8161,
      "Ġblocking": 8162,
      "leneck": 8163,
      "Ġutilities": 8164,
      "ESC": 8165,
      "market": 8166,
      "Ġrapidly": 8167,
      "Ġinvariant": 8168,
      "Ġgravitational": 8169,
      "ubernetes": 8170,
      "Einstein": 8171,
      "Term": 8172,
      "bad": 8173,
      "}}\\": 8174,
      "Ġfriend": 8175,
      "ortun": 8176,
      "ĠMulti": 8177,
      "available": 8178,
      "ĠOther": 8179,
      "ĠLoad": 8180,
      "ube": 8181,
      "ynth": 8182,
      "trim": 8183,
      "Ġcorrection": 8184,
      "Process": 8185,
      "Ġcurrently": 8186,
      "ruption": 8187,
      "Ġaccessibility": 8188,
      "Ġlanguages": 8189,
      "Ġmeasurement": 8190,
      "DataFrame": 8191,
      "tasks": 8192,
      "Ġelectro": 8193,
      "ĠMonitor": 8194,
      "Ġinhibitors": 8195,
      "Ġdominant": 8196,
      "Ġhypotension": 8197,
      "Err": 8198,
      "High": 8199,
      "dashboard": 8200,
      "lint": 8201,
      "rint": 8202,
      "inv": 8203,
      "hears": 8204,
      "unt": 8205,
      "Ġimag": 8206,
      "Ġintake": 8207,
      "Ġcancel": 8208,
      "ĠMa": 8209,
      "Ġminute": 8210,
      "Ġhardest": 8211,
      "Ġantibiotic": 8212,
      "Ġproportional": 8213,
      "AI": 8214,
      "bot": 8215,
      "ancial": 8216,
      "Ġdense": 8217,
      "igger": 8218,
      "ĠToken": 8219,
      "Ġprofit": 8220,
      "ĠHF": 8221,
      "ĠHttp": 8222,
      "phot": 8223,
      "Ġdoing": 8224,
      "ĠConvert": 8225,
      "lick": 8226,
      "Ġavailability": 8227,
      "Ġimports": 8228,
      "Ġdesigned": 8229,
      "Ġcausal": 8230,
      "Ġexecutive": 8231,
      "Ġcultures": 8232,
      "Ġcached": 8233,
      "Ġassociation": 8234,
      "Ġtailor": 8235,
      "Ġradiation": 8236,
      "Ġmilest": 8237,
      "ĠHandle": 8238,
      "Ġreproduc": 8239,
      "79": 8240,
      "Search": 8241,
      "ĊĊĠĠĠĠĠĠĠĠĠĠĠĠĠĠĠ": 8242,
      "Ġreuse": 8243,
      "Ġischem": 8244,
      "Ġwhite": 8245,
      "ĠSelf": 8246,
      "Ġassets": 8247,
      "ĠLow": 8248,
      "Ġsupportive": 8249,
      "Ġderivation": 8250,
      "Ġscales": 8251,
      "Ġdataclass": 8252,
      "Ġlengths": 8253,
      "Ġorganization": 8254,
      "Ġmeningitis": 8255,
      ")),": 8256,
      "pmod": 8257,
      "Ġcm": 8258,
      "Ġrestore": 8259,
      "Ġproceed": 8260,
      "ĠCount": 8261,
      "aining": 8262,
      "Strategy": 8263,
      "prov": 8264,
      "Ġinterpre": 8265,
      "Inf": 8266,
      "bose": 8267,
      "ĠJOIN": 8268,
      "shell": 8269,
      "Ġ>>": 8270,
      "Ġclearance": 8271,
      "svg": 8272,
      "Ġtopology": 8273,
      "Ġbeautiful": 8274,
      "Ġsingular": 8275,
      "CC": 8276,
      "aud": 8277,
      "Ġsepsis": 8278,
      "Ġinsp": 8279,
      "quality": 8280,
      "Ġlag": 8281,
      "ulative": 8282,
      "Ġrise": 8283,
      "Ġ[];": 8284,
      "Ġnothing": 8285,
      "settings": 8286,
      "Ġvalidated": 8287,
      "Ġjustified": 8288,
      "models": 8289,
      "Ġmaximal": 8290,
      "Ġregulations": 8291,
      "ĠQuery": 8292,
      "Ġuniformly": 8293,
      "RA": 8294,
      "Room": 8295,
      "aos": 8296,
      "category": 8297,
      "move": 8298,
      "rous": 8299,
      "icles": 8300,
      "Ġbiology": 8301,
      "Ġreass": 8302,
      "lope": 8303,
      "Ġvary": 8304,
      "Ġproposition": 8305,
      "Ġgods": 8306,
      "ĠPE": 8307,
      "ĠProm": 8308,
      "ĠFrom": 8309,
      "Ġjoint": 8310,
      "Ġinterest": 8311,
      "Ġchoosing": 8312,
      "Ġprinc": 8313,
      "Ġfocused": 8314,
      "location": 8315,
      "empotent": 8316,
      "Ġinformed": 8317,
      "Ġexceeds": 8318,
      "Rightarrow": 8319,
      "Ġcontradictions": 8320,
      "ĠFinally": 8321,
      "tology": 8322,
      "300": 8323,
      "YPE": 8324,
      "inated": 8325,
      "Ġvacc": 8326,
      "Ġgaps": 8327,
      "Ġriddle": 8328,
      "Ġleaves": 8329,
      "cludes": 8330,
      "Ġserve": 8331,
      "Ġdescript": 8332,
      "minute": 8333,
      "posts": 8334,
      "distance": 8335,
      "Ġnumerical": 8336,
      "Ġaccurate": 8337,
      "Security": 8338,
      ")}\\": 8339,
      "1000": 8340,
      "footer": 8341,
      "hour": 8342,
      "Ġul": 8343,
      "Ġtang": 8344,
      "iling": 8345,
      "Ġvit": 8346,
      "umps": 8347,
      "plus": 8348,
      "Ġ28": 8349,
      "ococc": 8350,
      "Ġworkload": 8351,
      "Ġintersection": 8352,
      "Ġmatplotlib": 8353,
      "echo": 8354,
      "Ġflu": 8355,
      "ĠComp": 8356,
      "requency": 8357,
      "security": 8358,
      "ymph": 8359,
      "Ġrepeatedly": 8360,
      "transform": 8361,
      "Ġsignificance": 8362,
      "Ġaccurately": 8363,
      "SERT": 8364,
      "Ġcompatible": 8365,
      "Providing": 8366,
      "#[": 8367,
      "([]": 8368,
      ")+\\": 8369,
      "cs": 8370,
      "Ġcfg": 8371,
      "itual": 8372,
      "Ġstochastic": 8373,
      "Ġlost": 8374,
      "ĠDNA": 8375,
      "Ġapps": 8376,
      "Ġ'$": 8377,
      "Ġscrap": 8378,
      "Ġable": 8379,
      "Ġinteract": 8380,
      "Ġidentifiers": 8381,
      "Ġrecommendations": 8382,
      "Ġfinally": 8383,
      "Ġlikelihood": 8384,
      "drug": 8385,
      "++;": 8386,
      "manager": 8387,
      "slide": 8388,
      "Ġrounded": 8389,
      "orticoster": 8390,
      "Entry": 8391,
      "Ġciphertext": 8392,
      "Ġconjug": 8393,
      "Sigma": 8394,
      "`;": 8395,
      "itative": 8396,
      "Ġpets": 8397,
      "roy": 8398,
      "Ġdosing": 8399,
      "utter": 8400,
      "account": 8401,
      "channel": 8402,
      "Ġlosing": 8403,
      "ĠRate": 8404,
      "clone": 8405,
      "Ġleaf": 8406,
      "Ġrough": 8407,
      "Ġprints": 8408,
      "âĢĿ:": 8409,
      "Ġlattice": 8410,
      "Ġsequences": 8411,
      "Default": 8412,
      "Ġreplaces": 8413,
      "Ġlandscape": 8414,
      "=$(": 8415,
      "Ġaccordingly": 8416,
      "Ġcompletion": 8417,
      "ĠGeV": 8418,
      "Ġnationalities": 8419,
      "ĠBayesian": 8420,
      "08": 8421,
      "rev": 8422,
      "Ġclo": 8423,
      "oriented": 8424,
      "Ġhol": 8425,
      "endor": 8426,
      "ĠSm": 8427,
      "chmark": 8428,
      "izumab": 8429,
      "ĠMed": 8430,
      "ĠVec": 8431,
      "Ġdie": 8432,
      "Ġviral": 8433,
      "Ġdrugs": 8434,
      "ĠArray": 8435,
      "Ġsuspected": 8436,
      "expand": 8437,
      "Ġmedications": 8438,
      "chemy": 8439,
      "Ġmenu": 8440,
      "-%": 8441,
      "SV": 8442,
      "bi": 8443,
      "hil": 8444,
      "Ġtaken": 8445,
      "Ġdoub": 8446,
      "ithium": 8447,
      "Ġexclude": 8448,
      "resents": 8449,
      "ĠPe": 8450,
      "ĠDESC": 8451,
      "Ġcontroller": 8452,
      "Ġadoption": 8453,
      "ĠLHC": 8454,
      "jection": 8455,
      "riter": 8456,
      "ĠUN": 8457,
      "icture": 8458,
      "matic": 8459,
      "Ġcommits": 8460,
      "Ġentity": 8461,
      "Ġentropy": 8462,
      "colors": 8463,
      "Ġhappiness": 8464,
      "Ġdiagrams": 8465,
      "Ġdecreases": 8466,
      "ipheral": 8467,
      "Ġsmokes": 8468,
      "/{": 8469,
      "70": 8470,
      "Link": 8471,
      "Layout": 8472,
      "live": 8473,
      "ĠðŁ": 8474,
      "Ġtot": 8475,
      "ĠPhi": 8476,
      "agg": 8477,
      "Ġscans": 8478,
      "ĠGauss": 8479,
      "(\"\\": 8480,
      "Ġupstream": 8481,
      "Exec": 8482,
      "Ġprogn": 8483,
      "Ġeducational": 8484,
      "Ġmerely": 8485,
      "lycemia": 8486,
      "Ġpiece": 8487,
      "HIR": 8488,
      "Rem": 8489,
      "fa": 8490,
      "you": 8491,
      "Ġtiny": 8492,
      "Ġmood": 8493,
      "ulator": 8494,
      "ĠIS": 8495,
      "ĠTotal": 8496,
      "ĠAudit": 8497,
      "Ġcomment": 8498,
      "Ġsharing": 8499,
      "Ġdiscipl": 8500,
      "Ġdock": 8501,
      "Ġcolon": 8502,
      "Ġsupply": 8503,
      "Ġconfigure": 8504,
      "Ġpredicted": 8505,
      "Ġswap": 8506,
      "Ġratios": 8507,
      "Ġcoordinate": 8508,
      "Ġisolated": 8509,
      "Ġtraditions": 8510,
      "Ġschools": 8511,
      "ommended": 8512,
      "34": 8513,
      "BE": 8514,
      "Med": 8515,
      "orization": 8516,
      "alert": 8517,
      "ĠIF": 8518,
      "iration": 8519,
      "ĠErr": 8520,
      "Ġoverrid": 8521,
      "Ġinfectious": 8522,
      "requirements": 8523,
      "terminal": 8524,
      "Ġvisited": 8525,
      "ameters": 8526,
      "Ġpresentation": 8527,
      "connection": 8528,
      "ĠImplementation": 8529,
      "Ġdenom": 8530,
      "querySelector": 8531,
      "Ġbullet": 8532,
      "Ġcircuit": 8533,
      "Ġgeometric": 8534,
      "Ġinvolvement": 8535,
      "Ġefforts": 8536,
      "itutional": 8537,
      "900": 8538,
      "=[": 8539,
      "MI": 8540,
      "saving": 8541,
      "Ġtalk": 8542,
      "repo": 8543,
      "Ġsaved": 8544,
      "lead": 8545,
      "Ġrevis": 8546,
      "antity": 8547,
      "resolve": 8548,
      "ĠSch": 8549,
      "ĠPage": 8550,
      "Ġleave": 8551,
      "Ġexpose": 8552,
      "Ġconfir": 8553,
      "Ġeveryone": 8554,
      "Ġdirected": 8555,
      "Comple": 8556,
      "Ġsequential": 8557,
      "Ġwriter": 8558,
      "Ġminimize": 8559,
      "Ġbranches": 8560,
      "âĶľâĶĢâĶĢ": 8561,
      "Ġenhance": 8562,
      "associated": 8563,
      "Ġmilestones": 8564,
      "></": 8565,
      "DAT": 8566,
      "TC": 8567,
      "gi": 8568,
      "hook": 8569,
      "tw": 8570,
      "initial": 8571,
      "invalid": 8572,
      "Ġmand": 8573,
      "Ġreplic": 8574,
      "etilde": 8575,
      "ĠSSR": 8576,
      "ayer": 8577,
      "ĠRSA": 8578,
      "Ġlets": 8579,
      "agic": 8580,
      "series": 8581,
      "Ġmater": 8582,
      "Ġcardinal": 8583,
      "Ġalongside": 8584,
      "display": 8585,
      "slice": 8586,
      "Ġtimeouts": 8587,
      "Ġmitigation": 8588,
      "ĠSimple": 8589,
      "Ġinformative": 8590,
      "Ġdiscriminating": 8591,
      "Ġdynamics": 8592,
      "widetilde": 8593,
      ":%": 8594,
      "Block": 8595,
      "Gener": 8596,
      "cest": 8597,
      "fin": 8598,
      "oop": 8599,
      "Â·": 8600,
      "Ġcrow": 8601,
      "inger": 8602,
      "Ġdial": 8603,
      "entral": 8604,
      "ĠAtt": 8605,
      "ĠBu": 8606,
      "Ġcompens": 8607,
      "ĠĠĠĠĠĠĠĠĠĠĠĠ": 8608,
      "Ġoutbox": 8609,
      "Ġdefines": 8610,
      "Ġinterfaces": 8611,
      "pool": 8612,
      "Ġclinicians": 8613,
      "Ġlearn": 8614,
      "apsed": 8615,
      "Ġestimated": 8616,
      "Ġrelativ": 8617,
      "Ġspectrum": 8618,
      "Ġventricular": 8619,
      "DA": 8620,
      "MAR": 8621,
      "before": 8622,
      "cut": 8623,
      "Ġslic": 8624,
      "orter": 8625,
      "Ġwrap": 8626,
      "Ġhorm": 8627,
      "ĠAc": 8628,
      "ĠCON": 8629,
      "ĠPres": 8630,
      "Ġtraces": 8631,
      "\"))": 8632,
      "Ġversioning": 8633,
      "Ġpacket": 8634,
      "Ġphilosophers": 8635,
      "Ġharder": 8636,
      "Ġvenous": 8637,
      "Structuring": 8638,
      ")\",": 8639,
      "UID": 8640,
      "]}": 8641,
      "cr": 8642,
      "freq": 8643,
      "tick": 8644,
      "tags": 8645,
      "}[": 8646,
      "rogen": 8647,
      "Ġ\\|": 8648,
      "ĠTCP": 8649,
      "estyle": 8650,
      "uma": 8651,
      "ĠSV": 8652,
      "ĠOS": 8653,
      "ĠGate": 8654,
      "beat": 8655,
      "Ġaudio": 8656,
      "uchy": 8657,
      "Ġdegrad": 8658,
      "Ġrotate": 8659,
      "ufficient": 8660,
      "Ġmusic": 8661,
      "typedef": 8662,
      "Ġprincipal": 8663,
      "42": 8664,
      "Direct": 8665,
      "Eff": 8666,
      "sided": 8667,
      "uk": 8668,
      "wd": 8669,
      "orption": 8670,
      "asis": 8671,
      "Ġconvers": 8672,
      "ulates": 8673,
      "ĠSign": 8674,
      "agraph": 8675,
      "ĠHash": 8676,
      "illing": 8677,
      "ĠJust": 8678,
      "Ġattend": 8679,
      "Ġsurrogate": 8680,
      "eparate": 8681,
      "ITH": 8682,
      "ĠAdjust": 8683,
      "Spec": 8684,
      "Ġspecialist": 8685,
      "Ġsubsets": 8686,
      "Height": 8687,
      "Ġmeetings": 8688,
      "Ġtrend": 8689,
      "Ġcoupling": 8690,
      "Ġbelong": 8691,
      "Connection": 8692,
      "rability": 8693,
      "Ġscattering": 8694,
      "Lock": 8695,
      "Option": 8696,
      "Telemetry": 8697,
      "cm": 8698,
      "counts": 8699,
      "single": 8700,
      "erated": 8701,
      "orrow": 8702,
      "Ġwarm": 8703,
      "platform": 8704,
      "ocale": 8705,
      "textContent": 8706,
      "speed": 8707,
      "Ġsuppress": 8708,
      "Ġsuppression": 8709,
      "Ġcooper": 8710,
      "forEach": 8711,
      "ologies": 8712,
      "Ġowners": 8713,
      "Ġbreaking": 8714,
      "Ġpackages": 8715,
      "transition": 8716,
      "ĠRecord": 8717,
      "Ġbroader": 8718,
      "Planning": 8719,
      "Ġsociety": 8720,
      "ĠFastAPI": 8721,
      "Cost": 8722,
      "Des": 8723,
      "Http": 8724,
      "Ġpag": 8725,
      "Ġpandas": 8726,
      "leton": 8727,
      "ĠAC": 8728,
      "ĠSend": 8729,
      "ĠSample": 8730,
      "Ġalthough": 8731,
      "Ġapplying": 8732,
      "ĠEd": 8733,
      "ĠBl": 8734,
      "ĠMessage": 8735,
      "console": 8736,
      "Ġgenerates": 8737,
      "prefix": 8738,
      "losed": 8739,
      "ediation": 8740,
      "Ġsums": 8741,
      "Ġloads": 8742,
      "ieve": 8743,
      "Ġapproximate": 8744,
      "Ġexceptions": 8745,
      "TOS": 8746,
      "Ġcategories": 8747,
      "Ġinhibitor": 8748,
      "ĠDEFAULT": 8749,
      "Ġslightly": 8750,
      "($": 8751,
      ".*": 8752,
      "]\\)": 8753,
      "bind": 8754,
      "mount": 8755,
      "muted": 8756,
      "Ġ;": 8757,
      "reated": 8758,
      "Ġunexpected": 8759,
      "oglob": 8760,
      "Ġtransactions": 8761,
      "Ġletters": 8762,
      "cience": 8763,
      "Ġrepresents": 8764,
      "ĠEnable": 8765,
      "Ġdetermined": 8766,
      "ĠRemove": 8767,
      "Ġacquired": 8768,
      "Ġobligations": 8769,
      "RR": 8770,
      "between": 8771,
      "Ġnecess": 8772,
      "loom": 8773,
      "ĠSk": 8774,
      "ĠPay": 8775,
      "Ġneural": 8776,
      "outh": 8777,
      "perty": 8778,
      "Ġreturning": 8779,
      "Ġtranslation": 8780,
      "Ġdiet": 8781,
      "culating": 8782,
      "gorithm": 8783,
      "mutex": 8784,
      "Ġadvance": 8785,
      "variant": 8786,
      "Ġsignaling": 8787,
      "Ġgraceful": 8788,
      "Ġobtained": 8789,
      "Ġalgebraic": 8790,
      "Ġempirical": 8791,
      "Ġcopies": 8792,
      "ĠConnect": 8793,
      "Ġhemorrhage": 8794,
      "Cal": 8795,
      "]=": 8796,
      "gy": 8797,
      "paid": 8798,
      "Â°": 8799,
      "Ġbin": 8800,
      "Ġreact": 8801,
      "Ġincomplete": 8802,
      "Ġinfrastructure": 8803,
      "acer": 8804,
      "elength": 8805,
      "ilt": 8806,
      "ĠText": 8807,
      "ĠTop": 8808,
      "ĠCustom": 8809,
      "ounce": 8810,
      "ĠEdge": 8811,
      "Ġstrugg": 8812,
      "Ġ'#": 8813,
      "encode": 8814,
      "Ġletter": 8815,
      "pars": 8816,
      "standing": 8817,
      "Ġgenu": 8818,
      "graphql": 8819,
      "Ġgeometry": 8820,
      ")?;": 8821,
      "digit": 8822,
      "Ġsnippet": 8823,
      "EF": 8824,
      "Non": 8825,
      "atric": 8826,
      "Ġfriction": 8827,
      "Ġregex": 8828,
      "else": 8829,
      "ithub": 8830,
      "ĠPA": 8831,
      "actate": 8832,
      "ideo": 8833,
      "Ġ400": 8834,
      "ogle": 8835,
      "ĠStrong": 8836,
      "shared": 8837,
      "Ġpasseng": 8838,
      "Ġbiom": 8839,
      "Ġgradients": 8840,
      "ĠFlask": 8841,
      "ĠSLOs": 8842,
      "Are": 8843,
      "Gamma": 8844,
      "Level": 8845,
      "bine": 8846,
      "kind": 8847,
      "samples": 8848,
      "ycin": 8849,
      "attr": 8850,
      "Ġepid": 8851,
      "Ġnor": 8852,
      "Ġconclude": 8853,
      "Ġlymph": 8854,
      "ĠPRI": 8855,
      "ostics": 8856,
      "ĠGPS": 8857,
      "ĠInsert": 8858,
      "owner": 8859,
      "ĊĠĠĠĠĠĠĠĠĠĠĠĠĠĠĠĠĠĠĠĠĠĠĠĠĠĠĠĠĠĠĠĠ": 8860,
      "PIO": 8861,
      "ship": 8862,
      "('/": 8863,
      "ytics": 8864,
      "Ġmissed": 8865,
      "Ġcaptures": 8866,
      "Ġsymmetric": 8867,
      "Ġphilosophy": 8868,
      "decode": 8869,
      "Observ": 8870,
      "swers": 8871,
      "Ġmanifest": 8872,
      "Ġhierarchy": 8873,
      "Ġwavelength": 8874,
      "Ġcolleague": 8875,
      "ogeneous": 8876,
      "haust": 8877,
      "CV": 8878,
      "Depend": 8879,
      "HI": 8880,
      "TER": 8881,
      "dy": 8882,
      "png": 8883,
      "tests": 8884,
      "ycard": 8885,
      "Ġanswers": 8886,
      "Ġsty": 8887,
      "health": 8888,
      "chunk": 8889,
      "Ġlot": 8890,
      "Ġapples": 8891,
      "ĠFunction": 8892,
      "ĠHis": 8893,
      "avy": 8894,
      "Ġvalu": 8895,
      "creen": 8896,
      "ishes": 8897,
      "Ġtravers": 8898,
      "ursive": 8899,
      "good": 8900,
      "Ġredis": 8901,
      "ĠINTO": 8902,
      "ĠImage": 8903,
      "Ġpsychological": 8904,
      "Ġvascular": 8905,
      "Ġsnippets": 8906,
      "Ġbottleneck": 8907,
      "Ġdangerous": 8908,
      "Ġplasma": 8909,
      "'],": 8910,
      "\\!\\": 8911,
      "doster": 8912,
      "fra": 8913,
      "mac": 8914,
      "oy": 8915,
      "oices": 8916,
      "rist": 8917,
      "etry": 8918,
      "Ġste": 8919,
      "Ġlives": 8920,
      "resistant": 8921,
      "ĠPII": 8922,
      "yses": 8923,
      "Ġproduced": 8924,
      "paths": 8925,
      "ĠComponent": 8926,
      "stringify": 8927,
      "Ġpayment": 8928,
      "Also": 8929,
      "Ġnumpy": 8930,
      "Ġentirely": 8931,
      "Ġimpossibilities": 8932,
      "Ġhitting": 8933,
      "Ġlittle": 8934,
      "Ġorthog": 8935,
      "Ġbundle": 8936,
      "Clarifying": 8937,
      "Current": 8938,
      "Failed": 8939,
      "QUE": 8940,
      "ii": 8941,
      "np": 8942,
      "prom": 8943,
      "Ġfamil": 8944,
      "Ġhi": 8945,
      "Ġlint": 8946,
      "unwrap": 8947,
      "Ġ150": 8948,
      "ĠSl": 8949,
      "\",\"": 8950,
      "Ġmeters": 8951,
      "Ġmodal": 8952,
      "valence": 8953,
      "Ġdeprec": 8954,
      "cols": 8955,
      "eady": 8956,
      "notes": 8957,
      "Ġrigorously": 8958,
      "Resource": 8959,
      "Price": 8960,
      "Should": 8961,
      "OUT": 8962,
      "ĠCSF": 8963,
      "Ġcardiac": 8964,
      "volume": 8965,
      "Ġasymptotic": 8966,
      "Ġsimultaneously": 8967,
      "HR": 8968,
      "Todo": 8969,
      "Ġsending": 8970,
      "eties": 8971,
      "ĠII": 8972,
      "Ġgas": 8973,
      "Ġsuc": 8974,
      "ĠDel": 8975,
      "ĠDijkstra": 8976,
      "conf": 8977,
      "ĠLinux": 8978,
      "production": 8979,
      "Ġpathway": 8980,
      "Ġdetected": 8981,
      "ĠProt": 8982,
      "Ġ./": 8983,
      "umeric": 8984,
      "Ġconsistently": 8985,
      "Ġiterations": 8986,
      "Ġpreventing": 8987,
      "handler": 8988,
      "Ġopportun": 8989,
      "Ġhospitalization": 8990,
      "frames": 8991,
      "LM": 8992,
      "Pool": 8993,
      "ional": 8994,
      "Ġanything": 8995,
      "ĠSLA": 8996,
      "ĠDifferent": 8997,
      "agon": 8998,
      "Ġ'.": 8999,
      "ffff": 9000,
      "Ġconstants": 9001,
      "Ġprepare": 9002,
      "Ġdisaster": 9003,
      "Ġperror": 9004,
      "Ġinterventions": 9005,
      "Ġfluct": 9006,
      "Ġcharset": 9007,
      "ameter": 9008,
      "ĠRequire": 9009,
      "ĠClass": 9010,
      "Ġeasily": 9011,
      "Ġantibody": 9012,
      "Ġcomputing": 9013,
      "Ġutilitarianism": 9014,
      "ArgumentParser": 9015,
      "Ġencrypted": 9016,
      "symbol": 9017,
      "COM": 9018,
      "Optim": 9019,
      "ius": 9020,
      "jpg": 9021,
      "vents": 9022,
      "Ġtach": 9023,
      "Ġthro": 9024,
      "Ġpir": 9025,
      "oura": 9026,
      "ĠRol": 9027,
      "Ġkm": 9028,
      "ĠConsole": 9029,
      "Ġraises": 9030,
      "Ġmarkers": 9031,
      "being": 9032,
      "Ġmorally": 9033,
      "Ġ\"${": 9034,
      "Ġapproximations": 9035,
      "Ġfilesystem": 9036,
      "chitecture": 9037,
      "Ġseeing": 9038,
      "Ġsplitting": 9039,
      "attery": 9040,
      "ĠTreatment": 9041,
      "Attribute": 9042,
      "Ġpremium": 9043,
      "Ġsucceed": 9044,
      "BW": 9045,
      "Take": 9046,
      "UES": 9047,
      "rated": 9048,
      "sb": 9049,
      "xFF": 9050,
      "Ġcorticoster": 9051,
      "Ġped": 9052,
      "aseline": 9053,
      "star": 9054,
      "raining": 9055,
      "ulus": 9056,
      "Ġvec": 9057,
      "Ġproxim": 9058,
      "ĠAccess": 9059,
      "angles": 9060,
      "Ġhandled": 9061,
      "Ġsaturation": 9062,
      "Ġscripts": 9063,
      "Ġoptimize": 9064,
      "Ġdocumented": 9065,
      "Ġrolling": 9066,
      "Ġdestination": 9067,
      "Ġforecast": 9068,
      "Ġleakage": 9069,
      "ORDER": 9070,
      "Ġcontingency": 9071,
      "Ġpirates": 9072,
      "36": 9073,
      "GB": 9074,
      "Mat": 9075,
      "Make": 9076,
      "]\\": 9077,
      "_(": 9078,
      "cape": 9079,
      "draw": 9080,
      "Ġap": 9081,
      "enu": 9082,
      "asm": 9083,
      "Ġheter": 9084,
      "adder": 9085,
      "Ġorient": 9086,
      "ĠNa": 9087,
      "Ġscr": 9088,
      "Ġextraction": 9089,
      "ĠAnd": 9090,
      "Ġsatell": 9091,
      "lik": 9092,
      "Ġmovement": 9093,
      "Ġstreams": 9094,
      "Ġbroadcast": 9095,
      "datetime": 9096,
      "================": 9097,
      "Object": 9098,
      "Ġrelatively": 9099,
      "Ġtolerance": 9100,
      "ĠCauchy": 9101,
      "27": 9102,
      "Body": 9103,
      "Customer": 9104,
      "Eq": 9105,
      "Even": 9106,
      "cor": 9107,
      "iar": 9108,
      "lived": 9109,
      "rict": 9110,
      "sleep": 9111,
      "vious": 9112,
      "ĠmL": 9113,
      "Ġda": 9114,
      "Ġincoming": 9115,
      "standard": 9116,
      "ĠTwo": 9117,
      "Ġalt": 9118,
      "ĠPipeline": 9119,
      "Ġ}),": 9120,
      "Ġprices": 9121,
      "ĠLimit": 9122,
      "ĠGET": 9123,
      "Ġfunc": 9124,
      "ĠReal": 9125,
      "white": 9126,
      "apture": 9127,
      "Ġpowerful": 9128,
      "Ġformats": 9129,
      "Ġnetworks": 9130,
      "Schema": 9131,
      "Ġfavorable": 9132,
      "supported": 9133,
      "Email": 9134,
      "\").": 9135,
      "icious": 9136,
      "ĠICU": 9137,
      "ĠSever": 9138,
      "ĠPut": 9139,
      "ĠDat": 9140,
      "ĠLe": 9141,
      "Ġpermut": 9142,
      "Ġfunctionality": 9143,
      "Ġconfusion": 9144,
      "Ġacts": 9145,
      "Ġcoin": 9146,
      "prise": 9147,
      "Ġreceived": 9148,
      "Ġlabs": 9149,
      "Ġdecomp": 9150,
      "pollo": 9151,
      "Ġneurologic": 9152,
      "compat": 9153,
      "Ġdedu": 9154,
      "********": 9155,
      "recommended": 9156,
      "neighbor": 9157,
      "MARY": 9158,
      "Duration": 9159,
      "KEN": 9160,
      "Optional": 9161,
      "Trade": 9162,
      "[$": 9163,
      "eros": 9164,
      "Ġsex": 9165,
      "Ġ27": 9166,
      "ĠBlock": 9167,
      "ĠFou": 9168,
      "Ġsyntax": 9169,
      "ĠGod": 9170,
      "engine": 9171,
      "scroll": 9172,
      "Ġpresents": 9173,
      "Ġexplains": 9174,
      "Ġenvironmental": 9175,
      "ACK": 9176,
      "Ġbroker": 9177,
      "Ġpopulations": 9178,
      "TOKEN": 9179,
      "Ġnaturally": 9180,
      "ĠExpress": 9181,
      "Ġbudgets": 9182,
      "Ġinvariants": 9183,
      "Ġrefactored": 9184,
      "Ġresilience": 9185,
      "Ġinvasive": 9186,
      "Ġdocker": 9187,
      "\"])": 9188,
      "Five": 9189,
      "TI": 9190,
      "mix": 9191,
      "Ġreward": 9192,
      "images": 9193,
      "stat": 9194,
      "Ġstar": 9195,
      "quis": 9196,
      "ĠTier": 9197,
      "Ġranges": 9198,
      "Ġbeg": 9199,
      "Ġpatch": 9200,
      "Ġhandlers": 9201,
      "ĠConstruct": 9202,
      "Ġchooses": 9203,
      "Ġsky": 9204,
      "ĠOnce": 9205,
      "Ġcutoff": 9206,
      "Ġelevation": 9207,
      "Ġtells": 9208,
      "Ġdiscussion": 9209,
      "omorphism": 9210,
      "brand": 9211,
      "Ġintrac": 9212,
      "ĠÂ¬": 9213,
      "ĠDrug": 9214,
      "ORE": 9215,
      "Ġsb": 9216,
      "Ġpx": 9217,
      "Ġepoch": 9218,
      "olved": 9219,
      "oted": 9220,
      "reset": 9221,
      "Ġperipheral": 9222,
      "Ġparad": 9223,
      "eptic": 9224,
      "Ġsimilarity": 9225,
      "Ġ99": 9226,
      "Ġcomparing": 9227,
      "Ġpeak": 9228,
      "Ġexplaining": 9229,
      "Ġabsent": 9230,
      "Ġtenants": 9231,
      "Ġtemperatures": 9232,
      "Ġticket": 9233,
      "Ġhepat": 9234,
      "Ġmillion": 9235,
      "Ġstopping": 9236,
      "Ġplausible": 9237,
      "GER": 9238,
      "NN": 9239,
      "pressure": 9240,
      "sched": 9241,
      "Ġcyt": 9242,
      "Ġpin": 9243,
      "ectomy": 9244,
      "Ġ21": 9245,
      "Ġcompression": 9246,
      "ignore": 9247,
      "ublish": 9248,
      "Ġenum": 9249,
      "Ġoverview": 9250,
      "Ġdecline": 9251,
      "sha": 9252,
      "Ġmaybe": 9253,
[...]
