{"version": "1.0", "truncation": null, "padding": null, "added_tokens": [{"id": 0, "content": "<|endoftext|>", "single_word": false, "lstrip": false, "rstrip": false, "normalized": false, "special": true}, {"id": 1, "content": "<|pad|>", "single_word": false, "lstrip": false, "rstrip": false, "normalized": false, "special": true}, {"id": 2, "content": "<|bos|>", "single_word": false, "lstrip": false, "rstrip": false, "normalized": false, "special": true}, {"id": 50257, "content": "<|start|>", "single_word": false, "lstrip": false, "rstrip": false, "normalized": false, "special": true}, {"id": 50258, "content": "<|user|>", "single_word": false, "lstrip": false, "rstrip": false, "normalized": false, "special": true}, {"id": 50259, "content": "<|assistant|>", "single_word": false, "lstrip": false, "rstrip": false, "normalized": false, "special": true}, {"id": 50260, "content": "<|im_start|>", "single_word": false, "lstrip": false, "rstrip": false, "normalized": false, "special": true}, {"id": 50261, "content": "<|im_end|>", "single_word": false, "lstrip": false, "rstrip": false, "normalized": false, "special": true}], "normalizer": {"type": "NFKC"}, "pre_tokenizer": {"type": "ByteLevel", "add_prefix_space": false, "trim_offsets": true, "use_regex": true}, "post_processor": null, "decoder": {"type": "ByteLevel", "add_prefix_space": true, "trim_offsets": true, "use_regex": true}, "model": {"type": "BPE", "dropout": null, "unk_token": "<|endoftext|>", "continuing_subword_prefix": null, "end_of_word_suffix": null, "fuse_unk": false, "byte_fallback": false, "ignore_merges": false, "vocab": {"<|endoftext|>": 0, "<|pad|>": 1, "<|bos|>": 2, "!": 3, "\"": 4, "#": 5, "$": 6, "%": 7, "&": 8, "'": 9, "(": 10, ")": 11, "*": 12, "+": 13, ",": 14, "-": 15, ".": 16, "/": 17, "0": 18, "1": 19, "2": 20, "3": 21, "4": 22, "5": 23, "6": 24, "7": 25, "8": 26, "9": 27, ":": 28, ";": 29, "<": 30, "=": 31, ">": 32, "?": 33, "@": 34, "A": 35, "B": 36, "C": 37, "D": 38, "E": 39, "F": 40, "G": 41, "H": 42, "I": 43, "J": 44, "K": 45, "L": 46, "M": 47, "N": 48, "O": 49, "P": 50, "Q": 51, "R": 52, "S": 53, "T": 54, "U": 55, "V": 56, "W": 57, "X": 58, "Y": 59, "Z": 60, "[": 61, "\\": 62, "]": 63, "^": 64, "_": 65, "`": 66, "a": 67, "b": 68, "c": 69, "d": 70, "e": 71, "f": 72, "g": 73, "h": 74, "i": 75, "j": 76, "k": 77, "l": 78, "m": 79, "n": 80, "o": 81, "p": 82, "q": 83, "r": 84, "s": 85, "t": 86, "u": 87, "v": 88, "w": 89, "x": 90, "y": 91, "z": 92, "{": 93, "|": 94, "}": 95, "~": 96, "\u00a1": 97, "\u00a2": 98, "\u00a3": 99, "\u00a4": 100, "\u00a5": 101, "\u00a6": 102, "\u00a7": 103, "\u00a8": 104, "\u00a9": 105, "\u00aa": 106, "\u00ab": 107, "\u00ac": 108, "\u00ae": 109, "\u00af": 110, "\u00b0": 111, "\u00b1": 112, "\u00b2": 113, "\u00b3": 114, "\u00b4": 115, "\u00b5": 116, "\u00b6": 117, "\u00b7": 118, "\u00b8": 119, "\u00b9": 120, "\u00ba": 121, "\u00bb": 122, "\u00bc": 123, "\u00bd": 124, "\u00be": 125, "\u00bf": 126, "\u00c2": 127, "\u00c3": 128, "\u00c4": 129, "\u00c5": 130, "\u00c8": 131, "\u00c9": 132, "\u00ca": 133, "\u00cb": 134, "\u00cc": 135, "\u00ce": 136, "\u00cf": 137, "\u00d0": 138, "\u00d1": 139, "\u00d7": 140, "\u00d8": 141, "\u00d9": 142, "\u00da": 143, "\u00db": 144, "\u00e0": 145, "\u00e1": 146, "\u00e2": 147, "\u00e3": 148, "\u00e4": 149, "\u00e5": 150, "\u00e6": 151, "\u00e7": 152, "\u00e8": 153, "\u00e9": 154, "\u00ef": 155, "\u00f0": 156, "\u0101": 157, "\u0102": 158, "\u0106": 159, "\u0108": 160, "\u0109": 161, "\u010a": 162, "\u010c": 163, "\u0119": 164, "\u0120": 165, "\u0121": 166, "\u0122": 167, "\u0123": 168, "\u0124": 169, "\u0125": 170, "\u0126": 171, "\u0127": 172, "\u0128": 173, "\u0129": 174, "\u012a": 175, "\u012b": 176, "\u012c": 177, "\u012d": 178, "\u012e": 179, "\u012f": 180, "\u0130": 181, "\u0131": 182, "\u0132": 183, "\u0133": 184, "\u0134": 185, "\u0135": 186, "\u0136": 187, "\u0137": 188, "\u0138": 189, "\u0139": 190, "\u013a": 191, "\u013b": 192, "\u013c": 193, "\u013d": 194, "\u013e": 195, "\u013f": 196, "\u0140": 197, "\u0141": 198, "\u0142": 199, "\u0143": 200, "\u0120\u0120": 201, "in": 202, "\u0120t": 203, "\u0120a": 204, "er": 205, "on": 206, "re": 207, "at": 208, "en": 209, "\u0120\u0120\u0120\u0120": 210, "\u0120s": 211, "\u0120c": 212, "\u0120th": 213, "es": 214, "or": 215, "al": 216, "is": 217, "it": 218, "\u0120p": 219, "ion": 220, "ing": 221, "le": 222, "an": 223, "\u0120f": 224, "\u0120the": 225, "ro": 226, "\u0120m": 227, "\u0120\u0120\u0120": 228, "\u0120an": 229, "ed": 230, "\u0120w": 231, "ar": 232, "\u0120d": 233, "ic": 234, "\u0120b": 235, "ent": 236, "as": 237, "\u0120re": 238, "us": 239, "\u0120in": 240, "ct": 241, "\u0120o": 242, "\u0120e": 243, "--": 244, "\u0120and": 245, "ut": 246, "et": 247, "\u010a\u0120\u0120\u0120\u0120": 248, "im": 249, "st": 250, "\u0120to": 251, "id": 252, "\u0120n": 253, "om": 254, "lo": 255, "\u0120h": 256, "**": 257, "ation": 258, "ac": 259, "ou": 260, "\u010a\u0120\u0120\u0120": 261, "el": 262, "\u0120st": 263, "il": 264, "\u0120=": 265, "if": 266, "\u0120con": 267, "\u0120is": 268, "ig": 269, "iv": 270, "ol": 271, "\u0120(": 272, "\u0120of": 273, "ate": 274, "qu": 275, "ra": 276, "he": 277, "\u0120for": 278, "\u0120l": 279, "ly": 280, "ep": 281, "ul": 282, "ot": 283, "\u0120I": 284, "un": 285, "\u0120\\": 286, "ur": 287, "\u0120v": 288, "am": 289, "od": 290, "ith": 291, "ist": 292, "\u00e2\u0122": 293, "\u0120T": 294, "ment": 295, "|>": 296, "<|": 297, "\u0120pro": 298, "ce": 299, "\u010a\u0120\u0120\u0120\u0120\u0120\u0120\u0120": 300, "ad": 301, "ter": 302, "ec": 303, "pp": 304, "\u0120with": 305, "\u0120ex": 306, "ab": 307, "\u0120g": 308, "est": 309, "end": 310, "th": 311, "ge": 312, "\u0120A": 313, "ver": 314, "ect": 315, "um": 316, "``": 317, "----": 318, "ity": 319, "\u010a\u0120\u0120\u0120\u0120\u0120\u0120\u0120\u0120": 320, "\u010a\u0120": 321, "ow": 322, "ant": 323, "res": 324, "em": 325, "\u0120wh": 326, "\u0120on": 327, "\u0120`": 328, "\u01201": 329, "\u0120S": 330, "\u0120C": 331, "\u0120r": 332, "\u0120{": 333, "ch": 334, "\u0120-": 335, "ain": 336, "pl": 337, "ple": 338, "\u0120com": 339, "se": 340, "ass": 341, "\u0120or": 342, "pt": 343, "ess": 344, "ke": 345, "ers": 346, "ive": 347, "ex": 348, "ort": 349, "\u0120al": 350, "igh": 351, "##": 352, "ef": 353, "ri": 354, "\u0120\"": 355, "\u0120as": 356, "iz": 357, "\u0120that": 358, "ay": 359, "\u0120us": 360, "ir": 361, "ts": 362, "\u0120it": 363, "ve": 364, "\u0120P": 365, "rom": 366, "ore": 367, "ions": 368, "\u0120this": 369, "\u0120ne": 370, "os": 371, "and": 372, "ure": 373, ");": 374, "\u0120\\(": 375, "ine": 376, "\u0120}": 377, "ue": 378, "ical": 379, "\u0120**": 380, "ach": 381, "ies": 382, "\u0120lo": 383, "\u0120sh": 384, "\u0120be": 385, "\u0120if": 386, "\u0120me": 387, "\u0120R": 388, "\u0120su": 389, "ld": 390, "\\)": 391, "ath": 392, "oun": 393, "\u0120are": 394, "\u0120y": 395, "\u0120The": 396, "St": 397, "ial": 398, "\u0120im": 399, "ire": 400, "ap": 401, "\u01202": 402, "able": 403, "out": 404, "\u0120tr": 405, "cl": 406, "age": 407, "ck": 408, "\u0120D": 409, "\u01200": 410, "\u0120by": 411, "\u0120from": 412, "\u010a\u0120\u0120\u0120\u0120\u0120\u0120\u0120\u0120\u0120\u0120\u0120": 413, "ust": 414, "\u0120app": 415, "\u0120+": 416, "per": 417, "ction": 418, "fer": 419, "\u0120le": 420, "art": 421, "\u0120E": 422, "```": 423, "\u0120[": 424, "user": 425, "\u0120un": 426, "\u0120<": 427, "ight": 428, "ould": 429, "wer": 430, "\u0120ch": 431, "ud": 432, "ence": 433, "\u0120int": 434, "\u0120B": 435, "up": 436, "ag": 437, "\u0120can": 438, "\u0120str": 439, "ib": 440, "act": 441, "ere": 442, "\u0120at": 443, "ack": 444, "\u0120cont": 445, "der": 446, "ard": 447, "ult": 448, "are": 449, "\u0120qu": 450, "ase": 451, "\u0120cl": 452, "--------": 453, "istant": 454, "\u0120requ": 455, "ext": 456, "ink": 457, "ug": 458, "\u0120res": 459, "int": 460, "\u0120F": 461, "assistant": 462, "inal": 463, "\u0120not": 464, "\u010a\u0120\u0120\u0120\u0120\u0120": 465, "\u0120M": 466, "ime": 467, "yp": 468, "\u0120'": 469, "orm": 470, "\u0120N": 471, "port": 472, "ork": 473, "ode": 474, "du": 475, "cc": 476, "ile": 477, "\u0120cons": 478, "ens": 479, "urn": 480, ").": 481, "swer": 482, "\u0120comp": 483, "op": 484, "\u0120ad": 485, "ient": 486, "\u0120you": 487, "ost": 488, "\u0120ret": 489, "00": 490, "all": 491, "\u0120\u0120\u0120\u0120\u0120\u0120\u0120\u0120": 492, "\u00e2\u0122\u013b": 493, "\u0120H": 494, "\u0120we": 495, "enc": 496, "ys": 497, "ff": 498, "Step": 499, "ments": 500, "ated": 501, "ign": 502, "\u0120/": 503, "ations": 504, "\u0120ro": 505, "ame": 506, "\u0120const": 507, "..": 508, "ind": 509, "\u0120ma": 510, "ata": 511, "ail": 512, "\u0120sc": 513, "oc": 514, "\u0120answer": 515, "Let": 516, "()": 517, "ress": 518, "\u0120se": 519, "\",": 520, "\u0120ev": 521, "ans": 522, "Th": 523, "\u010a\u010a\u0120\u0120\u0120": 524, "low": 525, "ize": 526, "\u0120need": 527, "av": 528, "ous": 529, "\u0120ab": 530, "\u01203": 531, "\u0120appro": 532, "ide": 533, "\u0120O": 534, "\u0120return": 535, "\u0120sp": 536, "\u0120\u00e2\u0122": 537, "=\"": 538, "\u0120val": 539, "con": 540, "ice": 541, "\u0120pre": 542, "ser": 543, "aus": 544, "\u0120sy": 545, "ider": 546, "),": 547, "The": 548, "ll": 549, "ew": 550, "iffer": 551, ":**": 552, "\u0120ar": 553, "ason": 554, "\u0120sol": 555, "ance": 556, "ary": 557, "\u0120*": 558, "\u0120W": 559, "ph": 560, "\u0120pr": 561, "\u0120ke": 562, "ution": 563, "\u0120L": 564, "ok": 565, "\u010a\u0120\u0120": 566, "ill": 567, "ble": 568, "com": 569, "elf": 570, "---": 571, "\u0120sim": 572, "put": 573, "ility": 574, "str": 575, "ugh": 576, "\u0120pl": 577, "ast": 578, "ates": 579, "ify": 580, "ory": 581, "Final": 582, "\u0120but": 583, "\u0120require": 584, "rough": 585, "eg": 586, "ject": 587, "rit": 588, "\u0120Th": 589, "ip": 590, "\u0120differ": 591, "\u0120G": 592, "\u0120acc": 593, "clud": 594, "\u00e2\u0122\u013f": 595, "ace": 596, "ang": 597, "ds": 598, "\u0120work": 599, "ub": 600, "ari": 601, "nt": 602, "###": 603, "our": 604, "\u0120met": 605, "\u0120dis": 606, "\u0120k": 607, "\u0120U": 608, "\u0120mod": 609, "\u0120fun": 610, "\u0120out": 611, "\u0120\u00e2\u0122\u013e": 612, "ev": 613, "ause": 614, "\u01205": 615, "ors": 616, "\u0120en": 617, "uct": 618, "\u0120j": 619, "\u0120def": 620, "\u01204": 621, "\u0120step": 622, "one": 623, "form": 624, "log": 625, "rad": 626, "\u00e2\u0136": 627, "ong": 628, "\u0120all": 629, "\u0120through": 630, "\u0120per": 631, "pro": 632, "\u0120consider": 633, "\u0120exp": 634, "\u0120approach": 635, "arg": 636, "stem": 637, "\u0120|": 638, "\u0120In": 639, "\u0120should": 640, "\u0120li": 641, "og": 642, "val": 643, "\u0120inter": 644, "ype": 645, "ition": 646, "ms": 647, "ict": 648, "\u0120bec": 649, "\u0120has": 650, "\u0120time": 651, "ely": 652, "ints": 653, "fter": 654, "ific": 655, "(\"": 656, "\u0120mat": 657, "\u0120different": 658, "\u0120\u0120\u0120\u0120\u0120\u0120\u0120": 659, "\u0120about": 660, "ma": 661, "ics": 662, "ount": 663, "ample": 664, "\u0120he": 665, "ry": 666, "ases": 667, "te": 668, "\u0120test": 669, "fr": 670, "pon": 671, "\u0120data": 672, "ia": 673, "\u0120up": 674, "ual": 675, "\u0120do": 676, "\u0120solution": 677, "\u0120what": 678, "This": 679, "_{": 680, "ak": 681, "</": 682, "ption": 683, "\u0120ha": 684, "\\[": 685, "oth": 686, "\\]": 687, "\u0120proble": 688, "Con": 689, "ery": 690, "\u0120reason": 691, "\u0120id": 692, "ell": 693, "ror": 694, "\u0120class": 695, "ents": 696, "\u0120key": 697, "\u0120#": 698, "\u0120comple": 699, "ative": 700, "ft": 701, "\u0120pat": 702, "\u0120set": 703, "\u0120using": 704, "}{": 705, "\u0120so": 706, "\u0120$": 707, "frac": 708, "heck": 709, "les": 710, "\u0120add": 711, "own": 712, "irst": 713, "In": 714, "nal": 715, "so": 716, "'s": 717, "\u0120x": 718, "ild": 719, "ased": 720, "hat": 721, "ram": 722, "ener": 723, "ability": 724, "To": 725, "ities": 726, "\u0120man": 727, "ss": 728, "ich": 729, "\u0120St": 730, "\u0120system": 731, "\u0120into": 732, "\":": 733, "ord": 734, "\u0120ser": 735, "\u0120ob": 736, "\u0120includ": 737, "\u0120new": 738, "cre": 739, "yth": 740, "\u0120trans": 741, "----------------": 742, "\u010a\u0120\u0120\u0120\u0120\u0120\u0120\u0120\u0120\u0120\u0120\u0120\u0120\u0120\u0120\u0120": 743, "\")": 744, "\u0120self": 745, "cal": 746, "\u0120anal": 747, "\u0120des": 748, "\u0120pos": 749, "plement": 750, "\u0120think": 751, "\u0120because": 752, "plic": 753, "\u0120function": 754, "vel": 755, "ating": 756, "\u0120each": 757, "\u0120dep": 758, "text": 759, "\u0120how": 760, "po": 761, "bo": 762, "ically": 763, "tain": 764, "\u0120col": 765, "ese": 766, "\u0120log": 767, "sum": 768, "\u0120over": 769, "ysis": 770, "to": 771, "\u0120rel": 772, "\u0120em": 773, "sp": 774, "cri": 775, "yn": 776, "\u0120one": 777, "\u0120like": 778, "`,": 779, "urre": 780, "\u0120par": 781, "\u0120de": 782, "\u0120rec": 783, "ute": 784, "isk": 785, "oid": 786, "],": 787, "**:": 788, "\u0120Ex": 789, "...": 790, "think": 791, "\u0120&": 792, "ept": 793, "\u0120use": 794, "\u0120cre": 795, "over": 796, "umb": 797, "ives": 798, "\u0120when": 799, "ash": 800, "\u0120path": 801, "idence": 802, "\u0120sub": 803, "ency": 804, "efore": 805, "\u0120cases": 806, "plain": 807, "lock": 808, "\u0120state": 809, "\u0120fe": 810, "^{": 811, "mat": 812, "\u0120ind": 813, "\u0120ele": 814, "app": 815, "we": 816, "\u0120have": 817, "\u0120conf": 818, "ible": 819, "\u0120V": 820, "ome": 821, "\u0120quest": 822, "\u0120po": 823, "ree": 824, "row": 825, "):": 826, "\u0120det": 827, "\u0120cor": 828, "\u0120hand": 829, "\u0120//": 830, "\u0120bu": 831, "\u0120ph": 832, "ound": 833, "imit": 834, "',": 835, "\u0120Con": 836, "ures": 837, "\u00e2\u0136\u0122": 838, "\u0120no": 839, "iew": 840, "\u0120comm": 841, "cess": 842, "\u0120prov": 843, "ise": 844, "get": 845, "read": 846, "\u0120check": 847, "\u0120dec": 848, "\u0120min": 849, "set": 850, "\u0120start": 851, "\u0120let": 852, "af": 853, "\u0120er": 854, "\u01206": 855, "\u0120J": 856, "\u0120vari": 857, "\u0120while": 858, "\u0120ag": 859, "\u0120rem": 860, "ract": 861, "\u0120bet": 862, "lic": 863, "ther": 864, "ange": 865, "\u0120high": 866, "\u0120which": 867, "\u0120mult": 868, "\u0120real": 869, "\u0120ed": 870, "\u0120inf": 871, "\u0120dist": 872, "ten": 873, "\u0120->": 874, "ection": 875, "\u0120model": 876, "erm": 877, "ull": 878, "hod": 879, "\u0120produ": 880, "\u0120only": 881, "\u0120user": 882, "vent": 883, "\u0120constra": 884, "\u0120more": 885, "ix": 886, "pect": 887, "ument": 888, "\u0120these": 889, "\u0120would": 890, "io": 891, "\u0120eff": 892, "import": 893, "ite": 894, "\u0120first": 895, "ython": 896, "name": 897, "\u0120code": 898, "atic": 899, "$$": 900, "ues": 901, "\u0120aut": 902, "\u0120also": 903, "ark": 904, "\u0120struct": 905, "of": 906, "ilar": 907, "reat": 908, "\u0120If": 909, "ular": 910, "usion": 911, "\u0120valid": 912, "\u0120gener": 913, "ateg": 914, "ays": 915, "\u0120equ": 916, "old": 917, "ces": 918, "\u0120supp": 919, "\u0120ever": 920, "ps": 921, "Re": 922, "].": 923, "und": 924, "\u0120\u00e2": 925, "\u00e2\u0122\u0132": 926, "\u0120show": 927, "urrent": 928, "__": 929, "math": 930, "tern": 931, "\u0120tw": 932, "\u010a\u0120\u0120\u0120\u0120\u0120\u0120\u0120\u0120\u0120\u0120\u0120\u0120\u0120\u0120\u0120\u0120": 933, "\u0120they": 934, "ask": 935, "\u0120act": 936, "\u0120requirements": 937, "ential": 938, "::": 939, "\u0120similar": 940, "\u0120method": 941, "ization": 942, "\">": 943, "\u0120numb": 944, "\u0120==": 945, "\u0120constraints": 946, "ced": 947, "js": 948, "\u0120risk": 949, "gh": 950, "\u0120run": 951, "\u0120\\(\\": 952, "\u0120reg": 953, "ose": 954, "\u0120form": 955, "pos": 956, "\u01208": 957, "\u0120case": 958, "\u0120multi": 959, "comm": 960, "PI": 961, "\u0120mak": 962, "ings": 963, "\u0120el": 964, "}\\": 965, "\u0120av": 966, "ough": 967, "\u0120main": 968, "line": 969, "sh": 970, "\u0120patient": 971, "\u0120problem": 972, "\u0120complex": 973, "ake": 974, "tr": 975, "\u0120sec": 976, "ness": 977, "\u0120corre": 978, "iel": 979, "\u0120implement": 980, "ful": 981, "def": 982, "ob": 983, "eng": 984, "ized": 985, "\u0120:": 986, "\u0120import": 987, "'ll": 988, "iss": 989, "\u0120opt": 990, "add": 991, "\u0120than": 992, "load": 993, "lect": 994, "\u0120true": 995, "\u0120under": 996, "\u0120your": 997, "led": 998, "\u0120may": 999, "irect": 1000, "\u0120Pro": 1001, "\u0120most": 1002, "ick": 1003, "\u0120go": 1004, "\u0120two": 1005, "\u01207": 1006, "rem": 1007, "\u0120other": 1008, "\\),": 1009, "\u0120K": 1010, "\u0120conc": 1011, "\u0120must": 1012, "ator": 1013, "\u0120redu": 1014, "\u0120>": 1015, "\u0120fail": 1016, "her": 1017, "\u0120respon": 1018, "\u0120\u010a": 1019, "ci": 1020, "\u0120back": 1021, "\u0120then": 1022, "\u0120ident": 1023, "Ex": 1024, "\u0120co": 1025, "\u0120its": 1026, "ish": 1027, "rol": 1028, "ling": 1029, "))": 1030, "\u012010": 1031, "\u0120spec": 1032, "Id": 1033, "\u0120integ": 1034, "vice": 1035, "\u0120hel": 1036, "its": 1037, "\u0120kn": 1038, "\u0120pers": 1039, "\u0120value": 1040, "ples": 1041, "`.": 1042, "\\).": 1043, "rib": 1044, "for": 1045, "\u010a\u010a\u0120\u0120\u0120\u0120\u0120\u0120\u0120": 1046, "\u0120will": 1047, "\u0120part": 1048, "ices": 1049, "time": 1050, "\u0120fol": 1051, "\"\"": 1052, "\u0120here": 1053, "\u0120=>": 1054, "\u0120sm": 1055, "ER": 1056, "\u0120di": 1057, "\u0120include": 1058, "\u0120query": 1059, "ne": 1060, "\u0120line": 1061, "atus": 1062, "clusion": 1063, "=\\": 1064, "\u0120makes": 1065, "\u0120limit": 1066, "ule": 1067, "\u0120i": 1068, "\u0120ver": 1069, "\u010a\u010a\u0120": 1070, "raph": 1071, "rite": 1072, "\u0120support": 1073, "\u0120.": 1074, "tt": 1075, "\u0120non": 1076, "\u0120read": 1077, "\u0120such": 1078, "ove": 1079, "path": 1080, "als": 1081, "eta": 1082, "\u0120inv": 1083, "\u010a\u0120\u0120\u0120\u0120\u0120\u0120\u0120\u0120\u0120": 1084, "\u0120evidence": 1085, "After": 1086, "\u0120type": 1087, "order": 1088, "\u0120address": 1089, "\u0120inst": 1090, "\u0120cle": 1091, "\u0120--": 1092, "ally": 1093, "\u0120pol": 1094, "\u0120ac": 1095, "ech": 1096, "erg": 1097, "off": 1098, "\u0120follow": 1099, "\u0120correct": 1100, "\u0120u": 1101, "\u0120exper": 1102, "\u0120sever": 1103, "\u0120bo": 1104, "\u0120arg": 1105, "\u0120proper": 1106, "pre": 1107, "\u0120It": 1108, "\u0120number": 1109, "\u0120where": 1110, "que": 1111, "('": 1112, "\u0120them": 1113, "\u0120fl": 1114, "();": 1115, "\u00e2\u0136\u0122\u00e2\u0136\u0122": 1116, "\u0120want": 1117, "ustom": 1118, "itive": 1119, "\u0120prog": 1120, "\u0120This": 1121, "\u0120ext": 1122, ".,": 1123, "ault": 1124, "\u0120end": 1125, "ages": 1126, "\u0120any": 1127, "\u0120For": 1128, "\u0120Com": 1129, "\u01209": 1130, "\u0120</": 1131, "\u0120example": 1132, "\u0120approaches": 1133, "'m": 1134, "\u0120analysis": 1135, "alse": 1136, "round": 1137, "\u0120object": 1138, "\u0120edge": 1139, "ear": 1140, "pr": 1141, "ved": 1142, "\u0120ent": 1143, "\u0120assum": 1144, "\u0120tra": 1145, "\u0120care": 1146, "ism": 1147, "imes": 1148, "\u0120request": 1149, "\u0120ins": 1150, "\u0120questions": 1151, "ource": 1152, "\u0120vers": 1153, "ounts": 1154, "\u0120reasoning": 1155, "ier": 1156, "ves": 1157, "\u0120could": 1158, "\u0120ref": 1159, "\u0120process": 1160, "ality": 1161, "\u0120does": 1162, "rid": 1163, "\u0120get": 1164, "sc": 1165, "\u0120required": 1166, "\u0120Y": 1167, "\u0120oper": 1168, "ond": 1169, "\u0120plan": 1170, "\u0120saf": 1171, "col": 1172, "div": 1173, "\u0120pres": 1174, "\u0120strateg": 1175, "ior": 1176, "\u0120sign": 1177, "\u0120ra": 1178, "los": 1179, "\u0120treat": 1180, "roup": 1181, "min": 1182, "dd": 1183, "\u0120after": 1184, "ross": 1185, "back": 1186, "ining": 1187, "\u0120just": 1188, "ning": 1189, "\u0120why": 1190, "\u0120there": 1191, "ead": 1192, "\u0120without": 1193, "\u0120An": 1194, "xim": 1195, "ween": 1196, "\u0120make": 1197, "\u0120rep": 1198, "\u0120design": 1199, "\u0120every": 1200, "met": 1201, "\u00e2\u0122\u0135": 1202, "==": 1203, "ied": 1204, "ron": 1205, "ait": 1206, "\u0120depend": 1207, "ected": 1208, "ton": 1209, "ists": 1210, "\u0120my": 1211, "\u0120fil": 1212, "ormal": 1213, "\u0120both": 1214, "arget": 1215, "\u0120mon": 1216, "ength": 1217, "itions": 1218, "\u0120sat": 1219, "ync": 1220, "\u0120problems": 1221, "(\\": 1222, "reak": 1223, "\u0120poss": 1224, "\u0120effect": 1225, "ook": 1226, "edi": 1227, "Pro": 1228, "ature": 1229, "ables": 1230, "atch": 1231, "self": 1232, "iven": 1233, "What": 1234, "gg": 1235, "\u0120proof": 1236, "\u0120contin": 1237, "commend": 1238, "//": 1239, "dict": 1240, "\u0120bas": 1241, "requ": 1242, "';": 1243, "rade": 1244, "\u0120same": 1245, "\u0120some": 1246, "olds": 1247, "ration": 1248, "->": 1249, "ward": 1250, "cept": 1251, "itial": 1252, "ters": 1253, "\u0120direct": 1254, "\u0120help": 1255, "\u0120print": 1256, "\u0120dem": 1257, "\u0120before": 1258, "\u0120between": 1259, "andard": 1260, "par": 1261, "eline": 1262, "\u0120sum": 1263, "\u0120error": 1264, "lam": 1265, "cle": 1266, ",\\": 1267, "\u0120result": 1268, "not": 1269, "py": 1270, "ences": 1271, "ines": 1272, "ting": 1273, "ody": 1274, "\u0120right": 1275, "uth": 1276, "\u0120dr": 1277, "ulation": 1278, "\u0120ens": 1279, "\u0120create": 1280, "\u0120string": 1281, "\u0120beh": 1282, "Anal": 1283, "date": 1284, "\u010a\u010a": 1285, "mathb": 1286, "ield": 1287, "ST": 1288, "\u0120z": 1289, "\u0120long": 1290, "\u0120input": 1291, "\u0120lead": 1292, "\u0120order": 1293, "\u0120multiple": 1294, "ification": 1295, "ring": 1296, "essage": 1297, "\u0120att": 1298, "\u0120control": 1299, "wn": 1300, "cript": 1301, "\u0120exam": 1302, "\u0120structure": 1303, "ON": 1304, "\u0120der": 1305, "ination": 1306, "\u0120ask": 1307, "ty": 1308, "uring": 1309, "umn": 1310, "\u0120gu": 1311, "rics": 1312, "\u0120mem": 1313, "\u0120local": 1314, "\u0120fact": 1315, "ational": 1316, "imal": 1317, "ingle": 1318, "\u0120often": 1319, "ides": 1320, "\u0120build": 1321, "\u0120recommend": 1322, "ctions": 1323, "size": 1324, "}.": 1325, "px": 1326, "ains": 1327, "rror": 1328, "\u0120complexity": 1329, "cer": 1330, "mpt": 1331, "\u0120chang": 1332, ".**": 1333, "\u0120cal": 1334, "ems": 1335, "\u0120incre": 1336, "fig": 1337, "\u0120App": 1338, "ins": 1339, "RE": 1340, ">**": 1341, "\u0120small": 1342, "\u00e2\u0122\u0136": 1343, "term": 1344, "\u0120handling": 1345, "right": 1346, "\u0120fram": 1347, ")\\": 1348, "\u0120look": 1349, "ires": 1350, "\u0120text": 1351, "\u0120del": 1352, "\u0120simple": 1353, "esign": 1354, "value": 1355, "\u0120ant": 1356, "\u0120size": 1357, "ache": 1358, "const": 1359, "ream": 1360, "\u0120file": 1361, "\u0120compar": 1362, "\u0120...": 1363, "ety": 1364, "\u0120Re": 1365, "\u0120API": 1366, "isf": 1367, "vers": 1368, "LE": 1369, "\u0120keep": 1370, "\u0120elements": 1371, "type": 1372, "\u0120typ": 1373, ")=": 1374, "\u0120event": 1375, "If": 1376, "head": 1377, "For": 1378, "tal": 1379, "\u0120current": 1380, "\u0120How": 1381, "ta": 1382, "IN": 1383, "ublic": 1384, "\u0120many": 1385, "ilities": 1386, "erefore": 1387, "\u0120\u00e2\u0128": 1388, "view": 1389, "based": 1390, "urs": 1391, "ocus": 1392, "abel": 1393, "\u0120response": 1394, "\u0120satisf": 1395, "\u0120sur": 1396, "ibility": 1397, "\u0120pattern": 1398, "ually": 1399, "rc": 1400, "\u0120their": 1401, "\u0120imm": 1402, "da": 1403, "\u0120te": 1404, "from": 1405, "\u0120compon": 1406, "mod": 1407, "\u0120enc": 1408, "oring": 1409, "\u0120again": 1410, "\u0120implementation": 1411, "\u0120name": 1412, "\u0120*/": 1413, "istic": 1414, "\u0120output": 1415, "\u0120list": 1416, "\u0120clear": 1417, "\u0120know": 1418, "pen": 1419, "\u0120exact": 1420, "rior": 1421, "\u0120values": 1422, "yt": 1423, "\u0120cho": 1424, "\u0120None": 1425, "'ve": 1426, "just": 1427, "ern": 1428, "utes": 1429, "plan": 1430, "olog": 1431, "indow": 1432, "ique": 1433, "plicit": 1434, "\u0120treatment": 1435, "\u0120ass": 1436, "12": 1437, "\u0120syn": 1438, "10": 1439, "So": 1440, "\u0120down": 1441, "\u0120block": 1442, "onstr": 1443, "\u0120standard": 1444, "agn": 1445, "Reason": 1446, "ined": 1447, "\u0120)": 1448, "left": 1449, "fun": 1450, "\u0120single": 1451, "dot": 1452, "\u0120tem": 1453, "pare": 1454, "ults": 1455, "\u0120low": 1456, "000": 1457, "key": 1458, "ince": 1459, "\u0120\u00e2\u0128\u0134": 1460, "\u0120crit": 1461, "\u0120core": 1462, "\u0120lat": 1463, "\u0120behav": 1464, "\u0120What": 1465, "\u0120avoid": 1466, "\u0120Use": 1467, "\u0120holds": 1468, "\u0120mean": 1469, "ole": 1470, "\u0120Wh": 1471, "\u0120cond": 1472, "chi": 1473, "data": 1474, "Conclusion": 1475, "duct": 1476, "\u0120head": 1477, "Reasoning": 1478, "\u0120am": 1479, "ving": 1480, "aving": 1481, "ey": 1482, "cket": 1483, "\u0120accounts": 1484, "\u0120Python": 1485, "acy": 1486, "\u0120mark": 1487, "ript": 1488, "Analysis": 1489, "air": 1490, "cul": 1491, "\u0120clar": 1492, "Error": 1493, "\u0120bound": 1494, "red": 1495, "ision": 1496, "\u0120doc": 1497, "lex": 1498, "\u0120question": 1499, "SS": 1500, "resh": 1501, "\u0120row": 1502, "ptional": 1503, "\u0120own": 1504, "\u0120might": 1505, "\u0120prin": 1506, "\u0120careful": 1507, "wh": 1508, "clude": 1509, "icy": 1510, "\u0120product": 1511, "be": 1512, "ner": 1513, "ever": 1514, "loy": 1515, "\u0120rate": 1516, "\u0120char": 1517, "part": 1518, "reate": 1519, "\u0120script": 1520, "apt": 1521, "\u0120cap": 1522, "\u0120total": 1523, "ric": 1524, "\u0120impro": 1525, "\u0120was": 1526, "\u0120even": 1527, "\u0120config": 1528, "\u0120find": 1529, "\u0120custom": 1530, "\u0120node": 1531, "\u0120wor": 1532, "\u0120tok": 1533, "\u0120level": 1534, "work": 1535, "\u0120try": 1536, "\u0120Explain": 1537, "\u0120pass": 1538, "\u0120store": 1539, "andom": 1540, "AT": 1541, "ptions": 1542, "ights": 1543, "\u0120deriv": 1544, "ren": 1545, "bda": 1546, "\u0120space": 1547, "aw": 1548, "ccess": 1549, "\u0120trade": 1550, "class": 1551, "\u0120!": 1552, "Based": 1553, "vir": 1554, "\u0120break": 1555, "\u0120demonstr": 1556, "reg": 1557, "\u0120less": 1558, "\u0120Q": 1559, "other": 1560, "\u010a\u0120\u0120\u0120\u0120\u0120\u0120\u0120\u0120\u0120\u0120\u0120\u0120\u0120\u0120\u0120\u0120\u0120\u0120\u0120": 1561, "sy": 1562, "osis": 1563, "gor": 1564, "\u0120predict": 1565, "pi": 1566, "enari": 1567, "\u0120\u0120\u0120\u0120\u0120": 1568, "gorith": 1569, "ran": 1570, "\u0120},": 1571, "\u0120requires": 1572, "--------------------------------": 1573, "\u0120else": 1574, "ral": 1575, "\u0120match": 1576, "\u0120sit": 1577, "\u0120against": 1578, "hemat": 1579, "\u0120tim": 1580, "-\\": 1581, "ests": 1582, "\u0120failure": 1583, "yle": 1584, "ules": 1585, "\u0120aw": 1586, "\u0120dom": 1587, "\u0120tool": 1588, "\u0120strong": 1589, "\u0120via": 1590, "ounter": 1591, "\u0120change": 1592, "ience": 1593, "\u0120shows": 1594, "\u0120several": 1595, "\u0120count": 1596, "ging": 1597, "\u0120changes": 1598, ".</": 1599, "spec": 1600, "play": 1601, "\u0120rig": 1602, "\u0120disc": 1603, "\u0120explicit": 1604, "epend": 1605, "bu": 1606, "\u0120princi": 1607, "\u0120focus": 1608, "\u0120lif": 1609, "ression": 1610, "arge": 1611, "\u0120X": 1612, "ush": 1613, "\u0120target": 1614, "\u0120En": 1615, "\u0120clin": 1616, "angle": 1617, "\u0120hy": 1618, "\u0120unique": 1619, "idd": 1620, "itle": 1621, "ether": 1622, "\u0120methods": 1623, "string": 1624, "pha": 1625, "Design": 1626, "file": 1627, "ru": 1628, "serv": 1629, "\u0120behavior": 1630, "uration": 1631, "\u0120vs": 1632, "\u0120prot": 1633, "\u0120sugg": 1634, "ework": 1635, "\u0120statement": 1636, "\u0120imp": 1637, "\u0120allow": 1638, "cont": 1639, "icient": 1640, "\u0120_": 1641, "ray": 1642, "\u0120short": 1643, "esp": 1644, "\u0120track": 1645, "mplement": 1646, "ately": 1647, "ote": 1648, "\u0120full": 1649, "ease": 1650, "\u0120conn": 1651, "},": 1652, "\u0120\u00e2\u0136": 1653, "\u0120err": 1654, "\u0120initial": 1655, "sider": 1656, "\u0120identify": 1657, "miss": 1658, "ather": 1659, "\u0120phys": 1660, "arch": 1661, "box": 1662, "ret": 1663, "radi": 1664, "loc": 1665, "li": 1666, "Com": 1667, "\u0120med": 1668, "ruct": 1669, "\u0120scal": 1670, "\u0120manage": 1671, "\u0120achi": 1672, "\u0120pe": 1673, "ared": 1674, "\u0120mathemat": 1675, "quad": 1676, "\u0120access": 1677, "\u0120version": 1678, "atures": 1679, "ailable": 1680, "OR": 1681, "rate": 1682, "\u0120view": 1683, "\u0120\"\"\"": 1684, "ural": 1685, "\u0120:=": 1686, "\u0120explain": 1687, "\u0120algorith": 1688, "viron": 1689, "ental": 1690, "jor": 1691, "\u0120group": 1692, "oph": 1693, "hem": 1694, "\u0120\\)": 1695, "\u0120call": 1696, "\u0120Tr": 1697, "\u0120meas": 1698, "\u0120tri": 1699, "\u0120pract": 1700, "\u0120default": 1701, "board": 1702, "\u0120disease": 1703, "ified": 1704, "ons": 1705, "\u0120situ": 1706, "\u0120bal": 1707, "istent": 1708, "\u0120perspect": 1709, "\u0120rigor": 1710, "ont": 1711, "json": 1712, "\u0120cost": 1713, "\u0120safety": 1714, "ian": 1715, "level": 1716, "ension": 1717, "tc": 1718, "\u012012": 1719, "\u0120metrics": 1720, "\u0120final": 1721, "ivity": 1722, "\u0120following": 1723, "ious": 1724, "\u0120sequ": 1725, "You": 1726, "ention": 1727, "\u0120uses": 1728, "\u0120dat": 1729, "ert": 1730, "ower": 1731, "ttp": 1732, "\u0120explan": 1733, ")`": 1734, "cy": 1735, "ger": 1736, "{\\": 1737, "\u0120\u0120\u010a\u0120\u0120": 1738, "An": 1739, "\u0120rigorous": 1740, "\u0120normal": 1741, "\u0120lay": 1742, "\u0120hyp": 1743, "\u0120load": 1744, "ax": 1745, "ml": 1746, "enef": 1747, "lambda": 1748, "\u0120prior": 1749, "QL": 1750, "rix": 1751, "ially": 1752, "\u0120status": 1753, "\u0120account": 1754, "\u0120point": 1755, "\u0120false": 1756, "\u0120exist": 1757, "sq": 1758, "izing": 1759, "map": 1760, "\u0120distrib": 1761, "\u0120continu": 1762, "mathbb": 1763, "SE": 1764, "ense": 1765, "iver": 1766, "acity": 1767, "\u0120rob": 1768, "\u0120verify": 1769, "\u0120framework": 1770, "We": 1771, "mu": 1772, "\u0120task": 1773, "idth": 1774, "struct": 1775, "ume": 1776, "Ser": 1777, "\u0120way": 1778, "\u0120We": 1779, "ero": 1780, "ffer": 1781, "velo": 1782, "\u0120better": 1783, "\u0120inc": 1784, "rt": 1785, "\u0120Ch": 1786, "\u0120variables": 1787, "App": 1788, "\u0120hist": 1789, "\u0120next": 1790, "lob": 1791, "\u0120off": 1792, "odes": 1793, "\u0120sort": 1794, "ily": 1795, "stand": 1796, "\u0120priv": 1797, "\u0120strategies": 1798, "Tr": 1799, "python": 1800, "\u0120satisfies": 1801, "but": 1802, "\u0120caus": 1803, "\u0120dev": 1804, "ication": 1805, "\u0120provide": 1806, "etch": 1807, "\u0120index": 1808, "epar": 1809, "word": 1810, "plate": 1811, "flow": 1812, "ets": 1813, "\u0120arr": 1814, "\u0120map": 1815, "ening": 1816, "hema": 1817, "25": 1818, "\u0120whether": 1819, "sub": 1820, "let": 1821, "ired": 1822, "\u0120specific": 1823, "\u0120worked": 1824, "omet": 1825, "\u0120well": 1826, "\u0120tests": 1827, "\u0120important": 1828, "\u0120cent": 1829, "valid": 1830, "\u0120scenari": 1831, "\u0120post": 1832, "\u0120pip": 1833, "roll": 1834, "\u0120mathematical": 1835, "ave": 1836, "lish": 1837, "ynam": 1838, "use": 1839, "\u0120ide": 1840, "\u0120working": 1841, "\u0120action": 1842, "alpha": 1843, "max": 1844, "\u012020": 1845, "alu": 1846, "\u010a\u0109": 1847, "olve": 1848, "count": 1849, "iction": 1850, "\u0120ur": 1851, "Key": 1852, "eed": 1853, "\u0120considered": 1854, "ek": 1855, "\u0120lik": 1856, "\u0120memory": 1857, "\u0120achiev": 1858, "\u0120still": 1859, "\u0120rele": 1860, "EN": 1861, "TP": 1862, "pri": 1863, "\u0120ang": 1864, "\u0120major": 1865, "\u0120across": 1866, "\u0120top": 1867, "ooking": 1868, "\u0120steps": 1869, "\u0120second": 1870, "\u0120algorithm": 1871, "\u0120\u00e2\u0122\u0136": 1872, "action": 1873, "\u0120flex": 1874, "\u0120server": 1875, "offs": 1876, "64": 1877, "\u0120contain": 1878, "\u0120client": 1879, "\u0120principles": 1880, "];": 1881, "}(": 1882, "\u0120mor": 1883, "ched": 1884, "specific": 1885, "50": 1886, "ID": 1887, "go": 1888, "\u0120est": 1889, "\u0120vis": 1890, "\u0120used": 1891, "arm": 1892, "by": 1893, "\u0120perform": 1894, "\u0120hum": 1895, "lu": 1896, "ock": 1897, "\u0120available": 1898, "ground": 1899, "Res": 1900, "down": 1901, "\u0120exec": 1902, "ries": 1903, "\u0120validate": 1904, "\u0120graph": 1905, "\u0120$$$": 1906, "ape": 1907, "\u0120pot": 1908, "\u0120orig": 1909, "\u0120optim": 1910, "env": 1911, "urity": 1912, "acter": 1913, "\u0120considering": 1914, "Looking": 1915, "mptom": 1916, "\u0120pay": 1917, "ecess": 1918, "iness": 1919, "aces": 1920, "\u0120demonstrates": 1921, "state": 1922, "\u0120options": 1923, "atically": 1924, "\u0120auth": 1925, "\u0120100": 1926, "\u0120eth": 1927, "\u0120max": 1928, "\u0120including": 1929, "\u0120explanation": 1930, "ware": 1931, "\u0120robust": 1932, "args": 1933, "\u0120provides": 1934, "gan": 1935, "\u0120prob": 1936, "\u0120fix": 1937, "\u0120root": 1938, "\u0120complete": 1939, "iolog": 1940, "\u0120within": 1941, "\u0120ensure": 1942, "aking": 1943, "\u0120evalu": 1944, "')": 1945, "light": 1946, "20": 1947, "ively": 1948, "\u0120solve": 1949, "\u0120common": 1950, "\u0120clarify": 1951, "inter": 1952, "\u0120public": 1953, "cription": 1954, "\u0120ear": 1955, "\u0120autom": 1956, "CT": 1957, "\u0120%": 1958, "new": 1959, "formation": 1960, "export": 1961, "\u0120\u0120\u0120\u0120\u0120\u0120\u0120\u0120\u0120\u0120\u0120\u0120\u0120\u0120\u0120\u0120": 1962, "\u0120happ": 1963, "hip": 1964, "\u0120Al": 1965, "upp": 1966, "\u0120cy": 1967, "ople": 1968, "32": 1969, "OM": 1970, "\u0120diagn": 1971, "\u0120benef": 1972, "apy": 1973, "ector": 1974, "\u0120components": 1975, "gine": 1976, "\u0120HT": 1977, "\u0120service": 1978, "Having": 1979, "echan": 1980, "elta": 1981, "Cl": 1982, "\u0120vol": 1983, "\u0120environ": 1984, "radius": 1985, "ann": 1986, "\u0120conver": 1987, "\u0120lang": 1988, "ium": 1989, "\u0120least": 1990, "\u0120assumptions": 1991, "\u0120writ": 1992, "amet": 1993, "\u0120Sh": 1994, "\u0120determ": 1995, "\u0120best": 1996, "sing": 1997, "\u0120though": 1998, "raw": 1999, "ibilities": 2000, "\u0120needed": 2001, "\u0120var": 2002, "\u0120appropri": 2003, "\u0120await": 2004, "ted": 2005, "inite": 2006, "\u0120stud": 2007, "ants": 2008, "Ch": 2009, "LL": 2010, "\u0120analog": 2011, "\u0120column": 2012, "\u0120policy": 2013, "resent": 2014, "\u0120art": 2015, "\u0120loop": 2016, "bash": 2017, "$$$": 2018, "tem": 2019, "[\"": 2020, "amp": 2021, "\u0120null": 2022, "\u0120recommended": 2023, "\u0120adjust": 2024, "\u0120comb": 2025, "ood": 2026, "\u0120achieves": 2027, "\u0120hash": 2028, "\u0120Id": 2029, "ready": 2030, "\u0120context": 2031, "\u0120Add": 2032, "\u0120aud": 2033, "\u0120clos": 2034, "\u0120document": 2035, "inary": 2036, "main": 2037, "\u0120likely": 2038, "\u0120good": 2039, "\u0120functions": 2040, "])": 2041, "ler": 2042, "\u0120upd": 2043, "\u0120patients": 2044, "\u0120window": 2045, "({": 2046, "Create": 2047, "\u0120base": 2048, "\u0120various": 2049, "\");": 2050, "\u0120paths": 2051, "\u0120explo": 2052, "anced": 2053, "\u0120ther": 2054, "\u0120logic": 2055, "\u0120understand": 2056, "\u0120large": 2057, "\u0120gives": 2058, "ields": 2059, "uted": 2060, "yz": 2061, "pty": 2062, "roach": 2063, "rain": 2064, "\u0120etc": 2065, "\u0120});": 2066, "iff": 2067, "ators": 2068, "\u0120repe": 2069, "now": 2070, "\u0120cache": 2071, "button": 2072, "AR": 2073, "\u0120rather": 2074, "uch": 2075, "\u0120means": 2076, "points": 2077, "As": 2078, "tml": 2079, "\u0120prefer": 2080, "less": 2081, "ances": 2082, "list": 2083, "\u0120review": 2084, "acc": 2085, "\u0120/*": 2086, ")^": 2087, "face": 2088, "\u0120open": 2089, "umer": 2090, "etwork": 2091, "`:": 2092, "equ": 2093, "ital": 2094, "init": 2095, "\u0120align": 2096, "start": 2097, "atory": 2098, "\u0120appropriate": 2099, "ams": 2100, "ories": 2101, "\u0120random": 2102, "\u0120cell": 2103, "+\\": 2104, "\u0120left": 2105, "sert": 2106, "oken": 2107, "\u0120expected": 2108, "point": 2109, "config": 2110, "Explain": 2111, "\u0120cer": 2112, "ifferent": 2113, "alth": 2114, "\u0120||": 2115, "\u0120project": 2116, "iled": 2117, ")\\)": 2118, "any": 2119, "\u0120bi": 2120, "\u0120events": 2121, "\u0120table": 2122, "\u0120being": 2123, "\u0120length": 2124, "irm": 2125, "ecause": 2126, "\u0120points": 2127, "block": 2128, "void": 2129, "oci": 2130, "side": 2131, "\u0120critical": 2132, "cing": 2133, "\u0120border": 2134, "\u0120elim": 2135, "\u0120separ": 2136, "function": 2137, "\u0120mut": 2138, "ressure": 2139, "\u0120exactly": 2140, "big": 2141, "loat": 2142, "\u0120\"$": 2143, "\u0120perspectives": 2144, "\u0120command": 2145, "vention": 2146, "\u0120job": 2147, "\u0120std": 2148, "\u0120physical": 2149, "adata": 2150, "velop": 2151, "\u0120sw": 2152, "ava": 2153, "\u0120program": 2154, "src": 2155, "\u0120abs": 2156, "rop": 2157, "\u0120progress": 2158, "Or": 2159, "ie": 2160, "imary": 2161, "encies": 2162, "\u0120ess": 2163, "\u0120dig": 2164, "\u0120needs": 2165, "ything": 2166, "iving": 2167, "\u0120lear": 2168, "\u0120stack": 2169, "\u0120neg": 2170, "index": 2171, "wor": 2172, "atient": 2173, "\u0120lower": 2174, "igma": 2175, "gin": 2176, "mit": 2177, "\u0120positive": 2178, "\u0120people": 2179, "len": 2180, "\u0120handle": 2181, "\u0120equation": 2182, "\u0120Answer": 2183, "aging": 2184, "echn": 2185, "\u0120management": 2186, "\u0120original": 2187, "\u0120ter": 2188, "\u0120que": 2189, "AL": 2190, "\u0120reach": 2191, "espec": 2192, "\u0120occ": 2193, "lot": 2194, "'t": 2195, "ival": 2196, "\u0120given": 2197, "ident": 2198, "especially": 2199, "example": 2200, "^{-": 2201, "\u0120sample": 2202, "\u0120cover": 2203, "ranch": 2204, "iable": 2205, "run": 2206, "\u0120rules": 2207, "\u0120parser": 2208, "\u0120results": 2209, "span": 2210, "List": 2211, "\u0120term": 2212, "\u0120card": 2213, "\u0120(!": 2214, "\u0120possible": 2215, "\u0120certain": 2216, "lication": 2217, "\u0120now": 2218, "error": 2219, "\u0120related": 2220, "LO": 2221, "User": 2222, "\u0120reduce": 2223, "\u0120!=": 2224, "ecessary": 2225, "orem": 2226, "\u0120prev": 2227, "crete": 2228, "uage": 2229, "\u0120sens": 2230, "ession": 2231, "\u0120symptom": 2232, "lay": 2233, "ystem": 2234, "rypt": 2235, "\u0120strategy": 2236, "\u0120factors": 2237, "\u0120immedi": 2238, "\u0120du": 2239, "\u0120Def": 2240, "\u0120maintain": 2241, "\u0120formul": 2242, "\"]": 2243, "akeh": 2244, "IT": 2245, "cdot": 2246, "\u0120sk": 2247, "dr": 2248, "((": 2249, "\u0120body": 2250, "RL": 2251, "SON": 2252, "itor": 2253, "\u0120approxim": 2254, "\u0120async": 2255, "\u0120files": 2256, "\u0120thresh": 2257, "Path": 2258, "\u0120background": 2259, "ox": 2260, "ML": 2261, "event": 2262, "izes": 2263, "');": 2264, "\u0120@": 2265, "bit": 2266, "status": 2267, "Name": 2268, "\u0120outcom": 2269, "}\\)": 2270, "\u0120last": 2271, "\u0120report": 2272, "\u0120sequence": 2273, "ele": 2274, "ashboard": 2275, "\u0120consistent": 2276, "culate": 2277, "\u0120operations": 2278, "\u0120color": 2279, "));": 2280, "\u0120page": 2281, "esis": 2282, "\u0120partic": 2283, "DE": 2284, "code": 2285, "fil": 2286, "\u0120known": 2287, "ores": 2288, "\u0120maxim": 2289, "certain": 2290, "\u0120life": 2291, "16": 2292, "ags": 2293, "\u0120essential": 2294, "Wh": 2295, "late": 2296, "itect": 2297, "\u0120mechan": 2298, "bar": 2299, "\u0120human": 2300, "\u0120distin": 2301, "pret": 2302, "\u0120present": 2303, "ending": 2304, "\u0120general": 2305, "lose": 2306, "ependent": 2307, "por": 2308, "els": 2309, "\u0120minim": 2310, "\u0120div": 2311, "En": 2312, "card": 2313, "aps": 2314, "\u0120cur": 2315, "dir": 2316, "ges": 2317, "utions": 2318, "\u0120transform": 2319, "\u0120experience": 2320, "\u0120?": 2321, "\u0120light": 2322, "itis": 2323, "\u0120link": 2324, "node": 2325, "\u0120sets": 2326, "\u0120On": 2327, "\u0120environment": 2328, "\u0120thor": 2329, "\u0120domain": 2330, "\u0120frameworks": 2331, "\u0120message": 2332, "\u0120features": 2333, "\u0120experim": 2334, "otal": 2335, "\u0120systems": 2336, "\u0120Val": 2337, "\u0120angles": 2338, "mary": 2339, "rec": 2340, "me": 2341, "\u0120Ident": 2342, "\u0120therapy": 2343, "\u0120minimal": 2344, "\u0120potential": 2345, "ways": 2346, "\u0120(`": 2347, "urren": 2348, "onal": 2349, "lood": 2350, "\u0120engine": 2351, "label": 2352, "ailed": 2353, "imate": 2354, "\u0120Therefore": 2355, "\u0120improve": 2356, "vant": 2357, "\u0120car": 2358, "\u0120token": 2359, "\u0120side": 2360, "ouble": 2361, "Val": 2362, "mission": 2363, "AC": 2364, "pli": 2365, "plit": 2366, "fty": 2367, "infty": 2368, "\u0120inside": 2369, "rm": 2370, "\u0120deep": 2371, "\u0120derived": 2372, "place": 2373, "\u0120validation": 2374, "\u0120continuous": 2375, "\u0120Let": 2376, "otion": 2377, "Mod": 2378, "mon": 2379, "\u0120sure": 2380, "\u0120success": 2381, "\u0120measure": 2382, "ibr": 2383, "\u0120especially": 2384, "\u0120thorough": 2385, "\u010a\u0120\u0120\u0120\u0120\u0120\u0120\u0120\u0120\u0120\u0120\u0120\u0120\u0120": 2386, "idual": 2387, "\u0120accept": 2388, "\u0120element": 2389, "\u0120respons": 2390, "\u0120examples": 2391, "\u0120uncertain": 2392, "\u0120suggests": 2393, "\u0120uint": 2394, "lobal": 2395, "={": 2396, "\u0120>=": 2397, "\u0120range": 2398, "\u0120possibilities": 2399, "ception": 2400, "\u0120rule": 2401, "chitect": 2402, "};": 2403, "dev": 2404, "oin": 2405, "\u0120based": 2406, "\u0120see": 2407, "\u0120checks": 2408, "\u0120hard": 2409, "color": 2410, "theta": 2411, "\u0120who": 2412, "\u0120begin": 2413, "\u0120chall": 2414, "\u0120defin": 2415, "pose": 2416, "Type": 2417, "://": 2418, "\u0120power": 2419, "\u0120content": 2420, "\u0120select": 2421, "\u0120meaning": 2422, "ails": 2423, "_{\\": 2424, "\u0120situations": 2425, "\u0120bl": 2426, "Implement": 2427, "ference": 2428, "SI": 2429, "\u0120thread": 2430, "\u0120No": 2431, "\u0120invol": 2432, "\u0120emerg": 2433, "ynamic": 2434, "force": 2435, ")=\\": 2436, "opy": 2437, "static": 2438, "atform": 2439, "\u0120sense": 2440, "url": 2441, "\u0120play": 2442, "Different": 2443, "}^": 2444, "\u0120pressure": 2445, "des": 2446, "ici": 2447, "pping": 2448, "rap": 2449, "\u0120define": 2450, "\u0120ID": 2451, "\u0120update": 2452, "State": 2453, "/*": 2454, "html": 2455, "sec": 2456, "\u00e2\u0136\u0122\u00e2\u0136\u0122\u00e2\u0136\u0122\u00e2\u0136\u0122": 2457, "ven": 2458, "length": 2459, "cent": 2460, "}{\\": 2461, "====": 2462, "Cont": 2463, "\u0120similarities": 2464, "no": 2465, "reason": 2466, "mar": 2467, "\u0120becom": 2468, "\u0120carefully": 2469, "\u0120exists": 2470, "\u0120instead": 2471, "Taking": 2472, "position": 2473, "title": 2474, "way": 2475, "\u0120users": 2476, "\u0120analogous": 2477, "\u0120Identify": 2478, "\u0120Un": 2479, "respon": 2480, "\u0120production": 2481, "\u0120remain": 2482, "\u0120basic": 2483, "arrow": 2484, "icro": 2485, "\u0120iss": 2486, "\u0120leads": 2487, "\u0120field": 2488, "\u0120iter": 2489, "\u0120conditions": 2490, "\u0120pare": 2491, "\\,": 2492, "(&": 2493, "oper": 2494, "\u0120techn": 2495, "ym": 2496, "\u0120flow": 2497, "\u0120After": 2498, "active": 2499, "\u0120contrad": 2500, "++": 2501, "\u0120matrix": 2502, "\u0120preser": 2503, "\u0120sl": 2504, "Consider": 2505, "\u0120hyper": 2506, "\u0120miss": 2507, "times": 2508, "\u0120bus": 2509, "beta": 2510, "argument": 2511, "next": 2512, "\u0120};": 2513, "ology": 2514, "sm": 2515, "lib": 2516, "\u0120quick": 2517, "\u0120bro": 2518, "\u0120usually": 2519, "\u0120construct": 2520, "ref": 2521, "\u0120len": 2522, "\u0120models": 2523, "\u0120__": 2524, "ank": 2525, "\u0120building": 2526, "include": 2527, "\u0120weight": 2528, "velte": 2529, "`)": 2530, "overn": 2531, "\u0120NU": 2532, "\u0120comparis": 2533, "By": 2534, "book": 2535, ".\u00e2\u0122\u013f": 2536, "\u0120source": 2537, "ends": 2538, "\u012011": 2539, "verage": 2540, "\u0120already": 2541, "\u0120terms": 2542, "test": 2543, "\u0120Requ": 2544, "lying": 2545, "\u0120linear": 2546, "\u0120red": 2547, "\u0120weigh": 2548, "uild": 2549, "\u0120vir": 2550, "OT": 2551, "bed": 2552, "\u0120ut": 2553, "\u0120requests": 2554, "\u0120font": 2555, "input": 2556, "\u0120format": 2557, "\u0120<=": 2558, "\u0120observ": 2559, "\u0120everything": 2560, "\u0120grid": 2561, "\u0120detection": 2562, "\u0120usage": 2563, "\u0120schema": 2564, "tx": 2565, "\u0120ten": 2566, "\u0120paramet": 2567, "sqrt": 2568, "ustain": 2569, "ering": 2570, "orage": 2571, "\u0120[]": 2572, "\u0120compare": 2573, "\u0120stat": 2574, "\u0120grow": 2575, "inds": 2576, "\u0120args": 2577, "\u0120Res": 2578, "ogn": 2579, "})": 2580, "\u0120condition": 2581, "itch": 2582, "\u0120keys": 2583, "day": 2584, "\u0120place": 2585, "metry": 2586, "ool": 2587, "\u0120deploy": 2588, "\u0120formula": 2589, "\u0120theorem": 2590, "\u0120once": 2591, "\u0120early": 2592, "\u0120blood": 2593, "String": 2594, "\u0120zero": 2595, "\u0120becomes": 2596, "\u0120old": 2597, "erial": 2598, "AG": 2599, "etic": 2600, "igate": 2601, "\u0120testable": 2602, "(),": 2603, "version": 2604, "ears": 2605, "\u0120\u0120\u010a\u0120": 2606, "\u0120pipeline": 2607, "\u0120uncertainty": 2608, "itoring": 2609, "\u0120AS": 2610, "\u0120Be": 2611, "\u0120sem": 2612, "sequ": 2613, "\u0120probability": 2614, "\u0120were": 2615, "\u0120ways": 2616, "ources": 2617, "}^{": 2618, "\u0120moral": 2619, "\u0120those": 2620, "\u0120three": 2621, "ope": 2622, "\u0120remains": 2623, "\u0120install": 2624, "verse": 2625, "with": 2626, "ided": 2627, "\u0120internal": 2628, "\u0120pop": 2629, "\u0120write": 2630, "ergy": 2631, "style": 2632, "\u0120his": 2633, "There": 2634, "\u0120during": 2635, "\u0120predictions": 2636, "\u0120language": 2637, "\u0120&&": 2638, "oot": 2639, "\u0120quant": 2640, "\u0120interval": 2641, "rag": 2642, "\u0120loss": 2643, "\u0120private": 2644, "\u0120stakeh": 2645, "ilon": 2646, "pliance": 2647, "oint": 2648, "aut": 2649, "\u0120child": 2650, "\u0120cannot": 2651, "pir": 2652, "write": 2653, "\u0120network": 2654, "\u0120market": 2655, "\u0120don": 2656, "\u0120conclusion": 2657, "var": 2658, "\u0120health": 2659, "\u0120repeated": 2660, "\";": 2661, "\u0120\u00ce": 2662, "\u0120rout": 2663, "\u0120regist": 2664, "\u0120move": 2665, "api": 2666, "adding": 2667, "\u0120You": 2668, "\u0120free": 2669, "Service": 2670, "server": 2671, "\u0120prec": 2672, "\u0120numbers": 2673, "Event": 2674, "wise": 2675, "store": 2676, "\u0120CI": 2677, "\u0120agg": 2678, "\u0120clinical": 2679, "(--": 2680, "gen": 2681, "\u0120Optional": 2682, "current": 2683, "\u0120directly": 2684, "\u0120\u00e2\u0122\u0135": 2685, "\u0120\u00e2\u012b": 2686, "uments": 2687, "\u0120label": 2688, "._": 2689, "\u0120around": 2690, "iddle": 2691, "Time": 2692, "\u012030": 2693, "ift": 2694, "\u0120sustain": 2695, "\u0120item": 2696, "afe": 2697, "\u0120aff": 2698, "\u0120fall": 2699, "local": 2700, "\u0120clean": 2701, "\u0120audit": 2702, "[]": 2703, "\u0120Cl": 2704, "ocol": 2705, "\u0120cir": 2706, "arr": 2707, "\u0120pack": 2708, "\u0120found": 2709, "\u0120trig": 2710, "\u0120scale": 2711, "\u0120another": 2712, "esting": 2713, "\u0120That": 2714, "\u0120testing": 2715, "\u0120queue": 2716, "\u0120active": 2717, "eral": 2718, "\u0120frequ": 2719, "\u0120void": 2720, "process": 2721, "parse": 2722, "uc": 2723, "\u0120above": 2724, "base": 2725, "body": 2726, "rel": 2727, "\u0120expos": 2728, "eff": 2729, "\u0120image": 2730, "\u0120depth": 2731, "\u0120sched": 2732, "\u0120shared": 2733, "\u0120plus": 2734, "\u0120equal": 2735, "\u0120metadata": 2736, "radient": 2737, "\u0120JSON": 2738, "idden": 2739, "\u0120information": 2740, "iding": 2741, "\u0120commun": 2742, ".\"": 2743, "\u0120altern": 2744, "\u0120stream": 2745, "eful": 2746, "99": 2747, "ocial": 2748, "At": 2749, "\u0120static": 2750, "True": 2751, "vide": 2752, "\u0120CSS": 2753, "\u0120indic": 2754, "\u0120duplic": 2755, "ares": 2756, "cribe": 2757, "\u0120capacity": 2758, "lection": 2759, "\u0120display": 2760, ")}": 2761, "\u0120Then": 2762, "LI": 2763, "only": 2764, "\u0120hold": 2765, "\u0120architect": 2766, "AM": 2767, "pm": 2768, "\u0120represent": 2769, "\u0120effects": 2770, "stream": 2771, "\u0120patterns": 2772, "\u0120volume": 2773, "\u0120errors": 2774, "phi": 2775, "cular": 2776, "md": 2777, "\u0120cross": 2778, "cap": 2779, "std": 2780, "().": 2781, "\u0120empty": 2782, "\u0120drug": 2783, "\u0120days": 2784, "ulate": 2785, "\u0120NULL": 2786, "Therefore": 2787, "Requ": 2788, "\u0120requirement": 2789, "\u0120coll": 2790, "AN": 2791, "ections": 2792, "\u0120elimination": 2793, "auth": 2794, "\u0120fav": 2795, "####": 2796, "\u0120fund": 2797, "trans": 2798, "top": 2799, "items": 2800, "\u0120returns": 2801, "\u0120position": 2802, "80": 2803, "ES": 2804, "\u0120phi": 2805, "\u0120concrete": 2806, "aim": 2807, "\u0120q": 2808, "\u0120===": 2809, "\u0120Define": 2810, "erge": 2811, "\u0120fetch": 2812, "pper": 2813, "\u0120Ar": 2814, "\u0120radius": 2815, "append": 2816, "\u0120fixed": 2817, "\u0120Red": 2818, "service": 2819, "pute": 2820, "pid": 2821, "pass": 2822, "PU": 2823, "\u0120nam": 2824, "\u0120vert": 2825, "\u0120```": 2826, "\u0120works": 2827, "Sub": 2828, "Write": 2829, "unk": 2830, "\u0120Rep": 2831, "\u0120fails": 2832, "./": 2833, "\u0120matters": 2834, "Considering": 2835, "\u0120Run": 2836, "\u0120hour": 2837, "\u0120very": 2838, "\u0120character": 2839, "\u0120few": 2840, "\u0120String": 2841, "\u0120includes": 2842, "\u0120performance": 2843, "check": 2844, "\u0120double": 2845, "\u0120items": 2846, "psilon": 2847, "mathbf": 2848, "\u0120types": 2849, "\u0120somet": 2850, "\u0120forward": 2851, "\u0120compute": 2852, "iod": 2853, "son": 2854, "\u0120explicitly": 2855, "\u0120severe": 2856, "\u0120First": 2857, "\u0120updates": 2858, "script": 2859, "inf": 2860, "\u0120argument": 2861, "where": 2862, "Script": 2863, "\u0120constant": 2864, "olders": 2865, "\u0120payload": 2866, "rame": 2867, "uss": 2868, "\u0120looking": 2869, "\u0120infection": 2870, "\u0120ful": 2871, "emp": 2872, "cell": 2873, "\u0120Example": 2874, "\u0120sent": 2875, "\u0120integer": 2876, "\u0120decision": 2877, "Al": 2878, "\u0120invest": 2879, "omy": 2880, "\u0120hypoth": 2881, "11": 2882, "}\")": 2883, "\u0120eas": 2884, "\u0120synth": 2885, "\"\"\"": 2886, "\u0120diagnosis": 2887, "ivers": 2888, "\u0120IN": 2889, "\u0120systematically": 2890, "risk": 2891, "ott": 2892, "\u0120+=": 2893, "\u0120port": 2894, "\u0120tree": 2895, "\u0120mode": 2896, "older": 2897, "\u0120organ": 2898, "yze": 2899, "\u0120pain": 2900, "\u0120Int": 2901, "ither": 2902, "AB": 2903, "Ar": 2904, "losoph": 2905, "uid": 2906, "olution": 2907, "():": 2908, "**,": 2909, "\u0120mis": 2910, "ade": 2911, "AD": 2912, "raction": 2913, "\u0120rows": 2914, "xy": 2915, "\u010a\u010a\u0120\u0120\u0120\u0120\u0120": 2916, "\u0120record": 2917, "\u0120confidence": 2918, "\u0120gen": 2919, "\u0120]": 2920, "ternal": 2921, "conn": 2922, "24": 2923, "15": 2924, "\u0120op": 2925, "\u0120seen": 2926, "\u0120List": 2927, "\u0120benefit": 2928, "umber": 2929, "\u0120higher": 2930, "ored": 2931, "abase": 2932, "\u0120adapt": 2933, "\u0120component": 2934, "\u0120tools": 2935, "\u0120impact": 2936, "\u0120arrive": 2937, "\u0120RE": 2938, "\u0120leg": 2939, "${": 2940, "aries": 2941, "\u0120distribution": 2942, "\u0120symptoms": 2943, "aster": 2944, "\u0120along": 2945, "\u0120parent": 2946, "bol": 2947, "\u0120been": 2948, "ATE": 2949, "\u0120closed": 2950, "\u0120nodes": 2951, "\u0120independent": 2952, "\u0120necessary": 2953, "\u0120continue": 2954, "man": 2955, "\u0120systematic": 2956, "\u0120pair": 2957, "\u0120filter": 2958, "RI": 2959, "\u0120Z": 2960, "\u0120padding": 2961, "the": 2962, "orical": 2963, "adow": 2964, "\u0120Path": 2965, "\u0120workflow": 2966, "fl": 2967, "sych": 2968, "\u0120cour": 2969, "\u0120\u0120\u0120\u0120\u0120\u0120": 2970, "pe": 2971, "width": 2972, "item": 2973, "\u0120float": 2974, "\u0120area": 2975, "\u0120branch": 2976, "contain": 2977, "\u0120month": 2978, "nav": 2979, "\u0120marg": 2980, "page": 2981, "\u0120reject": 2982, "\u0120prevent": 2983, "omic": 2984, "parent": 2985, "\u0120supports": 2986, "\u0120feas": 2987, "pects": 2988, "partial": 2989, "medi": 2990, "safe": 2991, "estion": 2992, "\u0120fundam": 2993, "\u0120diff": 2994, "\u0120SQL": 2995, "\u0120concise": 2996, "())": 2997, "\u0120energy": 2998, "Pl": 2999, "\u0120our": 3000, "\u0120trying": 3001, "\u010a\u010a\u0120\u0120\u0120\u0120\u0120\u0120\u0120\u0120\u0120\u0120\u0120": 3002, "}}": 3003, "\u0120sn": 3004, "\u0120past": 3005, "\u0120mo": 3006, "\u0120libr": 3007, "\u0120scenario": 3008, "func": 3009, "\u0120times": 3010, "\u0120dependencies": 3011, "\u0120<<": 3012, "\u0120price": 3013, "\u0120feature": 3014, "\u0120threshold": 3015, "IR": 3016, "\u0120integr": 3017, "message": 3018, "MA": 3019, "post": 3020, "sigma": 3021, "\u0120buil": 3022, "]?": 3023, "edge": 3024, "estamp": 3025, "\u0120resource": 3026, "\u0120mg": 3027, "ager": 3028, "asing": 3029, "_\\": 3030, "\u0120latency": 3031, "\u0120lock": 3032, "\u0120pub": 3033, "\u0120heart": 3034, "\u0120scenarios": 3035, "\u0120contains": 3036, "\u0120simpl": 3037, "\u0120week": 3038, "fe": 3039, "\u0120Rec": 3040, "rodu": 3041, "like": 3042, "\u0120Sum": 3043, "\u0120setup": 3044, "overy": 3045, "world": 3046, "PA": 3047, "\u0120law": 3048, "ceed": 3049, "tenant": 3050, "\u0120antib": 3051, "\u012015": 3052, "\u0120customer": 3053, "iation": 3054, "eph": 3055, "\u0120identity": 3056, "\u0120mind": 3057, "\u0120micro": 3058, "ently": 3059, "\u0120series": 3060, "^*": 3061, "atives": 3062, "\u0120Through": 3063, "\u0120raise": 3064, "\u0120monitoring": 3065, "\u0120finite": 3066, "Un": 3067, "bin": 3068, "mathrm": 3069, "\u0120choose": 3070, "\u0120protocol": 3071, "\u0120thinking": 3072, "100": 3073, "iciency": 3074, ".\")": 3075, "Out": 3076, "dis": 3077, "http": 3078, "\u0120Im": 3079, "\u0120State": 3080, "\u0120auto": 3081, "\u0120dashboard": 3082, "\u0120Provide": 3083, "vis": 3084, "\u0120analyt": 3085, "\u0120capt": 3086, "\u0120HTTP": 3087, "\u0120Cons": 3088, "\u0120determin": 3089, "\u0120except": 3090, "\u0120hem": 3091, "\u0120He": 3092, "\u0120send": 3093, "\u0120cycle": 3094, "ars": 3095, "\u0120ethical": 3096, "acing": 3097, "\u0120generate": 3098, "\u010a\u0120\u0120\u0120\u0120\u0120\u0120\u0120\u0120\u0120\u0120\u0120\u0120\u0120\u0120\u0120\u0120\u0120\u0120\u0120\u0120\u0120\u0120\u0120": 3099, "ET": 3100, "sl": 3101, "\u0120They": 3102, "\u0120rat": 3103, "\u0120asking": 3104, "30": 3105, "mut": 3106, "amily": 3107, "actions": 3108, "description": 3109, "\u0120sus": 3110, "\u0120deg": 3111, "ograph": 3112, "\u00e2\u0136\u0124": 3113, "\u0120platform": 3114, "ned": 3115, "\u0120sym": 3116, "\u0120When": 3117, "icle": 3118, "ighb": 3119, "\u0120logging": 3120, "result": 3121, "nown": 3122, "\u0120Consider": 3123, "\u0120she": 3124, "dom": 3125, "\u0120reduces": 3126, "print": 3127, "\u0120cult": 3128, "\u0120stable": 3129, "ega": 3130, "\u0120tenant": 3131, "\u0120fields": 3132, "\u0120security": 3133, "pped": 3134, "\u0120bool": 3135, "\u0120fully": 3136, "\u0120feed": 3137, "\u0120negative": 3138, "\u0120cach": 3139, "raft": 3140, "amples": 3141, "\u0120web": 3142, "ders": 3143, "essages": 3144, "\u0120commit": 3145, "ba": 3146, "rable": 3147, "Add": 3148, "\u0120larg": 3149, "til": 3150, "lease": 3151, "itional": 3152, "Pr": 3153, "sin": 3154, "\u0120rece": 3155, "\u0120global": 3156, "\u0120array": 3157, "plication": 3158, "pected": 3159, "\u0120tokens": 3160, "Client": 3161, "idate": 3162, "overnance": 3163, "\u0120Implement": 3164, "\u012016": 3165, "\u0120200": 3166, "SA": 3167, "\u0120compact": 3168, "\u0120relations": 3169, "\u0120confirm": 3170, "mem": 3171, "step": 3172, "\u0120Pr": 3173, "nowled": 3174, "\u0120business": 3175, "\u0120cut": 3176, "\u0120Post": 3177, "\u0120scre": 3178, "\u0120goal": 3179, "\u0120feasible": 3180, "host": 3181, "\u0120logs": 3182, "\u0120recurs": 3183, "Sh": 3184, "\u0120application": 3185, "\u0120Approach": 3186, ")**": 3187, "iler": 3188, "exp": 3189, "cious": 3190, "^\\": 3191, "hib": 3192, "\u0120preced": 3193, "\u0120develop": 3194, "\u0120True": 3195, "\u0120outcomes": 3196, "Is": 3197, "rong": 3198, "sv": 3199, "\u0120aspects": 3200, "\u0120device": 3201, "client": 3202, "mt": 3203, "vare": 3204, "amma": 3205, "\u0120role": 3206, "varepsilon": 3207, "iqu": 3208, "sim": 3209, "\u0120due": 3210, "ils": 3211, "\u012025": 3212, "ifact": 3213, "\u0120enough": 3214, "\u0120flexibility": 3215, "\u0120evaluate": 3216, "LECT": 3217, "vidence": 3218, "\u0120since": 3219, "otic": 3220, "\u0120social": 3221, "urrency": 3222, "Data": 3223, "section": 3224, "\u0120states": 3225, "\u0120differences": 3226, "\u0120raw": 3227, "group": 3228, "\u0120vector": 3229, "ended": 3230, "\u012050": 3231, "Def": 3232, "\u0120ill": 3233, "\u0120matches": 3234, "pack": 3235, "\u0120interpret": 3236, "\u0120her": 3237, "\u0120structures": 3238, "One": 3239, "can": 3240, "hand": 3241, "\u0120always": 3242, "column": 3243, "\u0120signific": 3244, "75": 3245, "\u0120truth": 3246, "ogen": 3247, "\u0120world": 3248, "()`": 3249, "\u0120contradiction": 3250, "err": 3251, "\u0120dynamic": 3252, "thers": 3253, "\u0120efficient": 3254, "\u0120architecture": 3255, "\u0120roll": 3256, "\u0120squ": 3257, "\u0120won": 3258, "\u0120compliance": 3259, "ensive": 3260, "\u0120subst": 3261, "\u0120Cont": 3262, "\u0120ack": 3263, "eli": 3264, "\u0120increases": 3265, "upport": 3266, "ming": 3267, "\u0120switch": 3268, "\u0120indiv": 3269, "\u0120fundamental": 3270, "ale": 3271, "ects": 3272, "case": 3273, "tings": 3274, "\u0120Ser": 3275, "\u0120team": 3276, "Rep": 3277, "\u0120rot": 3278, "\u0120Ad": 3279, "\u0120Since": 3280, "eterm": 3281, "\u0120lab": 3282, "\u0120super": 3283, "\u0120adv": 3284, "typ": 3285, "\u0120tasks": 3286, "\u0120Show": 3287, "field": 3288, "jective": 3289, "\u0120layout": 3290, "Log": 3291, "TE": 3292, "ROM": 3293, "]:": 3294, "\u0120primary": 3295, "\u0120entry": 3296, "\u0120adjustments": 3297, "\u0120throw": 3298, "fix": 3299, "icity": 3300, "\u0120decom": 3301, "\u0120width": 3302, "\u0120elev": 3303, "empot": 3304, "\u0120coord": 3305, "\u0120challeng": 3306, "inate": 3307, "onds": 3308, "\u0120activ": 3309, "une": 3310, "dering": 3311, "\u0120limited": 3312, "TO": 3313, "\u0120quality": 3314, "\u0120criter": 3315, "':": 3316, "root": 3317, "\u0120search": 3318, "weight": 3319, "\u0120causes": 3320, "uro": 3321, "\u0120inflam": 3322, "\u0120regul": 3323, "\u0120properly": 3324, "\u0120Do": 3325, "\u0120Each": 3326, "emia": 3327, "Col": 3328, "ber": 3329, "limit": 3330, "task": 3331, "\u0120()": 3332, "uture": 3333, "alculate": 3334, "\u0120bit": 3335, "\u0120email": 3336, "\u0120Compare": 3337, "annel": 3338, "\u0120matter": 3339, "\u0120ensuring": 3340, "\u0120later": 3341, "link": 3342, "\u0120much": 3343, "oding": 3344, "\u0120recommendation": 3345, "\u0120practical": 3346, "\u0120history": 3347, "\u0120inputs": 3348, "Find": 3349, "\u010a\u0120\u0120\u0120\u0120\u0120\u0120\u0120\u0120\u0120\u0120\u0120\u0120\u0120\u0120\u0120\u0120\u0120\u0120\u0120\u0120\u0120\u0120\u0120\u0120": 3350, "\u0120idea": 3351, "\u0120room": 3352, "\u0120feel": 3353, "inst": 3354, "\u0120Or": 3355, "\u0120historical": 3356, "Because": 3357, "\u0120Qu": 3358, "\u0120limits": 3359, "\u0120maximum": 3360, "inator": 3361, "isions": 3362, "\u0120binary": 3363, "\u0120come": 3364, "\u0120apply": 3365, "\u0120Java": 3366, "\u0120balances": 3367, "API": 3368, "qquad": 3369, "\u0120fig": 3370, "\u0120dp": 3371, "\u012024": 3372, "\u0120contract": 3373, "\u0120Ob": 3374, "\u0120Create": 3375, "\u0120speed": 3376, "\u0120explore": 3377, "tes": 3378, "total": 3379, "\u0120score": 3380, "\u0120remo": 3381, "aid": 3382, "cos": 3383, "\u0120AI": 3384, "\u0120limitations": 3385, "ponent": 3386, "\u0120absol": 3387, "On": 3388, "\u0120es": 3389, "\u0120cause": 3390, "\u0120style": 3391, "header": 3392, "\u0120sustainability": 3393, "pol": 3394, "request": 3395, "boxed": 3396, "delta": 3397, "\u0120mig": 3398, "\u0120period": 3399, "shot": 3400, "\u0120immediate": 3401, "db": 3402, "\u0120runs": 3403, "\u0120--------------------------------": 3404, "\u0120src": 3405, "\u0120/>": 3406, "RU": 3407, "\u0120Mod": 3408, "(-": 3409, "ney": 3410, "oad": 3411, "\u0120too": 3412, "Then": 3413, "\u0120\u00e2\u012a": 3414, "\u0120structured": 3415, "\u0120broad": 3416, "Thus": 3417, "\u0120course": 3418, "'(": 3419, "create": 3420, "ronic": 3421, "\u0120hours": 3422, "ee": 3423, "ql": 3424, "\u0120objectives": 3425, "\u0120\u00e2\u0136\u0124": 3426, "\u0120br": 3427, "\u0120counter": 3428, "hing": 3429, "output": 3430, "elines": 3431, "\u0120However": 3432, "\u0120sorted": 3433, "\u0120san": 3434, "\u0120gap": 3435, "\u0120So": 3436, "\u0120objects": 3437, "\u0120margin": 3438, "hash": 3439, "\u0120comput": 3440, "lat": 3441, "ury": 3442, "\u0120resources": 3443, "\u0120To": 3444, "OU": 3445, "\u0120individual": 3446, "|\\": 3447, "ited": 3448, "\u0120reliable": 3449, "\u0120center": 3450, "\u0120philosoph": 3451, "ng": 3452, "rays": 3453, "\u0120either": 3454, "\u0120Pre": 3455, "\u0120safe": 3456, "hi": 3457, "\u0120others": 3458, "\u0120solutions": 3459, "\u0120python": 3460, "\u0120push": 3461, "\u0120})": 3462, "\u0120claim": 3463, "\u0120close": 3464, "ane": 3465, "arant": 3466, "mathcal": 3467, "\u0120semant": 3468, "iol": 3469, "\u0120contrib": 3470, "\u0120headers": 3471, "vices": 3472, "\u0120ax": 3473, "\u0120elect": 3474, "public": 3475, "token": 3476, "ensity": 3477, "true": 3478, "default": 3479, "\u0120factor": 3480, "dec": 3481, "actor": 3482, "product": 3483, "posed": 3484, "pay": 3485, "\u0120sal": 3486, "\u0120mention": 3487, "\u0120force": 3488, "\u0120rights": 3489, "][": 3490, "\u0120nav": 3491, "\u0120User": 3492, "\u0120\u00e2\u0136\u013e": 3493, "Now": 3494, "tn": 3495, "\u0120alloc": 3496, "\u0120share": 3497, "ffic": 3498, "\u0120diag": 3499, "\u0120challenges": 3500, "\u0120unit": 3501, "\u0120choice": 3502, "sql": 3503, "\u0120dys": 3504, "\u0120opp": 3505, "riend": 3506, "\u0120near": 3507, "rupt": 3508, "de": 3509, "**.": 3510, "igation": 3511, "iry": 3512, "\u0120give": 3513, "\u0120Set": 3514, "apshot": 3515, "\u0120starting": 3516, "\u0120distributed": 3517, "\u0120nu": 3518, "\u0120enforce": 3519, "ttps": 3520, "\u0120associ": 3521, "\u0120database": 3522, "\u0120worker": 3523, "iter": 3524, "\u0120itself": 3525, "\u0120correctly": 3526, "DB": 3527, "dist": 3528, "etime": 3529, "\u0120risks": 3530, "ership": 3531, "izer": 3532, "ustomer": 3533, "\u0120depends": 3534, "itory": 3535, "arp": 3536, "otes": 3537, "irements": 3538, "01": 3539, "target": 3540, "enses": 3541, "\u0120baseline": 3542, "cel": 3543, "}=": 3544, "ises": 3545, "polog": 3546, "\u0120header": 3547, "\u0120option": 3548, "vert": 3549, "\u0120brain": 3550, "\u0120put": 3551, "pling": 3552, "\u0120stakeholders": 3553, "hy": 3554, "atal": 3555, "lement": 3556, "ifier": 3557, "ties": 3558, "rect": 3559, "rium": 3560, "\u0120False": 3561, "\u0120created": 3562, "\u0120strict": 3563, "\u0120comparisons": 3564, "\u0120reduced": 3565, "iology": 3566, "\u0120HTML": 3567, "inu": 3568, "valu": 3569, "\u0120reflect": 3570, "\u0120relationship": 3571, "18": 3572, "SQL": 3573, "alk": 3574, "rip": 3575, "\u0120Out": 3576, "heme": 3577, "ln": 3578, "\u0120runtime": 3579, "\u0120boundary": 3580, "\u0120introdu": 3581, "\u0120'@": 3582, "\u0120acute": 3583, "\u0120optimal": 3584, "\u0120release": 3585, "\u0120guid": 3586, "\u0120aggreg": 3587, "uccess": 3588, "\u0120la": 3589, "\u0120{}": 3590, "\u0120until": 3591, "\u0120Step": 3592, "\u0120parse": 3593, "\u0120estim": 3594, "rome": 3595, "\u0120yet": 3596, "open": 3597, "\u0120take": 3598, "\u0120ren": 3599, "\u0120region": 3600, "-----": 3601, "\u0120seg": 3602, "\u0120kid": 3603, "\u0120transition": 3604, "\u0120novel": 3605, "\u0120examine": 3606, "\u0120thing": 3607, "\u0120storage": 3608, "\u0120System": 3609, "\u0120concept": 3610, "\u0120tre": 3611, "dots": 3612, "\u0120Main": 3613, "ding": 3614, "isma": 3615, "olic": 3616, "\u0120Sp": 3617, "\u0120ring": 3618, "ytes": 3619, "eries": 3620, "\u0120\"--": 3621, "\u0120height": 3622, "How": 3623, "It": 3624, "\u0120details": 3625, "\u0120delay": 3626, "\u0120situation": 3627, "ats": 3628, "\u0120cr": 3629, "lout": 3630, "eploy": 3631, "email": 3632, "\u0120person": 3633, "CK": 3634, "\u0120weak": 3635, "ponse": 3636, "\u0120become": 3637, "\u0120guard": 3638, "\u0120relevant": 3639, "\u0120did": 3640, "match": 3641, "Evidence": 3642, "\u0120Pros": 3643, "\u0120title": 3644, "\u0120insight": 3645, "IM": 3646, "Sever": 3647, "TL": 3648, "df": 3649, "\u0120rest": 3650, "ested": 3651, "\u0120ones": 3652, "60": 3653, "Use": 3654, "\u0120numer": 3655, "\u0120harm": 3656, "\u0120actions": 3657, "\u0120acknowled": 3658, "lining": 3659, "\u0120toget": 3660, "udget": 3661, "\u0120NOT": 3662, "\u0120together": 3663, "ED": 3664, "itivity": 3665, "\u0120nat": 3666, "irection": 3667, "\u0120stop": 3668, "\u0120functional": 3669, "\u0120integration": 3670, "last": 3671, "\u0120Node": 3672, "\u0120expon": 3673, "known": 3674, "mark": 3675, "\u0120expect": 3676, "\u0120deb": 3677, "\u0120objective": 3678, "\u0120password": 3679, "\u0120init": 3680, "\u0120reduction": 3681, "ater": 3682, "\u0120scope": 3683, "\u0120correctness": 3684, "\u0120increase": 3685, "\u0120deeper": 3686, "But": 3687, "\u0120differential": 3688, "\u0120issues": 3689, "ablish": 3690, "'re": 3691, "call": 3692, "dex": 3693, "\u0120db": 3694, "vari": 3695, "\u0120http": 3696, "\u0120gradient": 3697, "\u0120CS": 3698, "vas": 3699, "\u0120reasoned": 3700, "gre": 3701, "\\|": 3702, "\u0120renal": 3703, "\u0120relative": 3704, "\u0120effective": 3705, "dat": 3706, "AP": 3707, "De": 3708, "push": 3709, "\u0120norm": 3710, "\u0120missing": 3711, "\u0120exposure": 3712, "\u0120slow": 3713, "\u0120hal": 3714, "\u0120happens": 3715, "Delta": 3716, "uff": 3717, "\u0120shape": 3718, "\u0120accur": 3719, "\u0120identifying": 3720, "seud": 3721, "\u0120bucket": 3722, "\u0120balance": 3723, "\u0120investigate": 3724, "Sp": 3725, "rh": 3726, "\u0120tor": 3727, "\u0120timeout": 3728, "Context": 3729, "\u0120serial": 3730, "\u0120box": 3731, "\u0120examining": 3732, "gba": 3733, "ived": 3734, "Value": 3735, ",\u00e2\u0122\u013f": 3736, "\u0120average": 3737, "\u0120psych": 3738, "Pre": 3739, "cast": 3740, "\u0120mix": 3741, "\u0120ep": 3742, "\u0120topolog": 3743, "ivery": 3744, "Approach": 3745, "\u0120chain": 3746, "\u0120compares": 3747, "\u0120ratio": 3748, "NA": 3749, "\u0120things": 3750, "\u0120expert": 3751, "Request": 3752, "ords": 3753, "\u0120DB": 3754, "\u0120Ret": 3755, "\u0120making": 3756, "model": 3757, "\u0120groups": 3758, "Since": 3759, "loud": 3760, "plications": 3761, "\u0120absolute": 3762, "\u0120nil": 3763, "ridge": 3764, "\u0120);": 3765, "\u0120dest": 3766, "omal": 3767, "chron": 3768, "\u0120interface": 3769, "\u0120overl": 3770, "vue": 3771, "alle": 3772, "unch": 3773, "\u010a\u0109\u0109": 3774, "\u0120isol": 3775, "search": 3776, "\u0120never": 3777, "\u0120unless": 3778, "\u0120np": 3779, "\u0120showing": 3780, "content": 3781, "\u0120alternative": 3782, "Im": 3783, "\u012014": 3784, "proble": 3785, "neg": 3786, "\u0120dim": 3787, "\u0120alone": 3788, "Several": 3789, "Se": 3790, "gent": 3791, "\u0120useful": 3792, "\u0120route": 3793, "\u0120mach": 3794, "\u0120comparable": 3795, "\u0120thought": 3796, "Rec": 3797, "\u0120external": 3798, "osp": 3799, "rawing": 3800, "Here": 3801, "normal": 3802, "empt": 3803, "\u0120outline": 3804, "\u0120edges": 3805, "\u0120Below": 3806, "\u0120messages": 3807, "\u0120Inst": 3808, "\u0120artifact": 3809, "\u0120growth": 3810, "ugin": 3811, "\u0120versus": 3812, "ffering": 3813, "\u0120happen": 3814, "PC": 3815, "\u0120ir": 3816, "Store": 3817, "\u0120conscious": 3818, "appro": 3819, "FF": 3820, "lation": 3821, "patient": 3822, "\u0120services": 3823, "\u0120basics": 3824, "\u0120trigger": 3825, "\u0120num": 3826, "abilities": 3827, "\u0120encounter": 3828, "\u0120separate": 3829, "lower": 3830, "\u0120suff": 3831, "efficient": 3832, "\u0120den": 3833, "\u0120batch": 3834, "\u0120had": 3835, "\u0120gra": 3836, "\u0120Some": 3837, "\u0120URL": 3838, "Config": 3839, "SH": 3840, "Set": 3841, "orph": 3842, "\u0120dead": 3843, "\u0120criteria": 3844, "\u0120training": 3845, "Par": 3846, "\u0120${": 3847, "\u0120central": 3848, "\u0120optional": 3849, "etes": 3850, "\u0120decisions": 3851, "ottom": 3852, "using": 3853, "\u0120neuro": 3854, "\u0120cells": 3855, "ingu": 3856, "epts": 3857, "\u0120Data": 3858, "Node": 3859, "det": 3860, "ernel": 3861, "space": 3862, "CE": 3863, "arts": 3864, "buf": 3865, "\u0120special": 3866, "\u0120directory": 3867, "\u0120emerges": 3868, "EY": 3869, "\u00c3\u0139": 3870, "\u0120\\((": 3871, "\u0120layer": 3872, "\u0120integers": 3873, "\u0120categ": 3874, "\u0120neighb": 3875, "ifying": 3876, "\u0120modern": 3877, "\u0120columns": 3878, "\u0120compet": 3879, "\u0120realize": 3880, "\u0120strongly": 3881, "eep": 3882, "ancy": 3883, "ivot": 3884, "\u0120Go": 3885, "\u0120comparative": 3886, "\u0120significant": 3887, "cale": 3888, "\u0120counts": 3889, "\u0120ms": 3890, "\u0120wait": 3891, "\u0120Sec": 3892, "\u0120Mon": 3893, "\u0120tele": 3894, "MS": 3895, "\u0120split": 3896, "\u0120inhib": 3897, "\u0120air": 3898, "\u0120inj": 3899, "\u0120prompt": 3900, "comple": 3901, "\u0120There": 3902, "\u0120creates": 3903, "\u0120extrem": 3904, "ND": 3905, "values": 3906, "free": 3907, "rangle": 3908, "mid": 3909, "\u0120tail": 3910, "\u0120prove": 3911, "\u0120flag": 3912, "\u0120insights": 3913, "pip": 3914, "\u012018": 3915, "\u0120subset": 3916, "\u0120fast": 3917, "utable": 3918, "\u0120host": 3919, "\u0120difference": 3920, "\u0120theme": 3921, "\u0120clearly": 3922, "\u0120lessons": 3923, "\u0120Type": 3924, "\u0120New": 3925, "come": 3926, "HER": 3927, "\u0120cos": 3928, "uler": 3929, "\u0120doesn": 3930, "\u0120bounded": 3931, "svelte": 3932, "}`": 3933, "\u0120pros": 3934, "ured": 3935, "\u0120parts": 3936, "\u0120optimization": 3937, "\u0120virt": 3938, ")(": 3939, "num": 3940, "req": 3941, "query": 3942, "\u0120Exp": 3943, "\u0120distance": 3944, "\u0120existing": 3945, "\u0120Web": 3946, "PO": 3947, "\u0120great": 3948, "\u0120detect": 3949, "\u0120synd": 3950, "\u0120tell": 3951, "\u0120says": 3952, "omega": 3953, "\u0120spread": 3954, "\u0120minimum": 3955, "]`": 3956, "\u0120express": 3957, "\u012060": 3958, "queue": 3959, "ZE": 3960, "\u00e2\u0122\u013e": 3961, "\u0120rgba": 3962, "\u0120Build": 3963, "ouse": 3964, "\u0120leading": 3965, "Sec": 3966, "anal": 3967, "\u0120bytes": 3968, "duction": 3969, "\u0120signal": 3970, "\u0120practice": 3971, "\u0120figure": 3972, "\u0120mit": 3973, "idx": 3974, "\u0120produce": 3975, "\u0120suggest": 3976, "\u0120viol": 3977, "\u0120controls": 3978, "Order": 3979, "\u0120apart": 3980, "comp": 3981, "\u0120simulation": 3982, "\u0120viewpoints": 3983, "\u0120jobs": 3984, "Per": 3985, "\u0120anim": 3986, "ifications": 3987, "Inter": 3988, "\u0120flags": 3989, "\u0120Start": 3990, "initely": 3991, "\u0120bul": 3992, "\u0120budget": 3993, "\u0120years": 3994, "Another": 3995, "\u0120author": 3996, "\u0120approximately": 3997, "\u0120engineering": 3998, "\u0120inject": 3999, "ront": 4000, "\u0120statist": 4001, ")-": 4002, "No": 4003, "\u0120Can": 4004, "allel": 4005, "phas": 4006, "\u0120privacy": 4007, "https": 4008, "\u0120dependency": 4009, "Testing": 4010, "\u0120High": 4011, "\u012019": 4012, "ensions": 4013, "return": 4014, "ventional": 4015, "atter": 4016, "\u0120eig": 4017, "omial": 4018, "\u0120ge": 4019, "\u0120below": 4020, "\u0120wants": 4021, "\u0120learning": 4022, "\u0120population": 4023, ">>": 4024, "FA": 4025, "\u0120remove": 4026, "small": 4027, "\u0120mass": 4028, "\u0120replace": 4029, "\u0120SE": 4030, "\u0120But": 4031, "\u0120addresses": 4032, "\u0120learned": 4033, "\u0120queries": 4034, "\u0120library": 4035, "\u0120inqu": 4036, "\u0120'./": 4037, "\u0120decre": 4038, "\u0120elevated": 4039, "\u0120encountered": 4040, "33": 4041, "CH": 4042, "Qu": 4043, "\u0120arrays": 4044, "Drawing": 4045, "\u0120trace": 4046, "\u0120heav": 4047, "\u0120concern": 4048, "\u0120discuss": 4049, "):**": 4050, "users": 4051, "Result": 4052, "table": 4053, "wind": 4054, "\u0120future": 4055, "\u0120endpoint": 4056, "\u0120Compute": 4057, "join": 4058, "\u0120traffic": 4059, "subset": 4060, "\u0120distinctions": 4061, "EX": 4062, "ands": 4063, "\u0120UI": 4064, "ik": 4065, "erv": 4066, "\u0120lenses": 4067, "\u0120modes": 4068, "iversal": 4069, "do": 4070, "{}.": 4071, "\u0120temper": 4072, "\u0120immediately": 4073, "\u0120Sc": 4074, "\u0120respect": 4075, "\u0120processes": 4076, "\u0120rapid": 4077, "\u0120configuration": 4078, "ION": 4079, "OP": 4080, "erves": 4081, "icies": 4082, "\u0120PR": 4083, "\u0120cancer": 4084, "\u0120defined": 4085, "\u0120cand": 4086, "roid": 4087, "\u0120answering": 4088, "\u0120variable": 4089, "\u0120frequency": 4090, "\u0120say": 4091, "urb": 4092, "change": 4093, "osite": 4094, "\u0120partition": 4095, "build": 4096, "\".": 4097, "Auth": 4098, "\u0120df": 4099, "\u0120precedents": 4100, "\u0120fn": 4101, "ocument": 4102, "ensor": 4103, ".)": 4104, "mp": 4105, "abil": 4106, "\u0120consum": 4107, "ursor": 4108, "\u0120teams": 4109, "\u0120bur": 4110, "\u0120}}": 4111, "\u0120reminds": 4112, "\u0120attrib": 4113, "insight": 4114, "ocker": 4115, "tim": 4116, "\u0120recon": 4117, "\u0120questioning": 4118, "HERE": 4119, "\u0120sch": 4120, "\u0120rev": 4121, "\u0120collect": 4122, "\u0120attack": 4123, "\u0120surv": 4124, "LT": 4125, "fit": 4126, "orrect": 4127, "\u0120refer": 4128, "\u0120invalid": 4129, "control": 4130, "\u0120perf": 4131, "\u0120assign": 4132, "Module": 4133, "bound": 4134, "npm": 4135, "\u0120At": 4136, "\u0120pur": 4137, "\u0120tox": 4138, "\u0120running": 4139, "\u0120inquiry": 4140, "lict": 4141, "opt": 4142, "iform": 4143, "elete": 4144, "\u0120chronic": 4145, "\u0120frame": 4146, "module": 4147, "marize": 4148, "\u0120theory": 4149, "\u0120looks": 4150, "\u0120amount": 4151, "\u0120calls": 4152, ")/": 4153, "\u0120stage": 4154, "\u0120Git": 4155, "matrix": 4156, "\u0120typically": 4157, "empotency": 4158, "source": 4159, "\u0120family": 4160, "\u0120Ass": 4161, "\u0120timing": 4162, "\u0120sanity": 4163, "eps": 4164, "Read": 4165, "\u0120pivot": 4166, "\u0120Next": 4167, "\u0120stored": 4168, "\u0120months": 4169, "ees": 4170, "oma": 4171, "\u0120note": 4172, "define": 4173, "\u0120entire": 4174, "brid": 4175, "\u0120age": 4176, "ledge": 4177, "password": 4178, "});": 4179, "itation": 4180, "\u0120lines": 4181, "\u0120prom": 4182, "\u0120knowledge": 4183, "Int": 4184, "cache": 4185, "ably": 4186, "\u012040": 4187, "\u0120obser": 4188, "\u0120equival": 4189, "\u0120goals": 4190, "\u0120entries": 4191, "plicity": 4192, "prev": 4193, "erts": 4194, "sort": 4195, "\u0120wors": 4196, "\u0120date": 4197, "plates": 4198, "\u0120policies": 4199, "dt": 4200, "\u0120`.": 4201, "These": 4202, "\u0120As": 4203, "enerate": 4204, "inguish": 4205, "\u0120injury": 4206, "\u0120Value": 4207, ")|": 4208, "CD": 4209, "co": 4210, "\u0120scan": 4211, "\u0120reli": 4212, "\u0120correspon": 4213, "\u0120generally": 4214, ")\\,": 4215, "\u0120allowed": 4216, "\u0120fin": 4217, "\u0120fit": 4218, "\u0120gr": 4219, "\u0120Core": 4220, "\u0120Include": 4221, "\u0120conflict": 4222, "Exception": 4223, "\u0120definition": 4224, "\u0120antibi": 4225, "\u0120pred": 4226, "roller": 4227, "\u0120distinct": 4228, "Past": 4229, "\u0120\\[": 4230, "ponents": 4231, "\u0120dele": 4232, "\u0120kidney": 4233, "lass": 4234, "\u0120wrong": 4235, "\u0120governance": 4236, "\u0120wondering": 4237, "90": 4238, "\u0120called": 4239, "\u0120weeks": 4240, "tool": 4241, "\u0120complexities": 4242, "\u0120visual": 4243, "\u0120deterministic": 4244, "95": 4245, "CRE": 4246, "URL": 4247, "\u0120day": 4248, "\u0120vul": 4249, "\u0120company": 4250, "\u0120extra": 4251, "template": 4252, "\u0120mechanism": 4253, "\u0120publish": 4254, "hood": 4255, "\u0120bre": 4256, "\u0120rational": 4257, "\u0120Ver": 4258, "\u0120Your": 4259, "ological": 4260, "iph": 4261, "\u0120copy": 4262, "\u0120duration": 4263, "height": 4264, "web": 4265, "\u0120template": 4266, "fd": 4267, "stra": 4268, "\u0120asy": 4269, "aged": 4270, "\u0120datas": 4271, "operator": 4272, "\u0120death": 4273, "\u0120clarity": 4274, "\u0120evaluation": 4275, "\u0120syndrome": 4276, "ones": 4277, "\u0120rect": 4278, "\u0120orders": 4279, "\u0120rol": 4280, "\u0120embed": 4281, "\u0120larger": 4282, "\u0120\u00e2\u0136\u0136": 4283, "cir": 4284, "first": 4285, "\u0120Inter": 4286, "gamma": 4287, "window": 4288, "\u0120stra": 4289, "\u0120\\]": 4290, "forward": 4291, "\u0120guarant": 4292, "\u0120smallest": 4293, "\u0120delivery": 4294, "\u0120connection": 4295, "\u0120session": 4296, "\u0120instr": 4297, "**</": 4298, "ifies": 4299, "metrics": 4300, "\u0120written": 4301, "Plan": 4302, "eq": 4303, "\u0120influ": 4304, "\u0120calc": 4305, "my": 4306, "\u0120Work": 4307, "\u0120dashboards": 4308, "la": 4309, "rets": 4310, "\u0120reference": 4311, "\u0120Here": 4312, "ressive": 4313, "\u0120parameter": 4314, "PS": 4315, "inity": 4316, "\u0120drop": 4317, "\u0120glu": 4318, "\u0120De": 4319, "\u0120Because": 4320, "Index": 4321, "\u0120buffer": 4322, "shadow": 4323, "\u0120calcul": 4324, "iddleware": 4325, "\u0120fore": 4326, "\u0120reality": 4327, "\u0120perspective": 4328, "\u0120util": 4329, "\u0120Integ": 4330, "ilerplate": 4331, "istency": 4332, "\u0120Make": 4333, "matory": 4334, "ategy": 4335, "\u0120secret": 4336, "\u0120Any": 4337, "\u0120blocks": 4338, "\u0120container": 4339, "HT": 4340, "year": 4341, "\u0120insert": 4342, "\u0120live": 4343, "\u0120variance": 4344, "\u0120summary": 4345, "\u0120parameters": 4346, "\u0120deployment": 4347, "leep": 4348, "async": 4349, "\u0120----------------------------------------------------------------": 4350, "erate": 4351, "\u0120{\"": 4352, "SIZE": 4353, "\u0120toward": 4354, "osing": 4355, "\u0120json": 4356, "Sc": 4357, "\u0120proposed": 4358, "\u0120involved": 4359, "\u0120hypothesis": 4360, "=(": 4361, "erive": 4362, "Content": 4363, "14": 4364, "\u0120tick": 4365, "\u0120automatically": 4366, "\u0120thoroughly": 4367, "First": 4368, "gth": 4369, "\u0120Sim": 4370, "\u0120assess": 4371, "rength": 4372, "\u0120ethics": 4373, "gence": 4374, "\u0120suffering": 4375, "\u0120deserves": 4376, "\u0120particular": 4377, "\u0120duplicates": 4378, "\u0120rollback": 4379, "SR": 4380, "\u0120CLI": 4381, "\u0120adj": 4382, "\u0120priorit": 4383, "He": 4384, "cial": 4385, "urable": 4386, "apse": 4387, "\u0120smo": 4388, "system": 4389, "etermine": 4390, "\u0120acknowledging": 4391, "\u0120ing": 4392, "ryption": 4393, "poss": 4394, "\u0120upper": 4395, "\u0120medic": 4396, "\u0120explored": 4397, "\u0120decomposition": 4398, "DD": 4399, "dL": 4400, "\u0120pure": 4401, "aring": 4402, "\u0120processing": 4403, "\u0120hashing": 4404, "Count": 4405, "high": 4406, "ilib": 4407, "\u0120medical": 4408, "Cre": 4409, "\u0120Anal": 4410, "\u0120Write": 4411, "\u0120longer": 4412, "\u0120initially": 4413, "Hand": 4414, "ded": 4415, "graph": 4416, "}_": 4417, "\u0120four": 4418, "\u0120word": 4419, "\u0120module": 4420, "filter": 4421, "Approaching": 4422, "$.": 4423, "Element": 4424, "mand": 4425, "rust": 4426, "\u0120Dis": 4427, "\u0120Log": 4428, "\u0120env": 4429, "\u0120operation": 4430, "info": 4431, "\u0120Par": 4432, "\u0120incident": 4433, "Map": 4434, "oose": 4435, "\u0120merge": 4436, "\u0120bacter": 4437, "\u0120os": 4438, "\u0120minutes": 4439, "\u0120clinically": 4440, "egin": 4441, "reasoned": 4442, "\u0120square": 4443, "payload": 4444, "With": 4445, "inters": 4446, "reed": 4447, "\u0120mus": 4448, "\u0120rates": 4449, "\u0120alert": 4450, "17": 4451, "IG": 4452, "\u0120inform": 4453, "\u0120emphas": 4454, "\u0120React": 4455, "ker": 4456, "\u0120choices": 4457, "Server": 4458, "Ref": 4459, "css": 4460, "\u0120generating": 4461, "\u0120properties": 4462, "Designing": 4463, "\u0120consequ": 4464, "\u0120SD": 4465, "select": 4466, "\u0120anti": 4467, "\u0120vulner": 4468, "och": 4469, "yles": 4470, "\u0120none": 4471, "ude": 4472, "Socket": 4473, "den": 4474, "dim": 4475, "\u0120rollout": 4476, "enge": 4477, "roke": 4478, "\u0120bug": 4479, "\u0120Check": 4480, "ersion": 4481, "\u0120setting": 4482, "\u0120detailed": 4483, "\u0120built": 4484, "ots": 4485, "\u0120Date": 4486, "\u0120Dict": 4487, "());": 4488, "bra": 4489, "fg": 4490, "\u0120enable": 4491, "akes": 4492, "\u0120highest": 4493, "\u0120justify": 4494, "structions": 4495, "200": 4496, "\u0120pi": 4497, "\u0120mom": 4498, "\u0120priority": 4499, "dge": 4500, "\u0120giving": 4501, "\u0120Per": 4502, "iques": 4503, "\u0120advanced": 4504, ")]": 4505, ")}{": 4506, "\u0120recovery": 4507, "operatorname": 4508, "My": 4509, "alls": 4510, "40": 4511, "rout": 4512, "\u0120anomal": 4513, "\u0120OR": 4514, "\u0120previous": 4515, "Arg": 4516, "\u0120straight": 4517, "Calculate": 4518, "gle": 4519, "\u0120solid": 4520, "\u0120creating": 4521, "\u0120assuming": 4522, ".\"\"\"": 4523, "Token": 4524, "uard": 4525, "what": 4526, "common": 4527, "Product": 4528, "\u0120worst": 4529, "friend": 4530, "\u0120fair": 4531, "Status": 4532, "\u0120classes": 4533, "\u0120integral": 4534, "istance": 4535, "area": 4536, "\u0120reads": 4537, "\u0120improves": 4538, "\u0120feedback": 4539, "dx": 4540, "\u0120console": 4541, "\u0120outside": 4542, "bs": 4543, "counter": 4544, "\u0120sin": 4545, "\u0120repl": 4546, "\u0120appl": 4547, "project": 4548, "\u0120pool": 4549, "\u0120minor": 4550, "\u0120medication": 4551, "aneous": 4552, "AS": 4553, "Message": 4554, "\u0120gate": 4555, "\u0120chunk": 4556, "Item": 4557, "direct": 4558, "\u0120stores": 4559, "\u0120\\).": 4560, "\u0120cred": 4561, "option": 4562, "zero": 4563, "\u0120pan": 4564, "\u0120war": 4565, "\u0120arbit": 4566, "PR": 4567, "net": 4568, "uction": 4569, "ailwind": 4570, "rowser": 4571, "========": 4572, "\u0120communication": 4573, "\u0120something": 4574, "\u0120JavaScript": 4575, "langle": 4576, "}\"": 4577, "isms": 4578, "\u0120equilib": 4579, "\u0120attempt": 4580, "ournal": 4581, "\u0120detail": 4582, "\u0120helps": 4583, "tle": 4584, "\u0120mental": 4585, "ung": 4586, "\u0120calculate": 4587, "\u0120authent": 4588, "\u00e2\u0136\u0122\u00e2\u0136\u0122\u00e2\u0136\u0122\u00e2\u0136\u0122\u00e2\u0136\u0122\u00e2\u0136\u0122\u00e2\u0136\u0122\u00e2\u0136\u0122": 4589, "From": 4590, "\u0120Up": 4591, "\u0120parallel": 4592, "\u0120endpoints": 4593, "\u0120Trans": 4594, "uint": 4595, "omen": 4596, "\u0120hosp": 4597, "\u0120Pl": 4598, "^{\\": 4599, "\u0120allows": 4600, "books": 4601, "\u0120mal": 4602, "\u0120Aut": 4603, "\u0120Dec": 4604, "aily": 4605, "\u0120classic": 4606, "\u0120findings": 4607, "SER": 4608, "\u0120smaller": 4609, "\u0120trad": 4610, "\u0120har": 4611, "\u0120game": 4612, "\u0120500": 4613, "\u0120convergence": 4614, "\u0120writes": 4615, "\\,\\": 4616, "meta": 4617, "pag": 4618, "send": 4619, "\u0120ve": 4620, "\u0120dose": 4621, "\u0120argparse": 4622, "FS": 4623, "Not": 4624, "\u0120sys": 4625, "gebra": 4626, "\u0120assumption": 4627, "device": 4628, "iers": 4629, "prod": 4630, "\u0120expression": 4631, "\u0120semantics": 4632, "itors": 4633, "\u0120Rout": 4634, "------------------------": 4635, "\u0120satisfy": 4636, "\u0120Redis": 4637, "([": 4638, "\u0120aim": 4639, "score": 4640, "\u0120machine": 4641, "Ms": 4642, "iting": 4643, "\u0120These": 4644, "\u0120soft": 4645, "\u0120remaining": 4646, "\u0120sometimes": 4647, "arily": 4648, "uster": 4649, "\u0120Bash": 4650, "cluding": 4651, "\u0120causing": 4652, "256": 4653, "\u0120launch": 4654, "\u0120rank": 4655, "\u0120primes": 4656, "\u0120occurs": 4657, "\u0120outcome": 4658, "\"],": 4659, "Rout": 4660, "otics": 4661, "\u0120trust": 4662, "\u0120mapping": 4663, "\u0120secure": 4664, "Response": 4665, "memory": 4666, "\u0120telemetry": 4667, "All": 4668, "\u0120turn": 4669, "\u0120Col": 4670, "\u0120accord": 4671, "\u0120practices": 4672, "\u0120simplicity": 4673, "\u0120timestamp": 4674, "nu": 4675, "\u0120ded": 4676, "angular": 4677, "\u0120words": 4678, "driven": 4679, "del": 4680, "\u0120done": 4681, "ostic": 4682, "\u0120Us": 4683, "\u0120colors": 4684, "\u0120phen": 4685, "Prove": 4686, "Be": 4687, "\\/": 4688, "fs": 4689, "uit": 4690, "\u0120meet": 4691, "\u0120Read": 4692, "\u0120transmission": 4693, "\u0120acid": 4694, "\u0120rare": 4695, "response": 4696, "cd": 4697, "loor": 4698, "\u0120((": 4699, "\u0120description": 4700, "\u00cf\u0122": 4701, "\u0120kernel": 4702, "\u012042": 4703, "tein": 4704, "\u0120poor": 4705, "\u0120coefficient": 4706, "\u0120vas": 4707, "\u0120obtain": 4708, "\u0120pointers": 4709, "\u0120keeping": 4710, "Async": 4711, "begin": 4712, "arter": 4713, "urther": 4714, "ventory": 4715, "\u0120hybrid": 4716, "Load": 4717, "unction": 4718, "\u0120leak": 4719, "ocal": 4720, "\u0120roots": 4721, "xi": 4722, "Ob": 4723, "empty": 4724, "ibly": 4725, "Build": 4726, "csv": 4727, "\u0120sides": 4728, "\u0120FROM": 4729, "\u0120button": 4730, "\u0120tempor": 4731, "\u0120establish": 4732, "txt": 4733, "\u0120\u00c3\u0139": 4734, "\u0120pul": 4735, "\u0120front": 4736, "\u0120conv": 4737, "ria": 4738, "\u0120\u00e2\u012b\u00a4": 4739, "PE": 4740, "find": 4741, "../": 4742, "ynomial": 4743, "\u0120IDs": 4744, "\u0120gluc": 4745, "fill": 4746, "optional": 4747, "this": 4748, "\u0120simulate": 4749, "\u0120phase": 4750, "\u0120auton": 4751, "\u0120programming": 4752, "\u0120appear": 4753, "apping": 4754, "\u0120ideas": 4755, "\u0120commands": 4756, "\u0120legal": 4757, "Get": 4758, "\u0120href": 4759, "\u0120stroke": 4760, "ister": 4761, "ros": 4762, "icated": 4763, "\u0120Ph": 4764, "\u0120[\"": 4765, "\u0120My": 4766, "\u0120concurrent": 4767, "\u0120bias": 4768, "layer": 4769, "\u0120Output": 4770, "\u0120tren": 4771, "omorph": 4772, "ames": 4773, "abor": 4774, "Input": 4775, "\u0120records": 4776, "\u0120efficiency": 4777, "\u0120Yes": 4778, "\u0120among": 4779, "iologic": 4780, "utive": 4781, "rief": 4782, "aves": 4783, "oice": 4784, "\u0120Fl": 4785, "\u0120round": 4786, "ips": 4787, "\u0120actual": 4788, "\u0120concepts": 4789, "\u0120increasing": 4790, "\u0120estimate": 4791, "\u0120natural": 4792, "rim": 4793, "\u0120recogn": 4794, ">`": 4795, "zz": 4796, "update": 4797, "\u0120concurrency": 4798, "!**": 4799, "Head": 4800, "room": 4801, "ivate": 4802, "\u0120exceed": 4803, "array": 4804, ",\"": 4805, "Code": 4806, "sw": 4807, "\u0120Met": 4808, "bg": 4809, "\u0120tables": 4810, "ulti": 4811, "oster": 4812, "spect": 4813, "\u0120failures": 4814, "mediate": 4815, "']": 4816, "Ass": 4817, "Can": 4818, "\u010a\u0120\u0120\u0120\u0120\u0120\u0120": 4819, "\u0120Em": 4820, "\u0120Find": 4821, "\u0120persist": 4822, "\u0120property": 4823, "\u0120connected": 4824, "\u0120execution": 4825, "When": 4826, "\u0120curve": 4827, ")\\).": 4828, "CU": 4829, "\u0120bar": 4830, "rails": 4831, "\u0120register": 4832, "ifically": 4833, "ampling": 4834, "\u0120uniform": 4835, "format": 4836, "\u0120levels": 4837, "\u0120url": 4838, "sign": 4839, "\u0120compat": 4840, "\u0120provided": 4841, "\u0120modeling": 4842, "\u0120diab": 4843, "\u0120teach": 4844, "\u0120exponential": 4845, "bytes": 4846, "attern": 4847, "\u0120Svelte": 4848, "cles": 4849, "\u0120polynomial": 4850, "\u0120APIs": 4851, "gn": 4852, "strip": 4853, "\u0120retention": 4854, "\u0120overall": 4855, "Example": 4856, "\u0120partial": 4857, "\u0120severity": 4858, "\u0120surface": 4859, "\u0120avoids": 4860, "espace": 4861, "\u0120experiments": 4862, "\u0120player": 4863, "\u0120caching": 4864, "Form": 4865, "ged": 4866, "number": 4867, "}:": 4868, "idation": 4869, "\u0120Form": 4870, "\u0120Apply": 4871, "olean": 4872, "br": 4873, "\u0120actually": 4874, "\u0120fluid": 4875, "ooks": 4876, "\u0120arbitr": 4877, "['": 4878, "\u0120rad": 4879, "related": 4880, "\u0120instructions": 4881, "eter": 4882, "ptr": 4883, "\u0120idx": 4884, "erialize": 4885, "\u0120topological": 4886, "\u0120Return": 4887, "mation": 4888, "atin": 4889, "\u0120personal": 4890, "\u0120memb": 4891, "\u0120snapshot": 4892, "ply": 4893, "portion": 4894, "\u0120adding": 4895, "\u0120benefits": 4896, "theme": 4897, "olicy": 4898, "cons": 4899, "\u0120products": 4900, "Why": 4901, "\u0120calculation": 4902, "35": 4903, "yond": 4904, "}=\\": 4905, "leed": 4906, "\u0120beyond": 4907, "\u0120[[": 4908, "ING": 4909, "used": 4910, "\u0120imposs": 4911, "tau": 4912, "\u0120matching": 4913, "\u0120occur": 4914, "\u0120synthesis": 4915, "\u0120mm": 4916, "\u0120enter": 4917, "\u0120screening": 4918, "greSQL": 4919, "II": 4920, "\u0120cou": 4921, "\u0120yields": 4922, "\u012080": 4923, "paring": 4924, "\u0120experiment": 4925, "varphi": 4926, "plot": 4927, "rr": 4928, "ird": 4929, "\u0120statements": 4930, "friendly": 4931, "45": 4932, "\u0120tag": 4933, "\u0120hor": 4934, "\u0120unknown": 4935, "\u0120selection": 4936, "ENT": 4937, "\u0120children": 4938, "\u0120symbol": 4939, "rams": 4940, "\u0120Keep": 4941, "\u0120follows": 4942, ".\",": 4943, "ipp": 4944, "\u0120fill": 4945, "\u0120togg": 4946, "\u0120AR": 4947, "\u0120resol": 4948, "\u0120notes": 4949, "\u0120spaces": 4950, "\u0120noise": 4951, "Prov": 4952, "\u0120templates": 4953, "\u0120opposite": 4954, "\\):": 4955, "\u0120LRU": 4956, "\u0120Using": 4957, "\u0120comparison": 4958, "\u0120half": 4959, "bal": 4960, "ov": 4961, "entry": 4962, "very": 4963, "\u0120Des": 4964, "\u0120challenge": 4965, "KD": 4966, "Each": 4967, "\u0120whole": 4968, "\u0120`/": 4969, "defined": 4970, "\u0120Error": 4971, "words": 4972, "\u0120equilibrium": 4973, "IL": 4974, "\u0120catch": 4975, "\u0120pages": 4976, "\u0120AND": 4977, "\u0120Open": 4978, "\u0120pointer": 4979, "\u0120preferred": 4980, "\u0120thresholds": 4981, "\u0120meaningful": 4982, "\u0120Requirements": 4983, "!</": 4984, "Line": 4985, "iate": 4986, "\u0120SLO": 4987, "elling": 4988, "rows": 4989, "\u0120depending": 4990, "\u0120focusing": 4991, "\u0120techniques": 4992, "\u0120labels": 4993, "\u0120extreme": 4994, "\u0120inequ": 4995, "\u0120na": 4996, "\u0120-->": 4997, "\u0120boundaries": 4998, "writ": 4999, "\u0120land": 5000, "\u0120strings": 5001, "\u0120additional": 5002, "\u0120activity": 5003, "\u0120loading": 5004, "types": 5005, "\u0120moment": 5006, "inates": 5007, "\u0120bind": 5008, "\u0120Is": 5009, "\u0120roles": 5010, "\u0120With": 5011, "\u0120pharm": 5012, "\u0120remote": 5013, "\u0120connect": 5014, "=$": 5015, "NT": 5016, "bum": 5017, "\u0120water": 5018, "ctive": 5019, "\u0120CPU": 5020, "\u0120corrected": 5021, "Trans": 5022, "\u0120fallback": 5023, "\u0120vertices": 5024, "\u0120consciousness": 5025, "%,": 5026, "CO": 5027, "\u0120bleed": 5028, "image": 5029, "ritical": 5030, "Initial": 5031, "\u0120instance": 5032, "dp": 5033, "\u0120further": 5034, "\u0120watch": 5035, "\u0120boilerplate": 5036, "\u0120standards": 5037, "Ver": 5038, "ello": 5039, "oses": 5040, "oggle": 5041, "\u0120smooth": 5042, "gular": 5043, "\u0120Reg": 5044, "\u0120unn": 5045, "\u0120infinitely": 5046, "LA": 5047, "ender": 5048, "\u0120\"__": 5049, "SELECT": 5050, ")^{": 5051, "ij": 5052, "oom": 5053, "ician": 5054, "\u0120export": 5055, "\u0120universal": 5056, ")\\),": 5057, "cin": 5058, "}\\).": 5059, "\u0120ign": 5060, "inks": 5061, "letion": 5062, "aults": 5063, "haps": 5064, "ortality": 5065, "\u0120routes": 5066, "\u0120assumes": 5067, "float": 5068, "wo": 5069, "\u0120ease": 5070, "\u0120Not": 5071, "0000": 5072, "\u0120Maintain": 5073, "\u0120ValueError": 5074, "chem": 5075, "\u0120gl": 5076, "__\":": 5077, "\u0120responses": 5078, "\u0120school": 5079, "CR": 5080, "None": 5081, "Task": 5082, "uple": 5083, "ze": 5084, "\u0120radi": 5085, "\u0120append": 5086, "\u00e2\u0136\u013e": 5087, "\u0120material": 5088, "sets": 5089, "\u0120study": 5090, "\u0120hospital": 5091, "\"),": 5092, "05": 5093, "job": 5094, "chest": 5095, "\u0120loc": 5096, "\u0120settings": 5097, "primary": 5098, "\u0120observation": 5099, "Select": 5100, "View": 5101, "\u0120failed": 5102, "\u0120density": 5103, "\u0120beli": 5104, "\u0120stress": 5105, "ounds": 5106, "\u0120DE": 5107, "----------": 5108, "\u0120consistency": 5109, "context": 5110, "\u0120circ": 5111, "\u0120msg": 5112, "sk": 5113, "romise": 5114, "\u0120images": 5115, "\u0120routing": 5116, "?\u00e2\u0122\u013f": 5117, "ASE": 5118, "\u0120positions": 5119, "\u0120signals": 5120, "\u0120derive": 5121, "which": 5122, "\u0120names": 5123, "Solve": 5124, "\u0120coun": 5125, "ptim": 5126, "\u0120ensures": 5127, "\u0120combinator": 5128, "Explaining": 5129, "nab": 5130, "uzz": 5131, "erve": 5132, "onic": 5133, "thread": 5134, "seq": 5135, "strict": 5136, "\u0120infinity": 5137, "\u0120formal": 5138, "\u0120optimized": 5139, "\u0120analytic": 5140, "CP": 5141, "False": 5142, "rategy": 5143, "keys": 5144, "click": 5145, "INT": 5146, "\u0120views": 5147, "\u0120aligns": 5148, "\u0120Summarize": 5149, "\u0120PostgreSQL": 5150, "\u0120Does": 5151, "\u0120py": 5152, "\u0120Sub": 5153, "\u0120alerts": 5154, "tsx": 5155, "pert": 5156, "\u0120Man": 5157, "\u0120Input": 5158, "\u0120coverage": 5159, "approx": 5160, "UT": 5161, "\u0120cogn": 5162, "amps": 5163, "izable": 5164, "\u0120planning": 5165, "\u0120safely": 5166, "\u0120immune": 5167, "ites": 5168, "\u0120Thus": 5169, "remove": 5170, "\u0120surve": 5171, "\u0120delete": 5172, "lear": 5173, "\u0120whose": 5174, "ortic": 5175, "\u0120By": 5176, "\u0120trial": 5177, "\u0120geomet": 5178, "\u0120sizes": 5179, "\u0120prefix": 5180, "\u0120surg": 5181, "allow": 5182, "\u0120Rust": 5183, "\u0120weights": 5184, "\u0120metric": 5185, "lines": 5186, "patch": 5187, "\u0120sound": 5188, "\u0120pd": 5189, "\u0120(\u00e2\u0122\u013e": 5190, "\u0120impl": 5191, "\u0120customers": 5192, "going": 5193, "Up": 5194, "amb": 5195, "\u0120Time": 5196, "\u0120approval": 5197, "\u0120plt": 5198, "\u0120educ": 5199, "\u0120protect": 5200, ">(": 5201, "aired": 5202, "grid": 5203, "udit": 5204, "(\"--": 5205, "\u0120Key": 5206, "Listener": 5207, "\u0120capture": 5208, "package": 5209, "roph": 5210, "\u0120shift": 5211, "\u0120BY": 5212, "\u0120road": 5213, "\u0120Option": 5214, "\u0120transaction": 5215, "\u0120book": 5216, "\u0120artifacts": 5217, "break": 5218, "lim": 5219, "ux": 5220, "}\\),": 5221, "\u0120research": 5222, "\u0120({": 5223, "\u0120Derive": 5224, "\u0120complement": 5225, "!--": 5226, "\u0120yield": 5227, "\u0120drift": 5228, "\u0120determine": 5229, "\u0120recursive": 5230, "negative": 5231, "Patient": 5232, "iment": 5233, "\u0120\\),": 5234, "\u0120Task": 5235, "\u0120sync": 5236, "cellation": 5237, "ABLE": 5238, "Ad": 5239, "core": 5240, "ios": 5241, "orn": 5242, "aph": 5243, "\u0120substant": 5244, "Run": 5245, "long": 5246, "yroid": 5247, "\u0120exc": 5248, "slate": 5249, "otential": 5250, "\u0120relat": 5251, "\u0120coh": 5252, "\u0120verification": 5253, "Kit": 5254, "\u0120faster": 5255, "\u012013": 5256, "\u0120beta": 5257, "command": 5258, "\u0120backend": 5259, "\u0120hypert": 5260, "ById": 5261, "valuate": 5262, "Ent": 5263, "\u0120soci": 5264, "ugg": 5265, "ophys": 5266, "\u0120hardware": 5267, "\u0120nuanced": 5268, "\u0120segment": 5269, "\u0120DAG": 5270, "\u0120recept": 5271, "Rate": 5272, "lig": 5273, "ulin": 5274, "adjust": 5275, "\u0120algebra": 5276, "\u0120admin": 5277, "\u0120activation": 5278, "subseteq": 5279, "\u0120wra": 5280, "\u0120\\\\": 5281, "ository": 5282, "\u0120involve": 5283, "\u0120favored": 5284, "\u0120odd": 5285, "\u0120invari": 5286, "\u0120Angular": 5287, "\u0120relationships": 5288, "\u0120eigen": 5289, "****": 5290, "\u0120ON": 5291, "Date": 5292, "tok": 5293, "\u0120Success": 5294, "track": 5295, "\u012090": 5296, "\u0120owner": 5297, "Post": 5298, "customer": 5299, "ycle": 5300, "\u0120shell": 5301, "\u0120resistance": 5302, "\u0120spect": 5303, "feature": 5304, "Next": 5305, "vector": 5306, "}}{": 5307, "\u0120touch": 5308, "enario": 5309, "\u0120student": 5310, "EventListener": 5311, "\u0120susp": 5312, "hn": 5313, "\u0120theories": 5314, "\u0120Config": 5315, "missions": 5316, "\u0120isn": 5317, "ritis": 5318, "\u0120Product": 5319, "\u0120extend": 5320, "\u0120studies": 5321, "center": 5322, "\u0120\u00e2\u0136\u013e\u00e2\u0136\u0122\u00e2\u0136\u0122": 5323, "\u0120dysfunction": 5324, "\u0120temperature": 5325, "BC": 5326, "Bu": 5327, "false": 5328, "mia": 5329, "\u0120men": 5330, "\u0120story": 5331, "ump": 5332, "\u0120classical": 5333, "\u0120transfer": 5334, "\u0120reducing": 5335, "price": 5336, "\u0120principle": 5337, "\u0120automated": 5338, "\u0120preferences": 5339, "\u0120associated": 5340, "\u0120arbitrary": 5341, "\u0120unnecessary": 5342, "EM": 5343, "\u0120generation": 5344, "\u0120boot": 5345, "rolling": 5346, "ography": 5347, "\u0120naive": 5348, "oral": 5349, "\u0120hom": 5350, "ueue": 5351, "\u0120emp": 5352, "\u0120effort": 5353, "\u0120effectively": 5354, "\u0120bleeding": 5355, "IC": 5356, "drop": 5357, "\u012017": 5358, "bucket": 5359, "\u0120preserves": 5360, "\u0120constructive": 5361, "atalog": 5362, "\u0120according": 5363, "New": 5364, "rl": 5365, "scale": 5366, "erc": 5367, "\u0120inher": 5368, "\u0120IV": 5369, "\u0120residual": 5370, "\u0120inflammation": 5371, "\"`": 5372, "tip": 5373, "\u0120lack": 5374, "exts": 5375, "localhost": 5376, "\u0120vertex": 5377, ")?": 5378, "Text": 5379, "btn": 5380, "eses": 5381, "itution": 5382, "\u0120mil": 5383, "oney": 5384, "sole": 5385, "\u0120experimental": 5386, "\u0120beginner": 5387, "\u0120SELECT": 5388, "aced": 5389, "\u0120starts": 5390, "ruction": 5391, "\u0120sensitivity": 5392, "\u0120opacity": 5393, "Limit": 5394, "Phi": 5395, "rations": 5396, "ctx": 5397, "\u0120Support": 5398, "\u0120conserv": 5399, "avas": 5400, "\u0120clarifying": 5401, "\u0120interpretation": 5402, "aff": 5403, "\u00e2\u012a": 5404, "isely": 5405, "child": 5406, "Inst": 5407, "\u0120loops": 5408, "\u0120analytics": 5409, "simple": 5410, "\u0120combinatorial": 5411, "500": 5412, "KEY": 5413, "SO": 5414, "\u0120food": 5415, "\u0120fmt": 5416, "\u0120narrow": 5417, "\u0120CD": 5418, "clus": 5419, "\u0120channel": 5420, "orders": 5421, "created": 5422, "\u0120behind": 5423, "\u0120keeps": 5424, "\u0120selected": 5425, "\u0120Summary": 5426, "\u0120rotation": 5427, "\u0120candidate": 5428, "avascript": 5429, "Using": 5430, "border": 5431, "eration": 5432, "\u0120dark": 5433, "ups": 5434, "\u0120Map": 5435, "\u0120Hand": 5436, "\u0120Given": 5437, "\u0120regular": 5438, "\u0120concent": 5439, "king": 5440, "most": 5441, "icon": 5442, "\u0120\u0120\u0120\u0120\u0120\u0120\u0120\u0120\u0120": 5443, "produ": 5444, "\u0120heap": 5445, "\u0120translate": 5446, "\u0120recall": 5447, "\u0120risky": 5448, "ART": 5449, "\u0120improvement": 5450, "\u0120consequences": 5451, "Open": 5452, "Your": 5453, "\u0120section": 5454, "\u0120pseud": 5455, "\u0120fraction": 5456, "\u0120him": 5457, "\u0120cong": 5458, "\u0120got": 5459, "\u0120Rem": 5460, "\u012032": 5461, "\u0120introduces": 5462, "Argument": 5463, "Dis": 5464, "\u0120aria": 5465, "\u0120site": 5466, "\u0120oxy": 5467, "\u0120arguments": 5468, "\u0120typing": 5469, "\u0120costs": 5470, "\u0120escal": 5471, "\u0120glucose": 5472, "pop": 5473, "ride": 5474, "Start": 5475, "encing": 5476, "random": 5477, "split": 5478, "uria": 5479, "\u0120van": 5480, "\u0120Over": 5481, "}\\,": 5482, "\u0120timest": 5483, "\u0120??": 5484, "FR": 5485, "javascript": 5486, "\u0120stability": 5487, "\u0120Event": 5488, "\u00e2\u0122\u013f)": 5489, "msg": 5490, "Repository": 5491, "deg": 5492, "\u0120magn": 5493, "\u0120daily": 5494, "\u0120induct": 5495, "\u0120hit": 5496, "\u0120hidden": 5497, "ops": 5498, "\u0120secrets": 5499, "ructure": 5500, "\u0120favor": 5501, "\u0120easy": 5502, "hyd": 5503, "\u0120equivalent": 5504, "range": 5505, "ui": 5506, "\u0120tum": 5507, "\u0120medi": 5508, "\u0120Docker": 5509, "\u0120EX": 5510, "\u0120contact": 5511, "scss": 5512, "services": 5513, "\u0120links": 5514, "full": 5515, "gers": 5516, "\u0120od": 5517, "expect": 5518, "rier": 5519, "ternative": 5520, "\u0120stakeholder": 5521, "\u0120Verify": 5522, "delete": 5523, "\u0120mid": 5524, "\u0120dam": 5525, "unc": 5526, "ema": 5527, "chang": 5528, "ague": 5529, "\u0120someone": 5530, "\u0120typical": 5531, "accur": 5532, "\u0120inflammatory": 5533, "\u010a\u0120\u0120\u0120\u0120\u0120\u0120\u0120\u0120\u0120\u0120\u0120\u0120\u0120\u0120\u0120\u0120\u0120\u0120\u0120\u0120\u0120\u0120\u0120\u0120\u0120\u0120\u0120": 5534, "CREATE": 5535, "\u0120nature": 5536, "though": 5537, "\u0120travel": 5538, "region": 5539, "annels": 5540, "vascular": 5541, "\u0120toxicity": 5542, "\u0120diabetes": 5543, "tract": 5544, "\u0120save": 5545, "ising": 5546, "\u0120repos": 5547, "\u0120Design": 5548, "ills": 5549, "\u0120distinguish": 5550, "neum": 5551, "metric": 5552, "\u0120tracking": 5553, "\u0120layers": 5554, "Dec": 5555, "\u0120bridge": 5556, "assium": 5557, "osen": 5558, "\u0120Ref": 5559, "\u0120Rev": 5560, "__(": 5561, "\u0120ideal": 5562, "Handler": 5563, "nabla": 5564, "Us": 5565, "ectors": 5566, "\u01201000": 5567, "osph": 5568, "\u0120encryption": 5569, "\u0120robustness": 5570, "\u0120serialize": 5571, "\u0120perfect": 5572, "\u0120observed": 5573, "CL": 5574, "tag": 5575, "orpor": 5576, "\u0120Avoid": 5577, "article": 5578, "\u0120Graph": 5579, "\u0120highlight": 5580, "\u0120regression": 5581, "\u0120otherwise": 5582, "\u0120stronger": 5583, "\u0120updated": 5584, "handle": 5585, "\u0120torus": 5586, "leq": 5587, "\u0120toler": 5588, "\u0120jo": 5589, "\u0120expans": 5590, "\u0120desp": 5591, "\u0120board": 5592, "\u0120delta": 5593, "\u0120render": 5594, "onia": 5595, "\u0120`(": 5596, "acters": 5597, "\u0120Min": 5598, "components": 5599, "appa": 5600, "\u0120ordering": 5601, "\u0120immun": 5602, "\u0120reports": 5603, "\u0120easier": 5604, "\u0120CSV": 5605, "pc": 5606, "\u0120exit": 5607, "exec": 5608, "\u0120upon": 5609, "\u0120smok": 5610, "\u0120changed": 5611, "\u0120commonly": 5612, "########": 5613, "fetch": 5614, "\u010a\u010a\u0120\u0120": 5615, "\u0120clock": 5616, "eck": 5617, "\u0120pathophys": 5618, "\u0120reading": 5619, "riority": 5620, "\u0120phenomen": 5621, "/\\": 5622, "Met": 5623, "TT": 5624, "]]": 5625, "astic": 5626, "\u0120recent": 5627, "obile": 5628, "neq": 5629, "clear": 5630, "constra": 5631, "\u0120issue": 5632, "\u0120collapse": 5633, "\u0120SvelteKit": 5634, "*.": 5635, "dig": 5636, "sample": 5637, "\u0120ven": 5638, "\u0120WHERE": 5639, "\u0120accum": 5640, "cdots": 5641, "urrence": 5642, "\u0120laws": 5643, "\u0120brief": 5644, "\u0120ech": 5645, "\u0120transport": 5646, "\u0120transparent": 5647, "\u0120supported": 5648, "\u0120urgent": 5649, "Model": 5650, "`).": 5651, "fn": 5652, "sys": 5653, "\u0120throm": 5654, "\u0120units": 5655, "\u0120simply": 5656, "\u0120interaction": 5657, "\u0120complet": 5658, "\u0120$\\": 5659, "\u0120handles": 5660, "\u0120identified": 5661, "\u0120targets": 5662, "bigu": 5663, "\u0120affected": 5664, "\u0120burden": 5665, "circ": 5666, "router": 5667, "\u0120straightforward": 5668, "\u0120mortality": 5669, "icial": 5670, "\u0120proportion": 5671, "\u0120subject": 5672, "\u0120handler": 5673, "pathy": 5674, "\u0120philosophical": 5675, "\u0120TypeScript": 5676, "FI": 5677, "bl": 5678, "uly": 5679, "\u0120made": 5680, "idity": 5681, "\u0120development": 5682, "\u0120Model": 5683, "WT": 5684, "lace": 5685, "icate": 5686, "amin": 5687, "\u0120Patient": 5688, "\u012085": 5689, "\u0120measures": 5690, "\u0120platforms": 5691, "\u0120despite": 5692, "\u0120proced": 5693, "chain": 5694, "\u0120intr": 5695, "\u0120quot": 5696, "arian": 5697, "\u0120jud": 5698, "\u0120expand": 5699, "\u0120subsequ": 5700, "\u0120discrim": 5701, "ORT": 5702, "\u0120containing": 5703, "files": 5704, "CS": 5705, "]),": 5706, "cmd": 5707, "including": 5708, "\u0120strength": 5709, "\u0120vent": 5710, "agement": 5711, "\u0120seed": 5712, "\u0120workers": 5713, "\u0120refus": 5714, "\u0120increased": 5715, "\u0120prevents": 5716, "\u0120affect": 5717, "columns": 5718, "\u0120neighbor": 5719, "Creating": 5720, "'),": 5721, "Size": 5722, "sure": 5723, "\u0120mot": 5724, "derr": 5725, "\u0120equations": 5726, "\u0120extract": 5727, "floor": 5728, "\u0120seems": 5729, "\u0120acqu": 5730, "schema": 5731, "iveness": 5732, "\u0120guide": 5733, "?.": 5734, "Break": 5735, "med": 5736, "oll": 5737, "\u0120lung": 5738, "\u0120intervention": 5739, "ologic": 5740, "piratory": 5741, "aclass": 5742, "\u0120lit": 5743, "izon": 5744, "headers": 5745, "\u0120characters": 5746, "\u0120antibiotics": 5747, "uling": 5748, "odo": 5749, "\u0120profile": 5750, "expected": 5751, "\u0120plain": 5752, "ierarch": 5753, "\u0120increment": 5754, "axis": 5755, "\u0120snipp": 5756, "\u0120frag": 5757, "img": 5758, "\u0120forms": 5759, "That": 5760, "\u0120duplicate": 5761, "urbation": 5762, "\"{": 5763, "'.": 5764, "85": 5765, "motion": 5766, "\u0120\u00c2": 5767, "inating": 5768, "ised": 5769, "\u0120older": 5770, "\u0120oxygen": 5771, "close": 5772, "\u0120repo": 5773, "odium": 5774, "\u0120Auth": 5775, "\u0120`<": 5776, "aved": 5777, "\u0120abst": 5778, "\u0120versions": 5779, "\u0120operational": 5780, "layout": 5781, "}^{\\": 5782, "\u0120treated": 5783, "\u0120dynam": 5784, "\u0120vice": 5785, "struction": 5786, "\u0120kind": 5787, "\u0120heur": 5788, "\u0120seconds": 5789, "addEventListener": 5790, "\u0120package": 5791, "\u0120sampling": 5792, "rot": 5793, "\u0120dual": 5794, "amil": 5795, "ibration": 5796, "\u0120Prove": 5797, "\u0120improved": 5798, "\u0120definitions": 5799, "\u0120Service": 5800, "\u0120~": 5801, "\u0120---": 5802, "\u0120foot": 5803, "\u0120bits": 5804, "\u0120metab": 5805, "\u0120empir": 5806, "\u0120sufficient": 5807, "copy": 5808, "dep": 5809, "\u0120said": 5810, "stable": 5811, "\u0120CR": 5812, "\u0120Car": 5813, "charge": 5814, "\u0120shif": 5815, "\u0120describe": 5816, "\u0120overhead": 5817, "objective": 5818, "loads": 5819, "\u0120vulnerability": 5820, "Red": 5821, "Reg": 5822, "az": 5823, "bon": 5824, "util": 5825, "\u0120chosen": 5826, "\u0120retry": 5827, "\u0120highly": 5828, "\u0120generated": 5829, "issue": 5830, "\u0120deliver": 5831, "\u0120maps": 5832, "container": 5833, "instance": 5834, "\u0120Analyze": 5835, "(`": 5836, "Hub": 5837, "faces": 5838, "\u0120Acc": 5839, "^{(": 5840, "\u0120elif": 5841, "\u0120domains": 5842, "\u0120Eng": 5843, "uppose": 5844, "\u0120understanding": 5845, "monary": 5846, "\u0120employ": 5847, "\u0120odds": 5848, "LP": 5849, "ulo": 5850, "\u0120deserialize": 5851, "\u0120equals": 5852, "ictionary": 5853, "\u0120sensitive": 5854, "\u0120survival": 5855, "\u0120shock": 5856, "\u0120subgroup": 5857, "\u0120ready": 5858, "\u0120involving": 5859, "22": 5860, "Hence": 5861, "eve": 5862, "kappa": 5863, "\u0120browser": 5864, "\u0120Request": 5865, "problem": 5866, "wait": 5867, "\u0120walk": 5868, "extra": 5869, "\u0120plugin": 5870, "\u0120produces": 5871, "\u0120gets": 5872, "metic": 5873, "\u0120\u00e2\u0136\u013e\u00e2\u0136\u0122": 5874, "\u0120timestamps": 5875, "\u0120inductive": 5876, "Frame": 5877, "doc": 5878, "pub": 5879, "rx": 5880, "\u0120inline": 5881, "emb": 5882, "\u0120ST": 5883, "exit": 5884, "\u0120appears": 5885, "\u0120moderate": 5886, "\u0120parsing": 5887, "\u0120cardi": 5888, "\u0120attributes": 5889, "ias": 5890, "eness": 5891, "\u0120third": 5892, "routes": 5893, "\u0120adults": 5894, "proved": 5895, "\u0120progression": 5896, "\u0120migration": 5897, "\u0120grav": 5898, "att": 5899, "itable": 5900, "\u0120propag": 5901, "positive": 5902, "chronous": 5903, "war": 5904, "\u0120bad": 5905, "\u0120album": 5906, "crib": 5907, "\u0120software": 5908, "OC": 5909, "onical": 5910, "\u0120crypt": 5911, "\u0120pneum": 5912, "\u0120neph": 5913, "\u0120analyze": 5914, "tenance": 5915, "\u0120visible": 5916, "\u0120brute": 5917, "Fe": 5918, "UE": 5919, "\u0120\u0120\u010a": 5920, "\u0120Treat": 5921, "\u0120protein": 5922, "ecycle": 5923, "\u0120infinite": 5924, "veloper": 5925, "\u0120pipelines": 5926, "\u0120particle": 5927, "Big": 5928, "Base": 5929, "holder": 5930, "iring": 5931, "\u0120modules": 5932, "\u0120datetime": 5933, "\u0120mechanisms": 5934, "\u0120precisely": 5935, "\u0120greater": 5936, "EXT": 5937, "accuracy": 5938, "66": 5939, "Edge": 5940, "oss": 5941, "\u0120transformation": 5942, "MP": 5943, "Potential": 5944, "lier": 5945, "\u0120mask": 5946, "------": 5947, "\u0120Mark": 5948, "\u0120plans": 5949, "\u0120execute": 5950, "\u0120quickly": 5951, "AGE": 5952, "\u0120therefore": 5953, "\u0120excess": 5954, "abled": 5955, "\u0120Dr": 5956, "\u0120manager": 5957, "123": 5958, "\u0120deriving": 5959, "\u0120potassium": 5960, "rafting": 5961, "errors": 5962, "13": 5963, "ai": 5964, "react": 5965, "\u0120sections": 5966, "\u0120cru": 5967, "ulated": 5968, "\u0120specifically": 5969, "\u0120offset": 5970, "\u0120particip": 5971, "OW": 5972, "\u0120hover": 5973, "ife": 5974, "\u0120Am": 5975, "800": 5976, "CI": 5977, "CSS": 5978, "FT": 5979, "bug": 5980, "\u0120mild": 5981, "\u0120direction": 5982, "\u0120interactions": 5983, "\u0120regard": 5984, "\u0120versa": 5985, "\u0120Why": 5986, "\u0120tooling": 5987, "LOCK": 5988, "\u0120pairs": 5989, "itute": 5990, "omm": 5991, "\u0120hep": 5992, "ilation": 5993, "ithmetic": 5994, "opath": 5995, "overline": 5996, "\u0120encrypt": 5997, "Component": 5998, "ORD": 5999, "\u0120iteration": 6000, "\u0120hypotheses": 6001, "19": 6002, "cpp": 6003, "\u0120bel": 6004, "usr": 6005, "\u0120hot": 6006, "amine": 6007, "\u0120Tailwind": 6008, "\u0120['": 6009, "Theme": 6010, "\u0120params": 6011, "\u0120operator": 6012, "reedom": 6013, "\u0120inequality": 6014, "\u0120tumor": 6015, "gate": 6016, "\u0120----------": 6017, "idents": 6018, "ambda": 6019, "\u0120enfor": 6020, "\u0120workflows": 6021, ")+": 6022, "gram": 6023, "\u0120intermediate": 6024, "\u0120environments": 6025, "\u0120hypertension": 6026, "aml": 6027, "Conn": 6028, "\u0120started": 6029, "\u0120triangle": 6030, "iverse": 6031, "\u0120emergency": 6032, "++)": 6033, "\u0120internally": 6034, "\u0120WebSocket": 6035, "\u0120concerns": 6036, "after": 6037, "ean": 6038, "ids": 6039, "\u0120conventional": 6040, "\u0120span": 6041, "\u0120structural": 6042, "offset": 6043, "\u0120outputs": 6044, "\u0120!==": 6045, "ensional": 6046, "\u0120involves": 6047, "\u0120home": 6048, "\u0120Hence": 6049, "\u0120One": 6050, "\u0120persistent": 6051, "required": 6052, "\u0120reporting": 6053, "Pay": 6054, "di": 6055, "\u0120orth": 6056, "essions": 6057, "\u0120shap": 6058, "\u0120cluster": 6059, "\u0120Oper": 6060, "linear": 6061, "\u0120ownership": 6062, "\u0120repeat": 6063, "\u0120maintaining": 6064, "elemetry": 6065, "\u0120acceptable": 6066, "Below": 6067, "23": 6068, "flex": 6069, "align": 6070, "\u0120motion": 6071, "\u0120req": 6072, "ploring": 6073, "\u0120implications": 6074, "afety": 6075, "parser": 6076, "\u0120Choose": 6077, "equiv": 6078, "\u0120labor": 6079, "\u0120isolation": 6080, "]);": 6081, "cil": 6082, "ka": 6083, "null": 6084, "\u0120realizing": 6085, "\u0120basis": 6086, "\u0120Applying": 6087, "ganize": 6088, "\u0120terminal": 6089, "\u0120schedule": 6090, "\u0120category": 6091, "\u0120corresponding": 6092, "na": 6093, "then": 6094, "\u0120className": 6095, "cribed": 6096, "auto": 6097, "contained": 6098, "\u0120degree": 6099, "Determine": 6100, "non": 6101, "tra": 6102, "\u0120tags": 6103, "\u0120cloud": 6104, "ropy": 6105, "\u0120TTL": 6106, "\u0120extension": 6107, "\u0120balanced": 6108, "\u0120automation": 6109, "IME": 6110, "\u0120bacterial": 6111, "dark": 6112, "ein": 6113, "vol": 6114, "\u0120cursor": 6115, "ilter": 6116, "\u0120neut": 6117, "\u0120respiratory": 6118, "illance": 6119, "sharp": 6120, "\u0120secondary": 6121, "\u0120regulatory": 6122, "(()": 6123, "pg": 6124, "esh": 6125, "oded": 6126, "\u0120Evaluate": 6127, "\u0120contr": 6128, "\u0120disk": 6129, "\u0120avoiding": 6130, "CA": 6131, "Sum": 6132, "pers": 6133, "tail": 6134, "\u0120------------------------": 6135, "uting": 6136, "omer": 6137, "ulations": 6138, "\u0120disorder": 6139, "\u0120enlight": 6140, "front": 6141, "\u0120Store": 6142, "\u0120systemic": 6143, "\u0120followed": 6144, "\u0120breakdown": 6145, "\u0120definitive": 6146, "how": 6147, "ene": 6148, "\u0120stabil": 6149, "odies": 6150, "\u0120Bo": 6151, "\u0120quad": 6152, "earch": 6153, "\u0120owns": 6154, "$,": 6155, "Hash": 6156, "xl": 6157, "\u0120stale": 6158, "herence": 6159, "\u0120allocation": 6160, "focus": 6161, "\u0120dro": 6162, "\u0120inner": 6163, "ifiers": 6164, "\u0120comments": 6165, "vironment": 6166, "\u0120virus": 6167, "\u0120libraries": 6168, "\u0120belief": 6169, "constraints": 6170, "File": 6171, "duration": 6172, "pattern": 6173, "izations": 6174, "ressed": 6175, "anger": 6176, "aken": 6177, "\u0120Vue": 6178, "ventions": 6179, "\u0120continuity": 6180, "\u0120eliminate": 6181, "\u0120streaming": 6182, "Outlining": 6183, "\u0120guardrails": 6184, "problems": 6185, "Perhaps": 6186, "\u0120echo": 6187, "Breaking": 6188, "firm": 6189, "\u0120pen": 6190, "\u0120She": 6191, "\u0120hyd": 6192, "\u0120Observ": 6193, "epsis": 6194, "UN": 6195, "git": 6196, "animate": 6197, "\u0120CAN": 6198, "\u0120year": 6199, "\u0120Fe": 6200, "\u0120manif": 6201, "\u0120encoding": 6202, "\u0120circle": 6203, "\u0120recursion": 6204, "Verification": 6205, "\u0120enlightening": 6206, "Right": 6207, "kit": 6208, "}</": 6209, "\u0120Many": 6210, "(\"/": 6211, "\u0120argue": 6212, "\u0120domin": 6213, "\u0120media": 6214, "\u0120normalized": 6215, "\u0120asympt": 6216, "\u0120expansion": 6217, "='": 6218, "OS": 6219, "OST": 6220, "icacy": 6221, "\u0120byte": 6222, "ategory": 6223, "method": 6224, "\u0120downstream": 6225, "\u0120contradict": 6226, "\u0120marketing": 6227, "\u0120Describe": 6228, "\u0120surgery": 6229, "Pass": 6230, "ca": 6231, "erior": 6232, "org": 6233, "\u0120inference": 6234, "impl": 6235, "\u00e2\u0122\u013f,": 6236, "\u0120equality": 6237, "commit": 6238, "\u0120specify": 6239, "timeout": 6240, "\u0120attach": 6241, "\u0120imply": 6242, "\u0120Under": 6243, "\u0120weighing": 6244, "\u0120Spec": 6245, "\u0120Autom": 6246, "Vari": 6247, "sync": 6248, "onym": 6249, "\u0120sleep": 6250, "asure": 6251, "\u0120restrict": 6252, "\u0120plane": 6253, "\u0120students": 6254, "\u0120observability": 6255, "\u0120Disc": 6256, "rum": 6257, "\u0120assume": 6258, "\u0120analogy": 6259, "Implementing": 6260, "\u0120didn": 6261, "\u0120purpose": 6262, "iny": 6263, "\u0120far": 6264, "\u0120IP": 6265, "\u0120<!--": 6266, "\u0120prime": 6267, "\u0120posit": 6268, "\u0120recurrence": 6269, "\u0120provider": 6270, "\u0120impaired": 6271, "\u0120registry": 6272, "\u0120counterexample": 6273, "\u0120dimensions": 6274, "\u0120refusal": 6275, "SM": 6276, "Version": 6277, "frame": 6278, "\u0120cop": 6279, "alloc": 6280, "\u0120beaut": 6281, "\u0120compared": 6282, "anges": 6283, "\u0120idempotency": 6284, "\u0120surveillance": 6285, "csharp": 6286, "has": 6287, "\u0120],": 6288, "insert": 6289, "\\)-": 6290, "\u0120intu": 6291, "\u0120arithmetic": 6292, "\u0120kth": 6293, "\u0120heat": 6294, "socket": 6295, "scenario": 6296, "\u0120possibly": 6297, "\u0120priorities": 6298, "\u0120existence": 6299, "}/": 6300, "inner": 6301, "ename": 6302, "\u0120sa": 6303, "\u0120fat": 6304, "char": 6305, "\u0120Part": 6306, "osition": 6307, "\u0120Hidden": 6308, "\u0120fever": 6309, "\u0120overlap": 6310, "ipher": 6311, "HE": 6312, "MD": 6313, "NS": 6314, "inc": 6315, "\u0120mill": 6316, "\u0120stay": 6317, "\u0120truly": 6318, "\u0120applic": 6319, "\u0120spe": 6320, "\u0120classification": 6321, "\u0120constraint": 6322, "\u0120experi": 6323, "\u0120summar": 6324, "\u0120improvements": 6325, "\u0120quantum": 6326, "\u0120triggers": 6327, "complete": 6328, "\u0120cognitive": 6329, "alternative": 6330, "\u0120pick": 6331, "ivation": 6332, "ayout": 6333, "\u0120Base": 6334, "\u0120pregn": 6335, "\u0120refresh": 6336, "\u0120capabilities": 6337, "\u0120moving": 6338, "\u0120dataset": 6339, "grade": 6340, "zy": 6341, "}-": 6342, "\u0120takes": 6343, "\u0120api": 6344, "erved": 6345, "\u0120replay": 6346, "\u0120Back": 6347, "\u0120construction": 6348, "\u0120eng": 6349, "\u0120Conn": 6350, "\u0120antic": 6351, "\u0120Who": 6352, "buffer": 6353, "\u0120Ensure": 6354, "\u0120Replace": 6355, "\u0120mixed": 6356, "\u0120veloc": 6357, "atinine": 6358, "\u0120nested": 6359, "\u0120EC": 6360, "ilde": 6361, "\u0120integrate": 6362, "adjustment": 6363, "Work": 6364, "gener": 6365, "java": 6366, "rating": 6367, "isdom": 6368, "\u0120Present": 6369, "\u0120atomic": 6370, "=\"#": 6371, "ubation": 6372, "/(": 6373, "/`": 6374, "Field": 6375, "gment": 6376, "ratic": 6377, "\u0120tier": 6378, "\u0120dict": 6379, "\u0120hierarch": 6380, "\u0120\"-": 6381, "\u0120agents": 6382, "\u0120generic": 6383, "await": 6384, "\u0120preserve": 6385, "uzzle": 6386, ">,": 6387, "Check": 6388, "critical": 6389, "uman": 6390, "\u0120diagnostic": 6391, "latest": 6392, "dimensional": 6393, ")`.": 6394, "\u0120plot": 6395, "oles": 6396, "\u0120CKD": 6397, "\u0120abnormal": 6398, "aware": 6399, "\u0120allowing": 6400, "\u0120humans": 6401, "\u0120independently": 6402, "expectation": 6403, "ULT": 6404, "\u0120chat": 6405, "getElement": 6406, "\u0120sensor": 6407, "\u0120successful": 6408, "\u0120precision": 6409, "\u0120Install": 6410, "\u0120Interpret": 6411, "\u0120receptor": 6412, "getElementById": 6413, "#!": 6414, "city": 6415, "dated": 6416, "support": 6417, "itarian": 6418, "\u0120mening": 6419, "\u0120oral": 6420, "ugment": 6421, "\u0120accel": 6422, "events": 6423, "ogy": 6424, "oids": 6425, "\u0120measurable": 6426, "\u0120intervals": 6427, "author": 6428, "\u0120traceability": 6429, "55": 6430, "Det": 6431, "dart": 6432, "yl": 6433, "}\",": 6434, "redu": 6435, "\u0120revers": 6436, "improved": 6437, "olar": 6438, "uning": 6439, "\u0120extends": 6440, "\u0120combination": 6441, "\u0120alignment": 6442, "\u0120approximation": 6443, "\u0120happened": 6444, "Acc": 6445, "Att": 6446, "gress": 6447, "\u0120biolog": 6448, "\u0120Test": 6449, "\u0120consumer": 6450, "ailability": 6451, "\u0120eleg": 6452, "otherapy": 6453, "\u0120linked": 6454, "\u0120characteristic": 6455, "US": 6456, "WS": 6457, "Window": 6458, "kt": 6459, "\u0120samples": 6460, "\u0120bund": 6461, "\u0120lib": 6462, "\u0120alpha": 6463, "\u0120\u0120\u0120\u0120\u0120\u0120\u0120\u0120\u0120\u0120": 6464, "\u0120spi": 6465, "formance": 6466, "itionally": 6467, "\u0120efficacy": 6468, "shape": 6469, "\u0120refact": 6470, "System": 6471, "mask": 6472, "xx": 6473, "route": 6474, "\u0120wast": 6475, "stderr": 6476, "\u0120conversion": 6477, "\u0120(-": 6478, "\u0120comes": 6479, "\u0120Det": 6480, "\u0120Depend": 6481, "\u0120socket": 6482, "\u0120buf": 6483, "ribute": 6484, "\u0120controlled": 6485, "\u0120country": 6486, "Command": 6487, "\u0120reviews": 6488, "Column": 6489, "cost": 6490, "strap": 6491, "\u0120percent": 6492, "bool": 6493, "ounding": 6494, "\"></": 6495, "\u0120monitor": 6496, "perturbation": 6497, "JSON": 6498, "UM": 6499, "wrap": 6500, "\u0120wisdom": 6501, "\u0120dir": 6502, "\u0120Deploy": 6503, "\u0120uncon": 6504, "coming": 6505, "\u0120fewer": 6506, "\u0120filters": 6507, "\u0120timeline": 6508, "\u0120targeted": 6509, "\u0120slice": 6510, "Subproblem": 6511, "analogy": 6512, "#!/": 6513, "\u0120\u010a\u0120\u0120": 6514, "ison": 6515, "iful": 6516, "\u0120click": 6517, "\u0120retries": 6518, "plicate": 6519, "\u0120decl": 6520, "entials": 6521, "show": 6522, "\u0120insulin": 6523, "\u0120derivative": 6524, "second": 6525, "Define": 6526, "\u0120illust": 6527, "\u0120enforcement": 6528, "Query": 6529, "\u0120elegant": 6530, "PT": 6531, "\u0120freedom": 6532, "\u0120gain": 6533, "\u0120gold": 6534, "\u0120Give": 6535, "\u0120enh": 6536, "ordion": 6537, "\u0120startup": 6538, "\u0120multiplication": 6539, "\u0120documentation": 6540, "\u0120falls": 6541, "\u0120synthes": 6542, "Em": 6543, "Url": 6544, "yaml": 6545, "},\\": 6546, "\u0120tissue": 6547, "ember": 6548, "Init": 6549, "\u0120recip": 6550, "\u0120multip": 6551, "\u0120maintenance": 6552, "\u0120backlog": 6553, "\u0120train": 6554, "\u0120While": 6555, "\u0120skip": 6556, "\u0120router": 6557, "connect": 6558, "\u0120culture": 6559, "Oper": 6560, "}'": 6561, "\u0120math": 6562, "arin": 6563, "stop": 6564, "\u0120Random": 6565, "\u0120operating": 6566, "Change": 6567, "\u0120diffic": 6568, "\u0120finish": 6569, "\u0120piec": 6570, "orb": 6571, "asic": 6572, "isting": 6573, "\u0120proxy": 6574, "emo": 6575, "\u0120Po": 6576, "\u0120journal": 6577, "\u0120sizeof": 6578, "\u0120temp": 6579, "\u0120graphs": 6580, "\u0120acceptance": 6581, "inux": 6582, "timestamp": 6583, ">{": 6584, "?:": 6585, "OK": 6586, "care": 6587, "hover": 6588, "occ": 6589, "release": 6590, "\u0120ske": 6591, "\u0120sodium": 6592, "\u0120trials": 6593, "Organize": 6594, "\u0120pathophysiology": 6595, "%;": 6596, ".).": 6597, "Min": 6598, "au": 6599, "\u0120ult": 6600, "\u0120sing": 6601, "utf": 6602, "\u0120offer": 6603, "\u0120prevention": 6604, "\u0120Ge": 6605, "\u0120deficiency": 6606, "\u0120angle": 6607, "\u0120Also": 6608, "\u0120Result": 6609, "\u0120virtual": 6610, "IST": 6611, "OIN": 6612, "mode": 6613, "tfrac": 6614, "\u0120inode": 6615, "istics": 6616, "\u0120chart": 6617, "\u0120evolution": 6618, "\u010a\u0120\u0120\u0120\u0120\u0120\u0120\u0120\u0120\u0120\u0120\u0120\u0120\u0120\u0120\u0120\u0120\u0120": 6619, "\u0120discovery": 6620, "Items": 6621, "\u0120accuracy": 6622, "\u0120injection": 6623, "plotlib": 6624, "Ret": 6625, "gres": 6626, "inode": 6627, "\u0120tight": 6628, "umption": 6629, "outcome": 6630, "-----------": 6631, "ypical": 6632, "\u0120Normal": 6633, "\u0120agree": 6634, "\u0120mutation": 6635, "\u0120individuals": 6636, "\u0120fairness": 6637, "cup": 6638, "{(": 6639, "\u0120merg": 6640, "\u0120reverse": 6641, "\u0120All": 6642, "\u0120Frame": 6643, "byte": 6644, "\u0120blue": 6645, "\u0120congestion": 6646, "tree": 6647, "imum": 6648, "heap": 6649, "urally": 6650, "\u0120gates": 6651, "\u0120RNA": 6652, "\u0120DP": 6653, "\u0120defining": 6654, "prove": 6655, "psi": 6656, "\u0120randomized": 6657, "record": 6658, "processing": 6659, "\u0120illness": 6660, "\u0120computation": 6661, "\u0120navigation": 6662, "\u0120implies": 6663, "Active": 6664, "Hg": 6665, "session": 6666, "\u0120File": 6667, "\u0120discrete": 6668, "\u0120Project": 6669, "\u0120scaling": 6670, "\u0120mismatch": 6671, "ephal": 6672, "UC": 6673, "sem": 6674, "\u0120cmd": 6675, "\u0120alter": 6676, "\u0120chance": 6677, "login": 6678, "\u0120considerations": 6679, "\u0120driver": 6680, "\u0120documents": 6681, "mean": 6682, "\u0120rectangle": 6683, "\u0120mmHg": 6684, "\u0120pieces": 6685, "fail": 6686, "napshot": 6687, "\u0120chem": 6688, "\u0120mac": 6689, "\u0120reprodu": 6690, "\u0120`[": 6691, "\u0120transitions": 6692, "\u0120recover": 6693, "\u0120urine": 6694, "\u010a\u0109\u0109\u0109": 6695, "omorphic": 6696, "IV": 6697, "Utc": 6698, "\u0120therm": 6699, "\u0120html": 6700, "elves": 6701, "\u0120Calculate": 6702, "\u0120orchest": 6703, "perf": 6704, "\u0120implementing": 6705, "\u0120traject": 6706, "\u0120convert": 6707, "\u0120responsive": 6708, "MAX": 6709, "rho": 6710, "Total": 6711, "gradient": 6712, "\u0120catalog": 6713, "ales": 6714, "ayes": 6715, "strong": 6716, "evidence": 6717, "\u0120caused": 6718, "validate": 6719, "icians": 6720, "Array": 6721, "\u0120Server": 6722, "<\\": 6723, "FC": 6724, "\u0120sql": 6725, "\u0120puzzle": 6726, "\u0120balls": 6727, "\u0120ran": 6728, "\u0120'{": 6729, "\u0120scores": 6730, "ango": 6731, "\u0120added": 6732, "\u0120helper": 6733, "paren": 6734, "\u0120incorrect": 6735, "\u0120writing": 6736, "\u0120receive": 6737, "\u0120strictly": 6738, "\u0120adjac": 6739, "\u0120toggle": 6740, "ws": 6741, "lore": 6742, "irebase": 6743, "ocard": 6744, "\u0120recurrent": 6745, "\u0120regions": 6746, "\u0120ordered": 6747, "\u0120windows": 6748, "\u0120switches": 6749, "Preparing": 6750, "\u0120authentication": 6751, "\u0120roadmap": 6752, "lers": 6753, "real": 6754, "itude": 6755, "resource": 6756, "\u0120Ear": 6757, "\u0120intended": 6758, "=\"$": 6759, "making": 6760, "\u0120providing": 6761, "\u0120agent": 6762, "minus": 6763, "\u0120immutable": 6764, "\u0120away": 6765, "\u0120\u00e2\u012b\u012a": 6766, "\u0120Integrate": 6767, "IP": 6768, "Queue": 6769, "ued": 6770, "\u0120tax": 6771, "eric": 6772, "rees": 6773, "orrh": 6774, "\u0120ple": 6775, "\u0120liter": 6776, "\u0120Solve": 6777, "\u0120complications": 6778, "\u0120Final": 6779, "\u0120Math": 6780, "\u0120measurements": 6781, "\u0120filtering": 6782, "features": 6783, "products": 6784, "FROM": 6785, "HEN": 6786, "LS": 6787, "dest": 6788, "nd": 6789, "sent": 6790, "\u0120money": 6791, "\u0120wav": 6792, "\u0120sto": 6793, "\u0120styles": 6794, "\u0120canonical": 6795, "\u0120underlying": 6796, "ointment": 6797, "\u0120animation": 6798, "\u0120assessment": 6799, "Do": 6800, "Length": 6801, "Options": 6802, "toggle": 6803, "wide": 6804, "\u0120TEXT": 6805, "\u0120Pers": 6806, "\u0120lie": 6807, "ften": 6808, "\u0120manual": 6809, "\u0120desired": 6810, "loading": 6811, "ergic": 6812, "\u0120requested": 6813, "\u0120rejecting": 6814, "\u0120255": 6815, "\u0120\u00e2\u0136\u0136\u00e2\u0136\u0122\u00e2\u0136\u0122": 6816, "\u0120Review": 6817, "leg": 6818, "usable": 6819, "\u0120chest": 6820, "\u012095": 6821, "\u0120overlapping": 6822, "*,": 6823, "ateral": 6824, "\u0120stand": 6825, "heet": 6826, "\u0120consent": 6827, "iented": 6828, "\u0120listing": 6829, "\u0120incorpor": 6830, "\u0120clients": 6831, "accordion": 6832, "\u0120Redu": 6833, "\u0120screen": 6834, "\u0120crucial": 6835, "here": 6836, "pmatrix": 6837, "alty": 6838, "\u0120mole": 6839, "\u0120lists": 6840, "adence": 6841, "abling": 6842, "\u0120reset": 6843, "anguage": 6844, "\u0120emit": 6845, "\u0120JS": 6846, "\u0120locally": 6847, "\u0120urinary": 6848, "mitted": 6849, "\u0120cardio": 6850, "Develop": 6851, "Ops": 6852, "crypt": 6853, "\u0120fract": 6854, "\u0120govern": 6855, "\u0120shadow": 6856, "Storage": 6857, "\u0120Get": 6858, "\u0120logical": 6859, "\u0120edema": 6860, "addr": 6861, "\u0120justice": 6862, "\u0120tracks": 6863, "\u0120closure": 6864, "Valid": 6865, "\u0120electron": 6866, "\u0120pulmonary": 6867, "400": 6868, "MIT": 6869, "jango": 6870, "\u0120tx": 6871, "\u0120flo": 6872, "\u0120bott": 6873, "\u0120propose": 6874, "\u0120org": 6875, "\u0120assert": 6876, "\u0120Even": 6877, "\u0120Mat": 6878, "\u0120kill": 6879, "\u0120subs": 6880, "\u0120markdown": 6881, "\u0120normalization": 6882, "\u0120iterating": 6883, "inuous": 6884, "\u0120guarantees": 6885, "\u0120ingestion": 6886, "OD": 6887, "fmt": 6888, "lor": 6889, "ses": 6890, "loop": 6891, "\u0120processed": 6892, "\u0120protection": 6893, "\u0120progressive": 6894, "\u0120covering": 6895, "\u0120Client": 6896, "\u0120cohort": 6897, ":\",": 6898, "rb": 6899, "\u0120fish": 6900, "\u0120ground": 6901, "\u0120GPU": 6902, "\u0120override": 6903, "\u0120checking": 6904, "\u0120limiting": 6905, "\u0120refactor": 6906, "\u0120carry": 6907, "\u0120preserving": 6908, "\u0120frequent": 6909, "\u0120integrity": 6910, "binom": 6911, "\u0120coordination": 6912, "\u0120reflects": 6913, "\u0120Security": 6914, "\u0120Update": 6915, "opathy": 6916, "IS": 6917, "Man": 6918, "ying": 6919, "\u0120dut": 6920, "\u0120java": 6921, "\u0120throughput": 6922, "summary": 6923, "\u0120producing": 6924, "\u0120correlation": 6925, "loader": 6926, "\u0120Only": 6927, "\u0120reliability": 6928, "\u0120anomalies": 6929, "\u0120applies": 6930, "\u0120trends": 6931, "\u0120horizon": 6932, "fol": 6933, "your": 6934, "\u0120-----": 6935, "\u0120ben": 6936, "\u0120infer": 6937, "\u0120prof": 6938, "\u0120Ne": 6939, "ynchronous": 6940, "\u0120ambigu": 6941, "\u0120lifecycle": 6942, "\u0120devices": 6943, "\u0120executable": 6944, "\u0120cultural": 6945, "\u0120sales": 6946, "\u0120gateway": 6947, "\u0120\u010a\u0120\u0120\u010a": 6948, ";\\": 6949, "Equ": 6950, "land": 6951, "reh": 6952, "\u0120thyroid": 6953, "\u0120Gener": 6954, "\u0120join": 6955, "\u0120creatinine": 6956, "\u0120\u0120\u0120\u0120\u0120\u0120\u0120\u0120\u0120\u0120\u0120\u0120\u0120\u0120\u0120\u0120\u0120\u0120\u0120\u0120\u0120\u0120\u0120\u0120\u0120\u0120\u0120\u0120\u0120\u0120\u0120\u0120": 6957, "Color": 6958, "\u0120Explore": 6959, "Integ": 6960, "\u0120SDK": 6961, "\u0120escalation": 6962, "OL": 6963, "[:": 6964, "\u0120mer": 6965, "\u0120wid": 6966, "\u0120ongoing": 6967, "\u0120\"^": 6968, "\u0120contra": 6969, "ypes": 6970, "\u0120Initial": 6971, "\u0120relation": 6972, "afka": 6973, "\u0120signs": 6974, "\u0120achieve": 6975, "\u0120routine": 6976, "\u0120hemorrh": 6977, "Print": 6978, "\u0120synthesized": 6979, "Btn": 6980, "El": 6981, "batch": 6982, "icing": 6983, "\u0120narr": 6984, "istically": 6985, "verification": 6986, "\u0120controlling": 6987, "\u0120'../": 6988, "\u0120adds": 6989, "\u0120advant": 6990, "\u0120prem": 6991, "oxy": 6992, "\u0120collabor": 6993, "\u0120rejected": 6994, "Record": 6995, "\u0120safer": 6996, "kstra": 6997, "rest": 6998, "abs": 6999, "\u0120\\(|": 7000, "\u0120colle": 7001, "\u0120attention": 7002, "\u0120discount": 7003, "\u0120cycles": 7004, "blocks": 7005, "\u0120scheduling": 7006, "\u0120efficiently": 7007, "hal": 7008, "}$": 7009, "ancing": 7010, "\u0120ok": 7011, "\u0120(\"": 7012, "\u0120`\"": 7013, "\u0120Dev": 7014, "ultaneous": 7015, "sumer": 7016, "\u0120relate": 7017, "application": 7018, "teness": 7019, "\u0120leader": 7020, "\u0120Order": 7021, "tooltip": 7022, "branch": 7023, "cfg": 7024, "stack": 7025, "elp": 7026, "lyce": 7027, "ective": 7028, "\u0120Co": 7029, "eft": 7030, "\u0120lex": 7031, "\u0120scient": 7032, "\u0120specified": 7033, "\u0120latest": 7034, "\u0120Which": 7035, "\u0120marked": 7036, "\u0120hypot": 7037, "\u0120utility": 7038, "FAULT": 7039, "\u0120Discuss": 7040, "65": 7041, "HA": 7042, "Sl": 7043, "cover": 7044, "}(\\": 7045, "\u0120fresh": 7046, "oman": 7047, "loss": 7048, "\u0120hous": 7049, "\u0120Code": 7050, "\u0120\\([": 7051, "\u0120yes": 7052, "\u0120adverse": 7053, "\u0120La": 7054, "tolog": 7055, "cipl": 7056, "\u0120supporting": 7057, "End": 7058, "\u0120Arg": 7059, "\u0120diagonal": 7060, "\u0120coefficients": 7061, "PORT": 7062, "bottom": 7063, "mic": 7064, "\u00f0\u0141": 7065, "\u0120burn": 7066, "\u0120inverse": 7067, "\u0120net": 7068, "\u0120les": 7069, "\u0120`--": 7070, "\u0120MA": 7071, "ipal": 7072, "\u0120addition": 7073, "ractical": 7074, "\u0120held": 7075, "\u0120passes": 7076, "\u0120weighted": 7077, "\u0120initi": 7078, "Header": 7079, "Aut": 7080, "RPC": 7081, "fram": 7082, "farin": 7083, "\u0120sigma": 7084, "\u0120big": 7085, "\u0120induction": 7086, "\u0120lies": 7087, "otype": 7088, "amount": 7089, "\u0120SPI": 7090, "exists": 7091, "\u0120reasonable": 7092, "\u0120changing": 7093, "\u0120offline": 7094, "\u0120truths": 7095, "\u0120guidance": 7096, "\u0120epis": 7097, "ODE": 7098, "rices": 7099, "train": 7100, "\u0120ws": 7101, "\u0120rely": 7102, "\u0120econ": 7103, "\u0120('": 7104, "irth": 7105, "\u0120imaging": 7106, "\u0120explos": 7107, "argv": 7108, "\u0120tested": 7109, "\u0120login": 7110, "\u0120relig": 7111, "\u0120sentence": 7112, "Ph": 7113, "dependent": 7114, "pres": 7115, "olith": 7116, "Struct": 7117, "\u0120Dist": 7118, "ugins": 7119, "\u0120spac": 7120, "\u0120kin": 7121, "\u0120modular": 7122, "\u0120doct": 7123, "\u0120creation": 7124, "\u0120correl": 7125, "object": 7126, "\u0120readonly": 7127, "\u0120operators": 7128, "modal": 7129, "\u0120superior": 7130, "\u0120autonomy": 7131, "\u0120binding": 7132, "\u0120damage": 7133, "\u0120positives": 7134, "29": 7135, "><": 7136, "DIR": 7137, "uper": 7138, "olving": 7139, "\u0120exchange": 7140, "\u0120checklist": 7141, "metadata": 7142, "\u0120impair": 7143, "\u0120incidents": 7144, "Note": 7145, "fact": 7146, "lin": 7147, "aterm": 7148, "itutions": 7149, "\u0120hooks": 7150, "\u0120forces": 7151, "umab": 7152, "\u0120areas": 7153, "\u0120undefined": 7154, "setminus": 7155, "\u0120boolean": 7156, "Analyze": 7157, "\u0120strongest": 7158, "VER": 7159, "cur": 7160, "cending": 7161, "fort": 7162, "hist": 7163, "ipping": 7164, "\u0120national": 7165, "rian": 7166, "\u0120resil": 7167, "\u0120solving": 7168, "\u0120meta": 7169, "\u0120reasons": 7170, "\u0120combined": 7171, "\u0120virtue": 7172, "gr": 7173, "}_{": 7174, "\u0120pull": 7175, "\u0120fals": 7176, "entries": 7177, "iles": 7178, "\u0120serious": 7179, "\u0120twice": 7180, "mptomatic": 7181, "\u0120representation": 7182, "\u0120consumers": 7183, "\u0120impossible": 7184, "\u0120phenomena": 7185, "Bus": 7186, "joint": 7187, "leverage": 7188, "\u0120ster": 7189, "\u0120gre": 7190, "\u0120resolution": 7191, "\u0120Fast": 7192, "\u0120discharge": 7193, "\u0120matrices": 7194, "\u0120Validate": 7195, "\u0120precise": 7196, "AME": 7197, "instein": 7198, "\u0120statistical": 7199, "\u0120references": 7200, "\u0120pharmac": 7201, ":.": 7202, "GET": 7203, "options": 7204, "rs": 7205, "alities": 7206, "\u0120muc": 7207, "\u0120reve": 7208, "\u0120performs": 7209, "\u0120article": 7210, "\u0120Validation": 7211, "\u0120accepted": 7212, "\u0120alternatives": 7213, "\u0120REST": 7214, "printf": 7215, "\u0120removes": 7216, "latency": 7217, "Variables": 7218, "atermark": 7219, "cases": 7220, "nodes": 7221, "itter": 7222, "\u0120Tool": 7223, "assumption": 7224, "\u0120Bayes": 7225, "\u0120dispatch": 7226, "\u0120Exception": 7227, "\u0120countable": 7228, "\u0120shortest": 7229, "\u0120posts": 7230, "\u0120converges": 7231, "\u0120generalizable": 7232, "\u0120moves": 7233, "\u0120worsening": 7234, "\u0120breath": 7235, "\u0120resolved": 7236, "\u0120unconventional": 7237, "DR": 7238, "deploy": 7239, "site": 7240, "replace": 7241, "ivial": 7242, "emic": 7243, "\u0120Optim": 7244, "creative": 7245, "\u0120invas": 7246, "\u0120demonstrate": 7247, "\u0120Change": 7248, "\u0120volat": 7249, "elihood": 7250, "\u0120Object": 7251, "\u0120norms": 7252, "\u0120heavy": 7253, "pan": 7254, "report": 7255, "\u0120band": 7256, "\u0120Ok": 7257, "\u0120plaus": 7258, "...'": 7259, "address": 7260, "\u012070": 7261, "\u0120flows": 7262, "\u0120constructor": 7263, "\u0120embedded": 7264, "balance": 7265, "DT": 7266, "rich": 7267, "td": 7268, "\u0120sends": 7269, "\u0120sources": 7270, "\u0120mobile": 7271, "\u0120compreh": 7272, "Invalid": 7273, "ERR": 7274, "\u0120instability": 7275, "Web": 7276, "\u0120redirect": 7277, "\u0120quantity": 7278, "\u0120thromb": 7279, "96": 7280, "depend": 7281, "\u0120sessions": 7282, "\u0120dictionary": 7283, "icts": 7284, "\u0120having": 7285, "\u0120shard": 7286, "\u0120Every": 7287, "\u0120differentiable": 7288, "frast": 7289, "\u0120discover": 7290, "\u0120algorithms": 7291, "\u0120replacement": 7292, "\u0120cardiovascular": 7293, "\u0120explosion": 7294, "Card": 7295, "Dr": 7296, "aceful": 7297, "\u0120conven": 7298, "unit": 7299, "emory": 7300, "\u0120intent": 7301, "make": 7302, "\u0120Standard": 7303, "\u0120printf": 7304, "\u0120sentences": 7305, "\u0120debug": 7306, "\u0120DateTime": 7307, "\u0120metabolic": 7308, "PL": 7309, "ban": 7310, "oag": 7311, "\u0120\u0120\u0120\u0120\u0120\u0120\u0120\u0120\u0120\u0120\u0120": 7312, "\u0120emotion": 7313, "\u0120Jo": 7314, "\u0120helpful": 7315, "$$$.": 7316, "\u0120threads": 7317, "\u0120technology": 7318, "\u0120GitHub": 7319, "delay": 7320, "Group": 7321, "family": 7322, "iom": 7323, "\u0120living": 7324, "\u0120lookup": 7325, "\u0120projects": 7326, "functional": 7327, "\u0120divis": 7328, "\u0120aggressive": 7329, "\u0120aggregate": 7330, "\u0120crash": 7331, "\u0120applied": 7332, "Given": 7333, "TH": 7334, "\\{": 7335, "hidden": 7336, "rab": 7337, "\u0120liver": 7338, "ectious": 7339, "\u0120resp": 7340, "\u0120resolve": 7341, "\u0120scatter": 7342, "evel": 7343, "\u0120worth": 7344, "\u0120builds": 7345, "domain": 7346, "Selector": 7347, "\u0120substantial": 7348, "03": 7349, "pact": 7350, "\u0120cipher": 7351, "\u0120prostate": 7352, "\u0120\"/": 7353, "allback": 7354, "\u0120Governance": 7355, "\u0120intern": 7356, "\u0120phot": 7357, "\u0120asks": 7358, "\u0120cards": 7359, "mediated": 7360, "\u0120suscept": 7361, "\u0120segments": 7362, "nums": 7363, "\u0120\u00e2\u0136\u0136\u00e2\u0136\u0122": 7364, "clusive": 7365, "changed": 7366, "ailo": 7367, "frastructure": 7368, "').": 7369, "Mon": 7370, "dose": 7371, "kg": 7372, "rine": 7373, "recommend": 7374, "\u0120youn": 7375, "\u0120computed": 7376, "component": 7377, "formed": 7378, "\u0120community": 7379, "\u0120contracts": 7380, "\u0120numeric": 7381, "\u0120medicine": 7382, "cellationToken": 7383, "\u0120suspension": 7384, ">;": 7385, "document": 7386, "qrt": 7387, "\u0120fed": 7388, "\u0120dra": 7389, "\u0120Risk": 7390, "\u0120channels": 7391, "\u0120infections": 7392, "\u0120clinician": 7393, "bigl": 7394, "\u0120claims": 7395, "\u0120instruments": 7396, "\u0120particularly": 7397, "\u0120compatibility": 7398, "\u0120contrast": 7399, "!\\": 7400, "DL": 7401, "scal": 7402, "etal": 7403, "\u0120TABLE": 7404, "\u012023": 7405, "\u0120arter": 7406, "\u0120readmission": 7407, "\u0120facts": 7408, "\u0120origin": 7409, "bigr": 7410, "\u0120Instead": 7411, "\u0120rationale": 7412, "\u0120asymptomatic": 7413, ".\\": 7414, "Tim": 7415, "zard": 7416, "\u0120augment": 7417, "istry": 7418, "empor": 7419, "plements": 7420, "username": 7421, "\u0120Note": 7422, "plicated": 7423, "\u0120decide": 7424, "\u0120600": 7425, "views": 7426, "\u0120explanations": 7427, "\u0120earlier": 7428, "ographic": 7429, "ogenic": 7430, "\u0120---------------------------------------------------------------------------": 7431, "\u0120convex": 7432, "DF": 7433, "\u0120tied": 7434, "\u0120bg": 7435, "\u0120Ca": 7436, "opsy": 7437, "\u0120ability": 7438, "\u0120simultaneous": 7439, "ogene": 7440, "\u0120momentum": 7441, "\u00e2\u0136\u013e\u00e2\u0136\u0122": 7442, "oxygen": 7443, ")**:": 7444, "21": 7445, "oration": 7446, "\u0120fs": 7447, "iginal": 7448, "Stream": 7449, "\u0120compile": 7450, "ipeline": 7451, "\u0120indices": 7452, "\u0120demand": 7453, "\u0120ampl": 7454, "\u0120Track": 7455, "\u0120morality": 7456, "runtime": 7457, "\u0120adaptive": 7458, "\u0120heuristic": 7459, "\u0120international": 7460, "YY": 7461, "cers": 7462, "mun": 7463, "mega": 7464, "\u0120,": 7465, "\u0120tro": 7466, "\u0120ca": 7467, "stitute": 7468, "rail": 7469, "\u0120shown": 7470, "note": 7471, "\u0120removed": 7472, "Git": 7473, "Policy": 7474, "tic": 7475, "\u0120city": 7476, "\u0120cert": 7477, "\u0120codes": 7478, "\u0120dry": 7479, "\u0120drag": 7480, "\u0120replication": 7481, "admin": 7482, "\u0120img": 7483, "prisma": 7484, "requests": 7485, "\u0120lowers": 7486, "while": 7487, "\u0120finding": 7488, "sym": 7489, "\u0120anticoag": 7490, "FO": 7491, "role": 7492, "rial": 7493, "\u0120Narrow": 7494, "locks": 7495, "licts": 7496, "\u0120Process": 7497, "\u0120refine": 7498, "hemas": 7499, "leted": 7500, "\u0120paren": 7501, "\u0120coordinates": 7502, "policy": 7503, "\u0120delayed": 7504, "\u0120waiting": 7505, "\u0120mitigate": 7506, "tokens": 7507, "\u0120abstract": 7508, "!(\"": 7509, "Back": 7510, "fast": 7511, "lists": 7512, "\u0120firm": 7513, "\u0120Ig": 7514, "\u0120prod": 7515, "\u0120Rel": 7516, "\u0120hazard": 7517, "boarding": 7518, "\u0120digits": 7519, "\u0120asyncio": 7520, "month": 7521, "\u0120conditional": 7522, "\u0120experiences": 7523, "\u0120contraind": 7524, "\u0120sil": 7525, "\u0120fi": 7526, "\u0120ann": 7527, "\u0120hence": 7528, "\u0120stri": 7529, "ods": 7530, "\u0120MRI": 7531, "\u0120science": 7532, "even": 7533, "\":\"": 7534, "\u0120polit": 7535, "\u0120capac": 7536, "\u0120incubation": 7537, "\u0120datasets": 7538, "02": 7539, "elect": 7540, "ipped": 7541, "wid": 7542, "\u0120fac": 7543, "andas": 7544, "\u0120contexts": 7545, "\u0120More": 7546, "\u0120computes": 7547, "ysical": 7548, "\u0120JWT": 7549, "\u0120sorting": 7550, "Control": 7551, "HTTP": 7552, "\u0120difficult": 7553, "BAC": 7554, "Fl": 7555, "home": 7556, "tan": 7557, "uation": 7558, "atively": 7559, "\u0120pie": 7560, "\u0120pending": 7561, "lots": 7562, "\u0120(\\": 7563, "\u0120usize": 7564, "\u0120KEY": 7565, "\u0120typed": 7566, "\u0120capital": 7567, "Timeout": 7568, "\u0120named": 7569, "Products": 7570, "\"}": 7571, "GIN": 7572, "Number": 7573, "[\\": 7574, "save": 7575, "success": 7576, "||": 7577, "inations": 7578, "antic": 7579, "\u00e2\u0122\u013f.": 7580, "\u0120defaults": 7581, "\u0120differentiation": 7582, "scape": 7583, "\u0120guidelines": 7584, "\u0120dimension": 7585, "\u0120nums": 7586, "Parser": 7587, "\u0120velocity": 7588, "Del": 7589, "}+": 7590, "aling": 7591, "\u0120face": 7592, "\u0120winds": 7593, "\u0120Camb": 7594, "\u0120Three": 7595, "aria": 7596, "\u0120expensive": 7597, "\u0120partitions": 7598, "\u0120nonzero": 7599, "\u0120signature": 7600, "\u0120asked": 7601, "\u0120synchron": 7602, "\u0120trip": 7603, "seconds": 7604, "\u0120indicators": 7605, "\u0120Control": 7606, "\u0120GraphQL": 7607, "sens": 7608, "\u0120\u00cf": 7609, "inical": 7610, "\u0120sqrt": 7611, "\u0120mph": 7612, "\u0120reusable": 7613, "ste": 7614, "\u0120isinstance": 7615, "\u0120Tac": 7616, "userId": 7617, "\u0120Bridge": 7618, "auss": 7619, "apply": 7620, "\u0120monot": 7621, "\u0120deli": 7622, "255": 7623, "yzing": 7624, "\u0120skin": 7625, "Controller": 7626, "\u0120feelings": 7627, "\u0120emphasize": 7628, "Router": 7629, "arterly": 7630, "''": 7631, "DP": 7632, "riction": 7633, "uages": 7634, "once": 7635, "\u0120middleware": 7636, "\u0120Iter": 7637, "\u0120universe": 7638, "ocation": 7639, "\u0120Ext": 7640, "\u0120username": 7641, "poses": 7642, "\u0120encephal": 7643, "\u0120behavi": 7644, "\u0120120": 7645, "\u0120simpler": 7646, "\u0120shifts": 7647, "\u0120trajectory": 7648, ")).": 7649, "best": 7650, "ha": 7651, "za": 7652, "\u0120cas": 7653, "\u0120\".": 7654, "\u0120compiler": 7655, "\u0120retri": 7656, "\u0120transient": 7657, "ishing": 7658, "\u0120Enforce": 7659, "\u0120pregnancy": 7660, "\u0120comprehensive": 7661, "%.": 7662, "HC": 7663, "ww": 7664, "organ": 7665, "\u0120mesh": 7666, "\u010a\u0120\u0120\u0120\u0120\u0120\u0120\u0120\u0120\u0120\u0120": 7667, "\u0120rich": 7668, "apter": 7669, "ultip": 7670, "\u0120Hy": 7671, "Exploring": 7672, "\u0120counting": 7673, "$$$,": 7674, "accent": 7675, "\u0120guideline": 7676, "\u0120instrument": 7677, "\u0120anomaly": 7678, "\u0120credentials": 7679, "\u0120houses": 7680, "ns": 7681, "priority": 7682, "uck": 7683, "arse": 7684, "etter": 7685, "\u0120ng": 7686, "\u0120exception": 7687, "artment": 7688, "\u0120resid": 7689, "\u0120respond": 7690, "Answer": 7691, "\u0120topic": 7692, "\u0120digit": 7693, "\u0120indicated": 7694, "\u0120teaching": 7695, "\u0120glomer": 7696, "itarianism": 7697, "(...": 7698, "72": 7699, "=-": 7700, "\u0120fine": 7701, "access": 7702, "oub": 7703, "\u0120\\,": 7704, "\u0120\\{": 7705, "\u0120oblig": 7706, "\u0120overflow": 7707, "\u0120cook": 7708, "\u0120coins": 7709, "\u0120posterior": 7710, "\u0120torch": 7711, "\u0120suffix": 7712, "\u0120location": 7713, "\u0120repository": 7714, "Page": 7715, "double": 7716, "eb": 7717, "\u0120inser": 7718, "\u0120stories": 7719, "\u0120Promise": 7720, "\u0120300": 7721, "\u0120Strategy": 7722, "\u0120serum": 7723, "equate": 7724, "typed": 7725, "\u0120worsen": 7726, "\u0120scanning": 7727, "\u0120Narrows": 7728, "\u0120Tacoma": 7729, "Top": 7730, "done": 7731, "fers": 7732, "lg": 7733, "watch": 7734, "\u0120bron": 7735, "utdown": 7736, "stage": 7737, "\u0120conj": 7738, "\u0120almost": 7739, "\u0120Euler": 7740, "integ": 7741, "\u0120prim": 7742, "\u0120logger": 7743, "worker": 7744, "\u0120_,": 7745, "\u0120Router": 7746, "Provider": 7747, "\u0120concentration": 7748, "\u0120ventric": 7749, "\u0120pneumonia": 7750, "\u0120thermal": 7751, "\u0120Cambrian": 7752, "48": 7753, "Cache": 7754, "mb": 7755, "\u0120draw": 7756, "aset": 7757, "\u0120Art": 7758, "\u0120Player": 7759, "enced": 7760, "---|": 7761, "\u0120Generate": 7762, "ntax": 7763, "prot": 7764, "\u0120interrupt": 7765, "\u0120responsibility": 7766, "PAT": 7767, "custom": 7768, "}>": 7769, "\u0120cat": 7770, "road": 7771, "\u0120danger": 7772, "\u0120stages": 7773, "gex": 7774, "\u0120implements": 7775, "team": 7776, "pons": 7777, "week": 7778, "short": 7779, "ergies": 7780, "player": 7781, "\u0120scheduler": 7782, "capacity": 7783, "\u0120largest": 7784, "\u0120semantic": 7785, "POST": 7786, "mm": 7787, "\u0120dt": 7788, "eth": 7789, "through": 7790, "thritis": 7791, "\u0120Policy": 7792, "\u0120churn": 7793, "ocode": 7794, "\u0120Inc": 7795, "}\\,\\": 7796, "\u0120calibration": 7797, "Compute": 7798, "yzer": 7799, "\u0120stats": 7800, "\u0120Prisma": 7801, "\u0120migrations": 7802, "\u0120statistics": 7803, "\u0120temporary": 7804, "ijkstra": 7805, "\u0120falsify": 7806, "Over": 7807, "power": 7808, "inia": 7809, "ivacy": 7810, "seed": 7811, "\u012022": 7812, "\u0120Document": 7813, "\u0120defer": 7814, "soft": 7815, "\u0120deletion": 7816, "ission": 7817, "\u0120signed": 7818, "\u0120drinks": 7819, "Engine": 7820, "secret": 7821, "\u0120technical": 7822, "\u0120cleanup": 7823, "\u0120represented": 7824, "\u0120synthetic": 7825, "AV": 7826, "Hello": 7827, "\u0120late": 7828, "\u0120vote": 7829, "\u0120Number": 7830, "ocyt": 7831, "\u00e2\u0122\u013f).": 7832, "\u0120Stream": 7833, "\u0120variant": 7834, "\u0120presence": 7835, "params": 7836, "\u0120drive": 7837, "\u0120payoff": 7838, "\u0120biopsy": 7839, "\u0120potentially": 7840, "\u0120grows": 7841, "ooter": 7842, "Button": 7843, "\u0120conservation": 7844, "600": 7845, "font": 7846, "ls": 7847, "ners": 7848, "sup": 7849, "uled": 7850, "\u0120fits": 7851, "\u0120bottom": 7852, "omain": 7853, "\u0120CT": 7854, "\u0120suitable": 7855, "ensus": 7856, "\u0120Exec": 7857, "\u0120going": 7858, "\u0120monolith": 7859, "rightarrow": 7860, "\u0120established": 7861, "Dev": 7862, "}+\\": 7863, "\u0120taking": 7864, "\u0120cough": 7865, "\u0120middle": 7866, "\u0120hon": 7867, "\u0120love": 7868, "\u0120uniqu": 7869, "cond": 7870, "\u0120plas": 7871, "logic": 7872, "\u0120goes": 7873, "remote": 7874, "etermin": 7875, "\u0120insertion": 7876, "Assume": 7877, "\u0120Returns": 7878, "\u0120quadratic": 7879, "*)": 7880, "Co": 7881, "Mut": 7882, "vation": 7883, "\u0120threat": 7884, "styles": 7885, "\u0120identical": 7886, "\u0120Comple": 7887, "\u0120demo": 7888, "\u0120accessible": 7889, "\u0120separation": 7890, "\u0120observations": 7891, "\u0120purely": 7892, "ochastic": 7893, "\u0120neighborhood": 7894, "/**": 7895, "EC": 7896, "\u0120storing": 7897, "ilder": 7898, "\u0120prolong": 7899, "\u0120`@": 7900, "\u0120union": 7901, "\u0120prisma": 7902, "\u0120enabling": 7903, "\u0120definite": 7904, "\u01201024": 7905, "\u0120scalar": 7906, "interval": 7907, "Output": 7908, "\u0120salt": 7909, "\u0120airway": 7910, "\u0120muscle": 7911, "\u0120delirium": 7912, "kal": 7913, "\u0120cadence": 7914, "\u0120reaction": 7915, "elial": 7916, "\u0120stick": 7917, "results": 7918, "\u0120`{": 7919, "\u0120rh": 7920, "clic": 7921, "\u0120Determine": 7922, "\u0120requiring": 7923, "\u0120modulo": 7924, "\u012045": 7925, "\u0120collection": 7926, "\u0120confounding": 7927, "neighb": 7928, "classList": 7929, "\u0120timer": 7930, "\u0120connections": 7931, "\u0120laboratory": 7932, "NP": 7933, "Row": 7934, "Sim": 7935, "currency": 7936, "anim": 7937, "eling": 7938, "\u0120Its": 7939, "urations": 7940, "\u0120scroll": 7941, "\u0120developer": 7942, "\u0120info": 7943, "\u0120generator": 7944, "\u0120implemented": 7945, "predict": 7946, "partum": 7947, "\u0120measured": 7948, "visible": 7949, "grad": 7950, "iary": 7951, "\u0120),": 7952, "\u0120twe": 7953, "\u0120vectors": 7954, "osed": 7955, "\u0120unstable": 7956, "\u0120Now": 7957, "\u0120completeness": 7958, "\u0120conflicts": 7959, "\u0120regim": 7960, "\u0120750": 7961, "\u0120helpers": 7962, "\u0120normalize": 7963, "\u0120indexes": 7964, "\u0120Response": 7965, "\u0120placeholder": 7966, "slug": 7967, "rosis": 7968, "\u0120persistence": 7969, "\u0120gravit": 7970, ")`,": 7971, "/+": 7972, "CON": 7973, "GFR": 7974, "each": 7975, "ications": 7976, "\u0120usual": 7977, "\u0120Theorem": 7978, "\u0120++": 7979, "\u0120Est": 7980, "\u0120outlining": 7981, "\u0120parity": 7982, "\u0120proven": 7983, "\u0120variants": 7984, "\u0120Common": 7985, "\u0120myocard": 7986, "clean": 7987, "LEN": 7988, "subs": 7989, "Clar": 7990, "\u0120indicates": 7991, "\u0120Prefer": 7992, "\u0120expectations": 7993, "directed": 7994, "\u0120English": 7995, ":\"": 7996, "Go": 7997, "\\}": 7998, "^+": 7999, "wt": 8000, "\u0120^": 8001, "\u0120pun": 8002, "\u0120inventory": 8003, "etween": 8004, "sth": 8005, "\u0120staging": 8006, "under": 8007, "oder": 8008, "\u0120exerc": 8009, "\u0120Act": 8010, "\u0120Notes": 8011, "\u0120enumer": 8012, "\u0120really": 8013, "nea": 8014, "\u0120quantities": 8015, "\u0120aggregation": 8016, "\u0120estimates": 8017, "Found": 8018, "Main": 8019, "UR": 8020, "ah": 8021, "enant": 8022, "\u0120gram": 8023, "\u0120ord": 8024, "keep": 8025, "\u0120asynchronous": 8026, "\u0120Di": 8027, "\u0120led": 8028, "\u0120conting": 8029, "\u0120permissions": 8030, "\u0120Incre": 8031, "mselves": 8032, "Exp": 8033, "\u0120prediction": 8034, "\u0120sequencing": 8035, "\u0120divide": 8036, "\u0120mov": 8037, "\u0120periodic": 8038, "\u0120influence": 8039, "\u0120eigenvalues": 8040, "\"},": 8041, "26": 8042, "cursor": 8043, "dog": 8044, "rogate": 8045, "\u0120annot": 8046, "\u0120wall": 8047, "stolic": 8048, "\u0120canary": 8049, "duced": 8050, "\u0120season": 8051, "\u0120differentiate": 8052, "\u0120checkpoints": 8053, "\u0120KPI": 8054, "\u0120download": 8055, "rank": 8056, "\u0120physics": 8057, "\u0120probabilities": 8058, "\u0120Additionally": 8059, "={{": 8060, "\u0120Runtime": 8061, "\u0120hemod": 8062, "\u0120conceptual": 8063, "\u0120exponent": 8064, "\u0120reconstruct": 8065, "UP": 8066, "cp": 8067, "merge": 8068, "none": 8069, "\u0120ts": 8070, "\u0120themselves": 8071, "\u0120bounds": 8072, "\u0120incons": 8073, "\u0120stays": 8074, "\u0120Tuple": 8075, "\u0120'/": 8076, "\u0120Non": 8077, "\u0120seek": 8078, "\u0120included": 8079, "\u0120fear": 8080, "\u0120flush": 8081, "\u0120ends": 8082, "\u0120resulting": 8083, "submit": 8084, "\u0120combine": 8085, "\u0120occup": 8086, "venue": 8087, "flag": 8088, "\u0120bulbs": 8089, "\u0120ignore": 8090, "\u0120education": 8091, "depth": 8092, "\u0120albumin": 8093, "'d": 8094, "78": 8095, "NAME": 8096, "Suppose": 8097, "WHERE": 8098, "\\\\": 8099, "\u0120fib": 8100, "\u0120-\\": 8101, "\u0120\"\"": 8102, "aper": 8103, "\u0120adherence": 8104, "\"):": 8105, "poch": 8106, "\u0120covari": 8107, "\u0120Command": 8108, "private": 8109, "\u0120docs": 8110, "register": 8111, "\u0120caches": 8112, "\u0120optionally": 8113, "\u0120attempts": 8114, "\u0120approvals": 8115, "Password": 8116, "Filter": 8117, "PM": 8118, "tice": 8119, "\u0120tend": 8120, "\u0120ctx": 8121, "ilateral": 8122, "\u0120glob": 8123, "\u0120Ant": 8124, "\u0120\"@": 8125, "\u0120Eu": 8126, "\u0120returned": 8127, "eval": 8128, "\u0120interactive": 8129, "\u0120institutions": 8130, "\u0120zone": 8131, "\u0120predictive": 8132, "\u0120specificity": 8133, "END": 8134, "\u0120flexible": 8135, "\u0120aligned": 8136, "\u0120queues": 8137, "\u0120heavier": 8138, "\u0120subsequence": 8139, "Off": 8140, "Sort": 8141, "Session": 8142, "VAL": 8143, "mma": 8144, "sur": 8145, "\u0120slight": 8146, "ana": 8147, "\u0120hook": 8148, "eless": 8149, "\u0120online": 8150, "associ": 8151, "\u0120POST": 8152, "portant": 8153, "\u0120scop": 8154, "\u0120scoring": 8155, "ubern": 8156, "\u0120disrupt": 8157, "\u0120completed": 8158, "\u0120managing": 8159, "\u012064": 8160, "\u0120readiness": 8161, "\u0120blocking": 8162, "leneck": 8163, "\u0120utilities": 8164, "ESC": 8165, "market": 8166, "\u0120rapidly": 8167, "\u0120invariant": 8168, "\u0120gravitational": 8169, "ubernetes": 8170, "Einstein": 8171, "Term": 8172, "bad": 8173, "}}\\": 8174, "\u0120friend": 8175, "ortun": 8176, "\u0120Multi": 8177, "available": 8178, "\u0120Other": 8179, "\u0120Load": 8180, "ube": 8181, "ynth": 8182, "trim": 8183, "\u0120correction": 8184, "Process": 8185, "\u0120currently": 8186, "ruption": 8187, "\u0120accessibility": 8188, "\u0120languages": 8189, "\u0120measurement": 8190, "DataFrame": 8191, "tasks": 8192, "\u0120electro": 8193, "\u0120Monitor": 8194, "\u0120inhibitors": 8195, "\u0120dominant": 8196, "\u0120hypotension": 8197, "Err": 8198, "High": 8199, "dashboard": 8200, "lint": 8201, "rint": 8202, "inv": 8203, "hears": 8204, "unt": 8205, "\u0120imag": 8206, "\u0120intake": 8207, "\u0120cancel": 8208, "\u0120Ma": 8209, "\u0120minute": 8210, "\u0120hardest": 8211, "\u0120antibiotic": 8212, "\u0120proportional": 8213, "AI": 8214, "bot": 8215, "ancial": 8216, "\u0120dense": 8217, "igger": 8218, "\u0120Token": 8219, "\u0120profit": 8220, "\u0120HF": 8221, "\u0120Http": 8222, "phot": 8223, "\u0120doing": 8224, "\u0120Convert": 8225, "lick": 8226, "\u0120availability": 8227, "\u0120imports": 8228, "\u0120designed": 8229, "\u0120causal": 8230, "\u0120executive": 8231, "\u0120cultures": 8232, "\u0120cached": 8233, "\u0120association": 8234, "\u0120tailor": 8235, "\u0120radiation": 8236, "\u0120milest": 8237, "\u0120Handle": 8238, "\u0120reproduc": 8239, "79": 8240, "Search": 8241, "\u010a\u010a\u0120\u0120\u0120\u0120\u0120\u0120\u0120\u0120\u0120\u0120\u0120\u0120\u0120\u0120\u0120": 8242, "\u0120reuse": 8243, "\u0120ischem": 8244, "\u0120white": 8245, "\u0120Self": 8246, "\u0120assets": 8247, "\u0120Low": 8248, "\u0120supportive": 8249, "\u0120derivation": 8250, "\u0120scales": 8251, "\u0120dataclass": 8252, "\u0120lengths": 8253, "\u0120organization": 8254, "\u0120meningitis": 8255, ")),": 8256, "pmod": 8257, "\u0120cm": 8258, "\u0120restore": 8259, "\u0120proceed": 8260, "\u0120Count": 8261, "aining": 8262, "Strategy": 8263, "prov": 8264, "\u0120interpre": 8265, "Inf": 8266, "bose": 8267, "\u0120JOIN": 8268, "shell": 8269, "\u0120>>": 8270, "\u0120clearance": 8271, "svg": 8272, "\u0120topology": 8273, "\u0120beautiful": 8274, "\u0120singular": 8275, "CC": 8276, "aud": 8277, "\u0120sepsis": 8278, "\u0120insp": 8279, "quality": 8280, "\u0120lag": 8281, "ulative": 8282, "\u0120rise": 8283, "\u0120[];": 8284, "\u0120nothing": 8285, "settings": 8286, "\u0120validated": 8287, "\u0120justified": 8288, "models": 8289, "\u0120maximal": 8290, "\u0120regulations": 8291, "\u0120Query": 8292, "\u0120uniformly": 8293, "RA": 8294, "Room": 8295, "aos": 8296, "category": 8297, "move": 8298, "rous": 8299, "icles": 8300, "\u0120biology": 8301, "\u0120reass": 8302, "lope": 8303, "\u0120vary": 8304, "\u0120proposition": 8305, "\u0120gods": 8306, "\u0120PE": 8307, "\u0120Prom": 8308, "\u0120From": 8309, "\u0120joint": 8310, "\u0120interest": 8311, "\u0120choosing": 8312, "\u0120princ": 8313, "\u0120focused": 8314, "location": 8315, "empotent": 8316, "\u0120informed": 8317, "\u0120exceeds": 8318, "Rightarrow": 8319, "\u0120contradictions": 8320, "\u0120Finally": 8321, "tology": 8322, "300": 8323, "YPE": 8324, "inated": 8325, "\u0120vacc": 8326, "\u0120gaps": 8327, "\u0120riddle": 8328, "\u0120leaves": 8329, "cludes": 8330, "\u0120serve": 8331, "\u0120descript": 8332, "minute": 8333, "posts": 8334, "distance": 8335, "\u0120numerical": 8336, "\u0120accurate": 8337, "Security": 8338, ")}\\": 8339, "1000": 8340, "footer": 8341, "hour": 8342, "\u0120ul": 8343, "\u0120tang": 8344, "iling": 8345, "\u0120vit": 8346, "umps": 8347, "plus": 8348, "\u012028": 8349, "ococc": 8350, "\u0120workload": 8351, "\u0120intersection": 8352, "\u0120matplotlib": 8353, "echo": 8354, "\u0120flu": 8355, "\u0120Comp": 8356, "requency": 8357, "security": 8358, "ymph": 8359, "\u0120repeatedly": 8360, "transform": 8361, "\u0120significance": 8362, "\u0120accurately": 8363, "SERT": 8364, "\u0120compatible": 8365, "Providing": 8366, "#[": 8367, "([]": 8368, ")+\\": 8369, "cs": 8370, "\u0120cfg": 8371, "itual": 8372, "\u0120stochastic": 8373, "\u0120lost": 8374, "\u0120DNA": 8375, "\u0120apps": 8376, "\u0120'$": 8377, "\u0120scrap": 8378, "\u0120able": 8379, "\u0120interact": 8380, "\u0120identifiers": 8381, "\u0120recommendations": 8382, "\u0120finally": 8383, "\u0120likelihood": 8384, "drug": 8385, "++;": 8386, "manager": 8387, "slide": 8388, "\u0120rounded": 8389, "orticoster": 8390, "Entry": 8391, "\u0120ciphertext": 8392, "\u0120conjug": 8393, "Sigma": 8394, "`;": 8395, "itative": 8396, "\u0120pets": 8397, "roy": 8398, "\u0120dosing": 8399, "utter": 8400, "account": 8401, "channel": 8402, "\u0120losing": 8403, "\u0120Rate": 8404, "clone": 8405, "\u0120leaf": 8406, "\u0120rough": 8407, "\u0120prints": 8408, "\u00e2\u0122\u013f:": 8409, "\u0120lattice": 8410, "\u0120sequences": 8411, "Default": 8412, "\u0120replaces": 8413, "\u0120landscape": 8414, "=$(": 8415, "\u0120accordingly": 8416, "\u0120completion": 8417, "\u0120GeV": 8418, "\u0120nationalities": 8419, "\u0120Bayesian": 8420, "08": 8421, "rev": 8422, "\u0120clo": 8423, "oriented": 8424, "\u0120hol": 8425, "endor": 8426, "\u0120Sm": 8427, "chmark": 8428, "izumab": 8429, "\u0120Med": 8430, "\u0120Vec": 8431, "\u0120die": 8432, "\u0120viral": 8433, "\u0120drugs": 8434, "\u0120Array": 8435, "\u0120suspected": 8436, "expand": 8437, "\u0120medications": 8438, "chemy": 8439, "\u0120menu": 8440, "-%": 8441, "SV": 8442, "bi": 8443, "hil": 8444, "\u0120taken": 8445, "\u0120doub": 8446, "ithium": 8447, "\u0120exclude": 8448, "resents": 8449, "\u0120Pe": 8450, "\u0120DESC": 8451, "\u0120controller": 8452, "\u0120adoption": 8453, "\u0120LHC": 8454, "jection": 8455, "riter": 8456, "\u0120UN": 8457, "icture": 8458, "matic": 8459, "\u0120commits": 8460, "\u0120entity": 8461, "\u0120entropy": 8462, "colors": 8463, "\u0120happiness": 8464, "\u0120diagrams": 8465, "\u0120decreases": 8466, "ipheral": 8467, "\u0120smokes": 8468, "/{": 8469, "70": 8470, "Link": 8471, "Layout": 8472, "live": 8473, "\u0120\u00f0\u0141": 8474, "\u0120tot": 8475, "\u0120Phi": 8476, "agg": 8477, "\u0120scans": 8478, "\u0120Gauss": 8479, "(\"\\": 8480, "\u0120upstream": 8481, "Exec": 8482, "\u0120progn": 8483, "\u0120educational": 8484, "\u0120merely": 8485, "lycemia": 8486, "\u0120piece": 8487, "HIR": 8488, "Rem": 8489, "fa": 8490, "you": 8491, "\u0120tiny": 8492, "\u0120mood": 8493, "ulator": 8494, "\u0120IS": 8495, "\u0120Total": 8496, "\u0120Audit": 8497, "\u0120comment": 8498, "\u0120sharing": 8499, "\u0120discipl": 8500, "\u0120dock": 8501, "\u0120colon": 8502, "\u0120supply": 8503, "\u0120configure": 8504, "\u0120predicted": 8505, "\u0120swap": 8506, "\u0120ratios": 8507, "\u0120coordinate": 8508, "\u0120isolated": 8509, "\u0120traditions": 8510, "\u0120schools": 8511, "ommended": 8512, "34": 8513, "BE": 8514, "Med": 8515, "orization": 8516, "alert": 8517, "\u0120IF": 8518, "iration": 8519, "\u0120Err": 8520, "\u0120overrid": 8521, "\u0120infectious": 8522, "requirements": 8523, "terminal": 8524, "\u0120visited": 8525, "ameters": 8526, "\u0120presentation": 8527, "connection": 8528, "\u0120Implementation": 8529, "\u0120denom": 8530, "querySelector": 8531, "\u0120bullet": 8532, "\u0120circuit": 8533, "\u0120geometric": 8534, "\u0120involvement": 8535, "\u0120efforts": 8536, "itutional": 8537, "900": 8538, "=[": 8539, "MI": 8540, "saving": 8541, "\u0120talk": 8542, "repo": 8543, "\u0120saved": 8544, "lead": 8545, "\u0120revis": 8546, "antity": 8547, "resolve": 8548, "\u0120Sch": 8549, "\u0120Page": 8550, "\u0120leave": 8551, "\u0120expose": 8552, "\u0120confir": 8553, "\u0120everyone": 8554, "\u0120directed": 8555, "Comple": 8556, "\u0120sequential": 8557, "\u0120writer": 8558, "\u0120minimize": 8559, "\u0120branches": 8560, "\u00e2\u0136\u013e\u00e2\u0136\u0122\u00e2\u0136\u0122": 8561, "\u0120enhance": 8562, "associated": 8563, "\u0120milestones": 8564, "></": 8565, "DAT": 8566, "TC": 8567, "gi": 8568, "hook": 8569, "tw": 8570, "initial": 8571, "invalid": 8572, "\u0120mand": 8573, "\u0120replic": 8574, "etilde": 8575, "\u0120SSR": 8576, "ayer": 8577, "\u0120RSA": 8578, "\u0120lets": 8579, "agic": 8580, "series": 8581, "\u0120mater": 8582, "\u0120cardinal": 8583, "\u0120alongside": 8584, "display": 8585, "slice": 8586, "\u0120timeouts": 8587, "\u0120mitigation": 8588, "\u0120Simple": 8589, "\u0120informative": 8590, "\u0120discriminating": 8591, "\u0120dynamics": 8592, "widetilde": 8593, ":%": 8594, "Block": 8595, "Gener": 8596, "cest": 8597, "fin": 8598, "oop": 8599, "\u00c2\u00b7": 8600, "\u0120crow": 8601, "inger": 8602, "\u0120dial": 8603, "entral": 8604, "\u0120Att": 8605, "\u0120Bu": 8606, "\u0120compens": 8607, "\u0120\u0120\u0120\u0120\u0120\u0120\u0120\u0120\u0120\u0120\u0120\u0120": 8608, "\u0120outbox": 8609, "\u0120defines": 8610, "\u0120interfaces": 8611, "pool": 8612, "\u0120clinicians": 8613, "\u0120learn": 8614, "apsed": 8615, "\u0120estimated": 8616, "\u0120relativ": 8617, "\u0120spectrum": 8618, "\u0120ventricular": 8619, "DA": 8620, "MAR": 8621, "before": 8622, "cut": 8623, "\u0120slic": 8624, "orter": 8625, "\u0120wrap": 8626, "\u0120horm": 8627, "\u0120Ac": 8628, "\u0120CON": 8629, "\u0120Pres": 8630, "\u0120traces": 8631, "\"))": 8632, "\u0120versioning": 8633, "\u0120packet": 8634, "\u0120philosophers": 8635, "\u0120harder": 8636, "\u0120venous": 8637, "Structuring": 8638, ")\",": 8639, "UID": 8640, "]}": 8641, "cr": 8642, "freq": 8643, "tick": 8644, "tags": 8645, "}[": 8646, "rogen": 8647, "\u0120\\|": 8648, "\u0120TCP": 8649, "estyle": 8650, "uma": 8651, "\u0120SV": 8652, "\u0120OS": 8653, "\u0120Gate": 8654, "beat": 8655, "\u0120audio": 8656, "uchy": 8657, "\u0120degrad": 8658, "\u0120rotate": 8659, "ufficient": 8660, "\u0120music": 8661, "typedef": 8662, "\u0120principal": 8663, "42": 8664, "Direct": 8665, "Eff": 8666, "sided": 8667, "uk": 8668, "wd": 8669, "orption": 8670, "asis": 8671, "\u0120convers": 8672, "ulates": 8673, "\u0120Sign": 8674, "agraph": 8675, "\u0120Hash": 8676, "illing": 8677, "\u0120Just": 8678, "\u0120attend": 8679, "\u0120surrogate": 8680, "eparate": 8681, "ITH": 8682, "\u0120Adjust": 8683, "Spec": 8684, "\u0120specialist": 8685, "\u0120subsets": 8686, "Height": 8687, "\u0120meetings": 8688, "\u0120trend": 8689, "\u0120coupling": 8690, "\u0120belong": 8691, "Connection": 8692, "rability": 8693, "\u0120scattering": 8694, "Lock": 8695, "Option": 8696, "Telemetry": 8697, "cm": 8698, "counts": 8699, "single": 8700, "erated": 8701, "orrow": 8702, "\u0120warm": 8703, "platform": 8704, "ocale": 8705, "textContent": 8706, "speed": 8707, "\u0120suppress": 8708, "\u0120suppression": 8709, "\u0120cooper": 8710, "forEach": 8711, "ologies": 8712, "\u0120owners": 8713, "\u0120breaking": 8714, "\u0120packages": 8715, "transition": 8716, "\u0120Record": 8717, "\u0120broader": 8718, "Planning": 8719, "\u0120society": 8720, "\u0120FastAPI": 8721, "Cost": 8722, "Des": 8723, "Http": 8724, "\u0120pag": 8725, "\u0120pandas": 8726, "leton": 8727, "\u0120AC": 8728, "\u0120Send": 8729, "\u0120Sample": 8730, "\u0120although": 8731, "\u0120applying": 8732, "\u0120Ed": 8733, "\u0120Bl": 8734, "\u0120Message": 8735, "console": 8736, "\u0120generates": 8737, "prefix": 8738, "losed": 8739, "ediation": 8740, "\u0120sums": 8741, "\u0120loads": 8742, "ieve": 8743, "\u0120approximate": 8744, "\u0120exceptions": 8745, "TOS": 8746, "\u0120categories": 8747, "\u0120inhibitor": 8748, "\u0120DEFAULT": 8749, "\u0120slightly": 8750, "($": 8751, ".*": 8752, "]\\)": 8753, "bind": 8754, "mount": 8755, "muted": 8756, "\u0120;": 8757, "reated": 8758, "\u0120unexpected": 8759, "oglob": 8760, "\u0120transactions": 8761, "\u0120letters": 8762, "cience": 8763, "\u0120represents": 8764, "\u0120Enable": 8765, "\u0120determined": 8766, "\u0120Remove": 8767, "\u0120acquired": 8768, "\u0120obligations": 8769, "RR": 8770, "between": 8771, "\u0120necess": 8772, "loom": 8773, "\u0120Sk": 8774, "\u0120Pay": 8775, "\u0120neural": 8776, "outh": 8777, "perty": 8778, "\u0120returning": 8779, "\u0120translation": 8780, "\u0120diet": 8781, "culating": 8782, "gorithm": 8783, "mutex": 8784, "\u0120advance": 8785, "variant": 8786, "\u0120signaling": 8787, "\u0120graceful": 8788, "\u0120obtained": 8789, "\u0120algebraic": 8790, "\u0120empirical": 8791, "\u0120copies": 8792, "\u0120Connect": 8793, "\u0120hemorrhage": 8794, "Cal": 8795, "]=": 8796, "gy": 8797, "paid": 8798, "\u00c2\u00b0": 8799, "\u0120bin": 8800, "\u0120react": 8801, "\u0120incomplete": 8802, "\u0120infrastructure": 8803, "acer": 8804, "elength": 8805, "ilt": 8806, "\u0120Text": 8807, "\u0120Top": 8808, "\u0120Custom": 8809, "ounce": 8810, "\u0120Edge": 8811, "\u0120strugg": 8812, "\u0120'#": 8813, "encode": 8814, "\u0120letter": 8815, "pars": 8816, "standing": 8817, "\u0120genu": 8818, "graphql": 8819, "\u0120geometry": 8820, ")?;": 8821, "digit": 8822, "\u0120snippet": 8823, "EF": 8824, "Non": 8825, "atric": 8826, "\u0120friction": 8827, "\u0120regex": 8828, "else": 8829, "ithub": 8830, "\u0120PA": 8831, "actate": 8832, "ideo": 8833, "\u0120400": 8834, "ogle": 8835, "\u0120Strong": 8836, "shared": 8837, "\u0120passeng": 8838, "\u0120biom": 8839, "\u0120gradients": 8840, "\u0120Flask": 8841, "\u0120SLOs": 8842, "Are": 8843, "Gamma": 8844, "Level": 8845, "bine": 8846, "kind": 8847, "samples": 8848, "ycin": 8849, "attr": 8850, "\u0120epid": 8851, "\u0120nor": 8852, "\u0120conclude": 8853, "\u0120lymph": 8854, "\u0120PRI": 8855, "ostics": 8856, "\u0120GPS": 8857, "\u0120Insert": 8858, "owner": 8859, "\u010a\u0120\u0120\u0120\u0120\u0120\u0120\u0120\u0120\u0120\u0120\u0120\u0120\u0120\u0120\u0120\u0120\u0120\u0120\u0120\u0120\u0120\u0120\u0120\u0120\u0120\u0120\u0120\u0120\u0120\u0120\u0120\u0120": 8860, "PIO": 8861, "ship": 8862, "('/": 8863, "ytics": 8864, "\u0120missed": 8865, "\u0120captures": 8866, "\u0120symmetric": 8867, "\u0120philosophy": 8868, "decode": 8869, "Observ": 8870, "swers": 8871, "\u0120manifest": 8872, "\u0120hierarchy": 8873, "\u0120wavelength": 8874, "\u0120colleague": 8875, "ogeneous": 8876, "haust": 8877, "CV": 8878, "Depend": 8879, "HI": 8880, "TER": 8881, "dy": 8882, "png": 8883, "tests": 8884, "ycard": 8885, "\u0120answers": 8886, "\u0120sty": 8887, "health": 8888, "chunk": 8889, "\u0120lot": 8890, "\u0120apples": 8891, "\u0120Function": 8892, "\u0120His": 8893, "avy": 8894, "\u0120valu": 8895, "creen": 8896, "ishes": 8897, "\u0120travers": 8898, "ursive": 8899, "good": 8900, "\u0120redis": 8901, "\u0120INTO": 8902, "\u0120Image": 8903, "\u0120psychological": 8904, "\u0120vascular": 8905, "\u0120snippets": 8906, "\u0120bottleneck": 8907, "\u0120dangerous": 8908, "\u0120plasma": 8909, "'],": 8910, "\\!\\": 8911, "doster": 8912, "fra": 8913, "mac": 8914, "oy": 8915, "oices": 8916, "rist": 8917, "etry": 8918, "\u0120ste": 8919, "\u0120lives": 8920, "resistant": 8921, "\u0120PII": 8922, "yses": 8923, "\u0120produced": 8924, "paths": 8925, "\u0120Component": 8926, "stringify": 8927, "\u0120payment": 8928, "Also": 8929, "\u0120numpy": 8930, "\u0120entirely": 8931, "\u0120impossibilities": 8932, "\u0120hitting": 8933, "\u0120little": 8934, "\u0120orthog": 8935, "\u0120bundle": 8936, "Clarifying": 8937, "Current": 8938, "Failed": 8939, "QUE": 8940, "ii": 8941, "np": 8942, "prom": 8943, "\u0120famil": 8944, "\u0120hi": 8945, "\u0120lint": 8946, "unwrap": 8947, "\u0120150": 8948, "\u0120Sl": 8949, "\",\"": 8950, "\u0120meters": 8951, "\u0120modal": 8952, "valence": 8953, "\u0120deprec": 8954, "cols": 8955, "eady": 8956, "notes": 8957, "\u0120rigorously": 8958, "Resource": 8959, "Price": 8960, "Should": 8961, "OUT": 8962, "\u0120CSF": 8963, "\u0120cardiac": 8964, "volume": 8965, "\u0120asymptotic": 8966, "\u0120simultaneously": 8967, "HR": 8968, "Todo": 8969, "\u0120sending": 8970, "eties": 8971, "\u0120II": 8972, "\u0120gas": 8973, "\u0120suc": 8974, "\u0120Del": 8975, "\u0120Dijkstra": 8976, "conf": 8977, "\u0120Linux": 8978, "production": 8979, "\u0120pathway": 8980, "\u0120detected": 8981, "\u0120Prot": 8982, "\u0120./": 8983, "umeric": 8984, "\u0120consistently": 8985, "\u0120iterations": 8986, "\u0120preventing": 8987, "handler": 8988, "\u0120opportun": 8989, "\u0120hospitalization": 8990, "frames": 8991, "LM": 8992, "Pool": 8993, "ional": 8994, "\u0120anything": 8995, "\u0120SLA": 8996, "\u0120Different": 8997, "agon": 8998, "\u0120'.": 8999, "ffff": 9000, "\u0120constants": 9001, "\u0120prepare": 9002, "\u0120disaster": 9003, "\u0120perror": 9004, "\u0120interventions": 9005, "\u0120fluct": 9006, "\u0120charset": 9007, "ameter": 9008, "\u0120Require": 9009, "\u0120Class": 9010, "\u0120easily": 9011, "\u0120antibody": 9012, "\u0120computing": 9013, "\u0120utilitarianism": 9014, "ArgumentParser": 9015, "\u0120encrypted": 9016, "symbol": 9017, "COM": 9018, "Optim": 9019, "ius": 9020, "jpg": 9021, "vents": 9022, "\u0120tach": 9023, "\u0120thro": 9024, "\u0120pir": 9025, "oura": 9026, "\u0120Rol": 9027, "\u0120km": 9028, "\u0120Console": 9029, "\u0120raises": 9030, "\u0120markers": 9031, "being": 9032, "\u0120morally": 9033, "\u0120\"${": 9034, "\u0120approximations": 9035, "\u0120filesystem": 9036, "chitecture": 9037, "\u0120seeing": 9038, "\u0120splitting": 9039, "attery": 9040, "\u0120Treatment": 9041, "Attribute": 9042, "\u0120premium": 9043, "\u0120succeed": 9044, "BW": 9045, "Take": 9046, "UES": 9047, "rated": 9048, "sb": 9049, "xFF": 9050, "\u0120corticoster": 9051, "\u0120ped": 9052, "aseline": 9053, "star": 9054, "raining": 9055, "ulus": 9056, "\u0120vec": 9057, "\u0120proxim": 9058, "\u0120Access": 9059, "angles": 9060, "\u0120handled": 9061, "\u0120saturation": 9062, "\u0120scripts": 9063, "\u0120optimize": 9064, "\u0120documented": 9065, "\u0120rolling": 9066, "\u0120destination": 9067, "\u0120forecast": 9068, "\u0120leakage": 9069, "ORDER": 9070, "\u0120contingency": 9071, "\u0120pirates": 9072, "36": 9073, "GB": 9074, "Mat": 9075, "Make": 9076, "]\\": 9077, "_(": 9078, "cape": 9079, "draw": 9080, "\u0120ap": 9081, "enu": 9082, "asm": 9083, "\u0120heter": 9084, "adder": 9085, "\u0120orient": 9086, "\u0120Na": 9087, "\u0120scr": 9088, "\u0120extraction": 9089, "\u0120And": 9090, "\u0120satell": 9091, "lik": 9092, "\u0120movement": 9093, "\u0120streams": 9094, "\u0120broadcast": 9095, "datetime": 9096, "================": 9097, "Object": 9098, "\u0120relatively": 9099, "\u0120tolerance": 9100, "\u0120Cauchy": 9101, "27": 9102, "Body": 9103, "Customer": 9104, "Eq": 9105, "Even": 9106, "cor": 9107, "iar": 9108, "lived": 9109, "rict": 9110, "sleep": 9111, "vious": 9112, "\u0120mL": 9113, "\u0120da": 9114, "\u0120incoming": 9115, "standard": 9116, "\u0120Two": 9117, "\u0120alt": 9118, "\u0120Pipeline": 9119, "\u0120}),": 9120, "\u0120prices": 9121, "\u0120Limit": 9122, "\u0120GET": 9123, "\u0120func": 9124, "\u0120Real": 9125, "white": 9126, "apture": 9127, "\u0120powerful": 9128, "\u0120formats": 9129, "\u0120networks": 9130, "Schema": 9131, "\u0120favorable": 9132, "supported": 9133, "Email": 9134, "\").": 9135, "icious": 9136, "\u0120ICU": 9137, "\u0120Sever": 9138, "\u0120Put": 9139, "\u0120Dat": 9140, "\u0120Le": 9141, "\u0120permut": 9142, "\u0120functionality": 9143, "\u0120confusion": 9144, "\u0120acts": 9145, "\u0120coin": 9146, "prise": 9147, "\u0120received": 9148, "\u0120labs": 9149, "\u0120decomp": 9150, "pollo": 9151, "\u0120neurologic": 9152, "compat": 9153, "\u0120dedu": 9154, "********": 9155, "recommended": 9156, "neighbor": 9157, "MARY": 9158, "Duration": 9159, "KEN": 9160, "Optional": 9161, "Trade": 9162, "[$": 9163, "eros": 9164, "\u0120sex": 9165, "\u012027": 9166, "\u0120Block": 9167, "\u0120Fou": 9168, "\u0120syntax": 9169, "\u0120God": 9170, "engine": 9171, "scroll": 9172, "\u0120presents": 9173, "\u0120explains": 9174, "\u0120environmental": 9175, "ACK": 9176, "\u0120broker": 9177, "\u0120populations": 9178, "TOKEN": 9179, "\u0120naturally": 9180, "\u0120Express": 9181, "\u0120budgets": 9182, "\u0120invariants": 9183, "\u0120refactored": 9184, "\u0120resilience": 9185, "\u0120invasive": 9186, "\u0120docker": 9187, "\"])": 9188, "Five": 9189, "TI": 9190, "mix": 9191, "\u0120reward": 9192, "images": 9193, "stat": 9194, "\u0120star": 9195, "quis": 9196, "\u0120Tier": 9197, "\u0120ranges": 9198, "\u0120beg": 9199, "\u0120patch": 9200, "\u0120handlers": 9201, "\u0120Construct": 9202, "\u0120chooses": 9203, "\u0120sky": 9204, "\u0120Once": 9205, "\u0120cutoff": 9206, "\u0120elevation": 9207, "\u0120tells": 9208, "\u0120discussion": 9209, "omorphism": 9210, "brand": 9211, "\u0120intrac": 9212, "\u0120\u00c2\u00ac": 9213, "\u0120Drug": 9214, "ORE": 9215, "\u0120sb": 9216, "\u0120px": 9217, "\u0120epoch": 9218, "olved": 9219, "oted": 9220, "reset": 9221, "\u0120peripheral": 9222, "\u0120parad": 9223, "eptic": 9224, "\u0120similarity": 9225, "\u012099": 9226, "\u0120comparing": 9227, "\u0120peak": 9228, "\u0120explaining": 9229, "\u0120absent": 9230, "\u0120tenants": 9231, "\u0120temperatures": 9232, "\u0120ticket": 9233, "\u0120hepat": 9234, "\u0120million": 9235, "\u0120stopping": 9236, "\u0120plausible": 9237, "GER": 9238, "NN": 9239, "pressure": 9240, "sched": 9241, "\u0120cyt": 9242, "\u0120pin": 9243, "ectomy": 9244, "\u012021": 9245, "\u0120compression": 9246, "ignore": 9247, "ublish": 9248, "\u0120enum": 9249, "\u0120overview": 9250, "\u0120decline": 9251, "sha": 9252, "\u0120maybe": 9253, "\u0120antip": 9254, "\u0120majority": 9255, "\u0120preference": 9256, "ivalently": 9257, "\u0120lightweight": 9258, "\u0120axis": 9259, "APP": 9260, "circle": 9261, "hydration": 9262, "execute": 9263, "\u0120religious": 9264, "\u0120political": 9265, "Av": 9266, "^(": 9267, "bits": 9268, "oke": 9269, "pending": 9270, "aled": 9271, "\u0120pit": 9272, "\u0120woman": 9273, "\u0120dot": 9274, "\u0120native": 9275, "\u0120house": 9276, "acu": 9277, "igin": 9278, "\u0120SHA": 9279, "\u0120Cache": 9280, "\u0120Basic": 9281, "derive": 9282, "\u012035": 9283, "),\\": 9284, "\u0120inters": 9285, "\u0120Examples": 9286, "\u0120phr": 9287, "\u0120flat": 9288, "\u0120everywhere": 9289, "\u0120protected": 9290, "DEX": 9291, "\u0120weighings": 9292, "checkout": 9293, "\u0120SQLite": 9294, "\u0120weakness": 9295, "\u0120URLs": 9296, "\u00e2\u0136\u0122\u00e2\u0136\u0122\u00e2\u0136\u0122\u00e2\u0136\u0122\u00e2\u0136\u0122\u00e2\u0136\u0122\u00e2\u0136\u0122\u00e2\u0136\u0122\u00e2\u0136\u0122\u00e2\u0136\u0122\u00e2\u0136\u0122\u00e2\u0136\u0122\u00e2\u0136\u0122\u00e2\u0136\u0122\u00e2\u0136\u0122\u00e2\u0136\u0122": 9297, "\u0120conservative": 9298, "################": 9299, "Redu": 9300, "\u0120regardless": 9301, "\u0120denominator": 9302, "ycardia": 9303, ",-": 9304, "Mode": 9305, "VM": 9306, "^-": 9307, "hel": 9308, "names": 9309, "\u0120tensor": 9310, "\u0120mir": 9311, "\u0120rein": 9312, "\u0120night": 9313, "\u0120strip": 9314, "igue": 9315, "\u0120exhaust": 9316, "\u0120Actions": 9317, "umes": 9318, "\u0120180": 9319, "\u0120schemas": 9320, "\u0120multipl": 9321, "\u0120folder": 9322, "\u0120poly": 9323, "\u0120postpartum": 9324, "\u0120automatic": 9325, "\u0120formulas": 9326, "WriteLine": 9327, "\u0120Improve": 9328, "\u0120assignment": 9329, "\u0120Observability": 9330, "Println": 9331, "86": 9332, "=%": 9333, "DS": 9334, "awn": 9335, "hard": 9336, "mer": 9337, "ativity": 9338, "\u0120anemia": 9339, "utical": 9340, "\u0120Rad": 9341, "aceutical": 9342, "\u0120proves": 9343, "\u0120Kafka": 9344, "luep": 9345, "apeut": 9346, "\u0120updating": 9347, "\u0120attribute": 9348, "\u0120harms": 9349, "\u0120books": 9350, "Usage": 9351, "\u0120grammar": 9352, "rousel": 9353, "ococcal": 9354, ")\"": 9355, "Many": 9356, "Net": 9357, "RO": 9358, "]+": 9359, "`),": 9360, "iliary": 9361, "\u0120Tim": 9362, "\u0120Are": 9363, "\u0120Current": 9364, "\u0120Customer": 9365, "arent": 9366, "\u0120Fix": 9367, "\u0120retail": 9368, "\u012036": 9369, "ubble": 9370, "\u0120obstruction": 9371, "loaded": 9372, "\u0120instant": 9373, "scop": 9374, "\u0120Valid": 9375, "pirin": 9376, "\u0120locks": 9377, "\u0120cuts": 9378, "\u0120contribution": 9379, "\u0120competitors": 9380, "\u0120authority": 9381, "\u0120Metrics": 9382, "\u0120members": 9383, "\u0120propagation": 9384, "\u0120hepatic": 9385, "\u0120biological": 9386, "\u0120widely": 9387, "\u0120Fourier": 9388, "Box": 9389, "EE": 9390, "mig": 9391, "|^": 9392, "ony": 9393, "\u0120pal": 9394, "\u0120bot": 9395, "\u0120bank": 9396, "oup": 9397, "\u0120race": 9398, "\u0120Eth": 9399, "\u0120composition": 9400, "\u0120Last": 9401, "\u0120partner": 9402, "\u0120lineage": 9403, "\u0120driven": 9404, "RED": 9405, "\u0120lift": 9406, "\u0120peer": 9407, "\u0120Address": 9408, "\u0120covers": 9409, "\u0120generalized": 9410, "Substitute": 9411, "connected": 9412, "\u0120contributes": 9413, "pipeline": 9414, "\u0120consumption": 9415, "directory": 9416, "\u0120launching": 9417, "\u0120Configure": 9418, "\u0120intuition": 9419, "ERROR": 9420, "\u0120anticoagulation": 9421, ")}.": 9422, ">();": 9423, "global": 9424, "hello": 9425, "vm": 9426, "\u0120oste": 9427, "\u0120stake": 9428, "\u0120lithium": 9429, "amespace": 9430, "\u0120TIME": 9431, "essment": 9432, "\u0120intention": 9433, "\u0120worksh": 9434, "\u0120modest": 9435, "\u0120outer": 9436, "\u0120species": 9437, "STAM": 9438, "\u0120eventually": 9439, "riorit": 9440, "\u0120charge": 9441, "\u0120worse": 9442, "\u0120actionable": 9443, "\u0120visibility": 9444, "\u0120sketch": 9445, "\u0120continuously": 9446, "\u0120healthy": 9447, "PAA": 9448, "\u0120Workflow": 9449, "\u0120counters": 9450, "children": 9451, "Feature": 9452, "\u0120prolonged": 9453, "Risk": 9454, "rand": 9455, "\u0120watermark": 9456, "\u0120rehears": 9457, "iders": 9458, "\u0120Sched": 9459, "\u0120unsafe": 9460, "into": 9461, "othing": 9462, "ellular": 9463, "\u0120deon": 9464, "\u0120phosph": 9465, "\u0120importance": 9466, "cium": 9467, "\u0120backtrack": 9468, "ordered": 9469, "scill": 9470, "\u0120println": 9471, "redient": 9472, "\u0120releases": 9473, "Where": 9474, "\u0120preserved": 9475, "\u0120captured": 9476, "Image": 9477, "\u0120financial": 9478, "\u0120lacks": 9479, "grpc": 9480, "\u0120young": 9481, "\u0120primarily": 9482, "ceived": 9483, "\u0120SL": 9484, "\u0120-=": 9485, "\u0120shall": 9486, "\u0120DL": 9487, "\u012038": 9488, "serif": 9489, "\u0120Group": 9490, "boot": 9491, "posing": 9492, "\u0120backoff": 9493, "\u0120frames": 9494, "missing": 9495, "\u0120mutable": 9496, "\u0120digest": 9497, "\u0120carbon": 9498, "relation": 9499, "\u0120microservices": 9500, "\u0120sender": 9501, "\u0120Question": 9502, "\u0120contribute": 9503, "TLS": 9504, "\u0120neighbors": 9505, "\u0120Optionally": 9506, "\u0120completely": 9507, "\u0120speech": 9508, "Manager": 9509, "emporary": 9510, "\u0120slices": 9511, "\u0120valuable": 9512, "Case": 9513, "Function": 9514, "atomic": 9515, "rof": 9516, "\u0120biologic": 9517, "\u0120hall": 9518, "ifiable": 9519, "ulating": 9520, "otypes": 9521, "\u0120THEN": 9522, "\u0120Direct": 9523, "\u0120FHIR": 9524, "\u0120Lead": 9525, "\u0120metast": 9526, "\u0120proving": 9527, "\u0120decimal": 9528, "\u0120extensions": 9529, "\u0120beneficial": 9530, "\u0120\u00e2\u012b\u00a5": 9531, "\u0120guarantee": 9532, "\u0120utilization": 9533, "\u0120prioritize": 9534, "\u0120pharmaceutical": 9535, "publish": 9536, "\u0120ECG": 9537, "\u0120scientific": 9538, "\u0120passenger": 9539, "\u0120PRIMARY": 9540, "84": 9541, "Bo": 9542, "Var": 9543, "rat": 9544, "tailwind": 9545, "zure": 9546, "\u0120tt": 9547, "\u0120IL": 9548, "unique": 9549, "emble": 9550, "\u0120PSA": 9551, "\u0120trunc": 9552, "\u0120'\\": 9553, "\u0120conserved": 9554, "\u0120Gra": 9555, ")\\,\\": 9556, "\u0120aware": 9557, "\u0120suggesting": 9558, "missible": 9559, "\u0120distinction": 9560, "}^\\": 9561, "\u0120vertical": 9562, "navbar": 9563, "steps": 9564, "\u0120acidosis": 9565, "Update": 9566, "ciliation": 9567, "\u0120applicable": 9568, "\u0120pagination": 9569, "04": 9570, "DO": 9571, "USER": 9572, "\u0120stock": 9573, "chat": 9574, "expr": 9575, "\u0120\",": 9576, "\u0120clamp": 9577, "\u0120disjoint": 9578, "\u0120describ": 9579, "\u0120pars": 9580, ")))": 9581, "\u0120audits": 9582, "\u0120sliding": 9583, "\u0120Clar": 9584, "\u0120monthly": 9585, "Only": 9586, "\u0120published": 9587, "\u0120adjacent": 9588, "(|": 9589, ")!": 9590, "AML": 9591, "JS": 9592, "Target": 9593, "Two": 9594, "gu": 9595, "ken": 9596, "\u0120press": 9597, "\u0120Cal": 9598, "\u0120atom": 9599, "\u0120Head": 9600, "\u0120Lower": 9601, "\u0120outbreak": 9602, "\u0120manip": 9603, "\u0120declining": 9604, "\u0120remember": 9605, "\u0120infar": 9606, "jsx": 9607, "\u0120poll": 9608, "\u0120trauma": 9609, "\u0120justifications": 9610, "\u0120fixes": 9611, "\u0120cyclic": 9612, "\u0120absence": 9613, "\u0120digital": 9614, "\u0120symptomatic": 9615, "\u0120black": 9616, "\u0120integrating": 9617, "OUNT": 9618, "dataclass": 9619, "Loading": 9620, "\u0120convenient": 9621, "apeutic": 9622, "![": 9623, "EL": 9624, "Graph": 9625, "Sync": 9626, "holders": 9627, "ks": 9628, "life": 9629, "mL": 9630, "\u0120fault": 9631, "uses": 9632, "imb": 9633, "\u0120extr": 9634, "umulative": 9635, "\u0120rating": 9636, "\u0120shutdown": 9637, "perature": 9638, "\u0120\u0120\u0120\u0120\u0120\u0120\u0120\u0120\u0120\u0120\u0120\u0120\u0120": 9639, "\u0120arises": 9640, "\u0120jump": 9641, "\u0120subtract": 9642, "\u0120decor": 9643, "\u0120locale": 9644, "PASS": 9645, "\u0120criterion": 9646, "dataset": 9647, "\u0120significantly": 9648, "bounded": 9649, "\u0120Assume": 9650, "\u0120calculus": 9651, "\u0120dedicated": 9652, "\u0120recognition": 9653, "\u0120pedest": 9654, "AF": 9655, "Art": 9656, "Lambda": 9657, "ME": 9658, "SC": 9659, "UL": 9660, "XX": 9661, "game": 9662, "hol": 9663, "hbar": 9664, "messages": 9665, "pages": 9666, "tp": 9667, "\u00e2\u0128": 9668, "\u0120io": 9669, "\u0120tends": 9670, "\u0120sans": 9671, "\u0120theore": 9672, "ethe": 9673, "stats": 9674, "\u0120onto": 9675, "\u0120{{": 9676, "\u0120Play": 9677, "andidate": 9678, "\u0120consensus": 9679, "\u0120spin": 9680, "\u0120Inf": 9681, "cret": 9682, "\u0120described": 9683, "\u0120whenever": 9684, "\u0120nonnegative": 9685, "Analyzing": 9686, "Week": 9687, "validation": 9688, "\u0120Alert": 9689, "\u0120diverg": 9690, "\u0120builder": 9691, "\u0120gradu": 9692, "\u0120partitioning": 9693, "\u0120temporal": 9694, "\u0120materials": 9695, "\u0120societies": 9696, "FILE": 9697, "\u0120nephro": 9698, "\u0120narrative": 9699, "\u0120initiatives": 9700, "\u0120emotional": 9701, "\u0120crowded": 9702, ")$": 9703, "?**": 9704, "gar": 9705, "lif": 9706, "often": 9707, "zone": 9708, "atial": 9709, "environment": 9710, "\u0120swer": 9711, "\u0120wave": 9712, "\u0120oscill": 9713, "utrit": 9714, "\u0120lip": 9715, "\u0120TLS": 9716, "\u0120AWS": 9717, "rians": 9718, "\u0120unchanged": 9719, "erequis": 9720, "\u0120ML": 9721, "\u0120Hel": 9722, "\u0120abort": 9723, "illin": 9724, "\u0120defic": 9725, "\u0120Stakeh": 9726, "\u0120Version": 9727, "\u0120realistic": 9728, "\u0120runbooks": 9729, "neys": 9730, "And": 9731, "\u0120office": 9732, "bitmap": 9733, "\u0120]];": 9734, "\u0120treating": 9735, "\u0120competitor": 9736, "completed": 9737, "\u0120animals": 9738, "\u0120procedures": 9739, "\u0120skeleton": 9740, "\u0120Distinguish": 9741, "\u0120exercise": 9742, "\u0120begins": 9743, "\"[": 9744, ")^{-": 9745, "aa": 9746, "cop": 9747, "ike": 9748, "more": 9749, "oDB": 9750, "itespace": 9751, "\u0120mist": 9752, "\u0120birth": 9753, "\u0120onset": 9754, "\u0120onboarding": 9755, "\u0120Sw": 9756, "\u0120Save": 9757, "plugin": 9758, "\u0120tracing": 9759, "\u0120intra": 9760, "\u0120adopt": 9761, "\u0120plate": 9762, "cluded": 9763, "\u0120logistic": 9764, "\u0120attest": 9765, "\u0120finds": 9766, "echanism": 9767, "Channel": 9768, "\u0120divided": 9769, "\u0120Repe": 9770, "\u0120Monitoring": 9771, "\u0120Newton": 9772, "optim": 9773, "\u0120symbols": 9774, "Users": 9775, "legal": 9776, "\u0120behaviors": 9777, "\u0120attendees": 9778, "\u0120deontology": 9779, "Root": 9780, "`/`": 9781, "oled": 9782, "vw": 9783, "\u0120----------------": 9784, "\u0120tf": 9785, "isy": 9786, "\u0120bluep": 9787, "\u0120ops": 9788, "\u0120elic": 9789, "\u0120epsilon": 9790, "\u0120npm": 9791, "\u0120aren": 9792, "\u0120notification": 9793, "\u0120adult": 9794, "logger": 9795, "\u0120extended": 9796, "\u0120attract": 9797, "contact": 9798, "\u0120biases": 9799, "\u0120division": 9800, "\u0120affects": 9801, "\u0120indicate": 9802, "\u0120removal": 9803, "}`);": 9804, "Second": 9805, "\u0120attacks": 9806, "\u0120membran": 9807, "Limiter": 9808, "\u0120pseudocode": 9809, "\u0120smoking": 9810, "\u0120quotient": 9811, "\u0120MAX": 9812, "\u0120globally": 9813, "Book": 9814, "Fix": 9815, "MM": 9816, "Width": 9817, "`**": 9818, "direction": 9819, "guard": 9820, "hooks": 9821, "iet": 9822, "|=": 9823, "ino": 9824, "information": 9825, "\u0120win": 9826, "\u0120today": 9827, "\u0120video": 9828, "\u0120proph": 9829, "\u0120gRPC": 9830, "\u0120Ab": 9831, "\u0120Mars": 9832, "\u0120approved": 9833, "\u0120jitter": 9834, "\u0120$(": 9835, "\u0120buy": 9836, "trast": 9837, "\u0120verbose": 9838, "collect": 9839, "Project": 9840, "\u0120member": 9841, "dapt": 9842, "\u0120callback": 9843, "\u0120containers": 9844, "\u0120ethically": 9845, "\u0120separated": 9846, "\u0120integrated": 9847, "\u0120hemat": 9848, "Address": 9849, "express": 9850, "ikes": 9851, "CRET": 9852, "\u0120emphasizing": 9853, "cinoma": 9854, "\u0120couns": 9855, "UTF": 9856, "\u0120wrapper": 9857, "\u0120employee": 9858, "\u0120drops": 9859, "widehat": 9860, "\u0120KPIs": 9861, "\u0120struggling": 9862, "Api": 9863, "Branch": 9864, "BLOCK": 9865, "Dir": 9866, "PP": 9867, "Source": 9868, "cend": 9869, "dry": 9870, "lfloor": 9871, "multi": 9872, "rfloor": 9873, "\u0120))": 9874, "\u0120tuning": 9875, "\u0120slope": 9876, "lets": 9877, "\u0120conference": 9878, "\u0120ISO": 9879, "\u0120gast": 9880, "verified": 9881, "\u0120<-": 9882, "\u0120UX": 9883, "aker": 9884, "Construct": 9885, "\u0120depletion": 9886, "tox": 9887, "::{": 9888, "positions": 9889, "trivial": 9890, "\u0120hypox": 9891, "ginx": 9892, "\u0120healthcare": 9893, "\u0120\u00ce\u00b1": 9894, "\u0120\u00ce\u00b5": 9895, "\u0120namespace": 9896, "\u0120degrees": 9897, "\u0120Continuous": 9898, "\u0120switching": 9899, "\u0120navigate": 9900, "\u0120Phase": 9901, "Buffer": 9902, "\u0120incremental": 9903, "\u0120pedestrians": 9904, ")',": 9905, ")}(": 9906, "=[\"": 9907, "Fetch": 9908, "Middleware": 9909, "clo": 9910, "oen": 9911, "inition": 9912, "\u0120slot": 9913, "\u0120bip": 9914, "olation": 9915, "oting": 9916, "-------": 9917, "\u0120rash": 9918, "\u0120comms": 9919, "\u0120\"./": 9920, "\u0120Dashboard": 9921, "\u0120reserve": 9922, "avor": 9923, "\u0120differently": 9924, "\u0120soon": 9925, "\u0120transl": 9926, "\u0120Confirm": 9927, "\u0120userId": 9928, "trust": 9929, "\u0120themes": 9930, "\u0120getting": 9931, "\u0120...,": 9932, "SET": 9933, "\u0120urban": 9934, "upper": 9935, "\u0120diagram": 9936, "uffix": 9937, "\u0120authorization": 9938, "\u0120eigenv": 9939, "HTML": 9940, "\u0120bugs": 9941, "\u0120chunks": 9942, "signed": 9943, "\u0120firmware": 9944, "ultiply": 9945, "sthma": 9946, "dosterone": 9947, "Core": 9948, "PRE": 9949, "house": 9950, "ira": 9951, "rator": 9952, "\u0120tension": 9953, "\u0120picture": 9954, "enter": 9955, "omous": 9956, "\u0120vendor": 9957, "\u0120Clear": 9958, "\u0120DFS": 9959, "ocy": 9960, "ponin": 9961, "spacing": 9962, "\u0120phases": 9963, "\u0120Context": 9964, "\u0120decrypt": 9965, "ractory": 9966, "redis": 9967, "ENV": 9968, "Chart": 9969, "temp": 9970, "driving": 9971, "\u0120reported": 9972, "\u0120exposed": 9973, "\u0120Architecture": 9974, "unknown": 9975, "\u0120simplified": 9976, "\u0120symmetry": 9977, "\u0120receives": 9978, "\u0120precedent": 9979, "\u0120sanit": 9980, "\u0120psychosis": 9981, "\u0120Deployment": 9982, "Home": 9983, "MB": 9984, "Of": 9985, "bus": 9986, "fields": 9987, "prem": 9988, "xity": 9989, "\u0120slower": 9990, "\u0120cumulative": 9991, "rapper": 9992, "\u0120DO": 9993, "\u0120bypass": 9994, "arest": 9995, "\u0120MR": 9996, "\u0120spir": 9997, "\u0120perman": 9998, "\u0120editor": 9999, "\u0120backward": 10000, "\u0120filled": 10001, "ggreg": 10002, "\u0120breaks": 10003, "\u0120continuation": 10004, "\u0120offers": 10005, "\u0120privile": 10006, "\u0120diagnostics": 10007, "listen": 10008, "italize": 10009, "\u0120formatting": 10010, "\u0120INDEX": 10011, "\u0120determinant": 10012, "limited": 10013, "\u0120Usage": 10014, "\u0120barrier": 10015, "\u0120couple": 10016, "\u0120judgment": 10017, "\u0120empiric": 10018, "aligned": 10019, "\u0120John": 10020, "\u0120roughly": 10021, ")\")": 10022, "44": 10023, "Generate": 10024, "Me": 10025, "Pos": 10026, "berg": 10027, "rates": 10028, "onomy": 10029, "icorn": 10030, "\u0120ox": 10031, "ollow": 10032, "\u0120SB": 10033, "\u0120Safety": 10034, "\u0120comfort": 10035, "\u0120PK": 10036, "\u0120Py": 10037, "eward": 10038, "\u0120workloads": 10039, "\u0120relies": 10040, "\u0120remediation": 10041, "\u0120distances": 10042, "\u0120mainly": 10043, "\u0120reader": 10044, "\u0120dependence": 10045, "\u0120blocked": 10046, "\u0120calling": 10047, "\u0120converge": 10048, "\u0120Default": 10049, "\u0120\u00ce\u00bb": 10050, "arantine": 10051, "Params": 10052, "\u0120competing": 10053, "\u0120fatigue": 10054, "history": 10055, "\u0120fluctu": 10056, "\"].": 10057, "76": 10058, "Local": 10059, "Left": 10060, "SP": 10061, "Test": 10062, "\u0120ip": 10063, "\u0120cry": 10064, "\u0120five": 10065, "\u0120wild": 10066, "imm": 10067, "\u0120shorter": 10068, "\u0120Hard": 10069, "serve": 10070, "\u0120Long": 10071, "\u0120Local": 10072, "compute": 10073, "\u0120Job": 10074, "\u0120formation": 10075, "ytic": 10076, "127": 10077, "\u0120targeting": 10078, "\u0120combining": 10079, "nowledge": 10080, "\u0120candid": 10081, "\u0120transportation": 10082, "\u0120dynamically": 10083, "\u0120Board": 10084, "\u0120breathing": 10085, "\u0120myocardial": 10086, "\u0120TIMESTAM": 10087, "?\"": 10088, "Ma": 10089, "Most": 10090, "UI": 10091, "\\}.": 10092, "feed": 10093, "hr": 10094, "tmp": 10095, "xs": 10096, "induced": 10097, "\u0120Target": 10098, "\u0120Call": 10099, "\u0120CAP": 10100, "\u0120Practical": 10101, "\u0120cancellation": 10102, "\u0120May": 10103, ").\",": 10104, "\u0120primit": 10105, "\u0120plugins": 10106, "\u0120useState": 10107, "\u0120pathways": 10108, "\u0120variation": 10109, "param": 10110, "\u0120localized": 10111, "mpty": 10112, "\u0120calcium": 10113, "120": 10114, "rollers": 10115, "interest": 10116, "atsby": 10117, "\u0120satisfying": 10118, "\u0120radio": 10119, "\u0120membership": 10120, "\u0120watchdog": 10121, "\u0120substantially": 10122, "\u0120casc": 10123, "eterministic": 10124, "\u0120electroly": 10125, "\u0120prophyl": 10126, "?;": 10127, "Vec": 10128, "frequency": 10129, "gressive": 10130, "hot": 10131, "{\"": 10132, "enza": 10133, "\u0120six": 10134, "\u0120coding": 10135, "ley": 10136, "\u0120mEq": 10137, "\u0120restart": 10138, "ament": 10139, "thro": 10140, "andbox": 10141, "\u0120Evidence": 10142, "\u0120BIG": 10143, "\u0120'%": 10144, "\u0120prevalence": 10145, "auses": 10146, "\u0120kg": 10147, "Invent": 10148, "\u0120coron": 10149, "issing": 10150, "\u0120Kubernetes": 10151, "\u0120directories": 10152, "reshold": 10153, "\u0120mechanical": 10154, "Enter": 10155, "\u0120emergent": 10156, "println": 10157, "Show": 10158, "\u0120removing": 10159, "\u0120triggered": 10160, "\u0120statistically": 10161, "\u0120reconstruction": 10162, "\u0120Uses": 10163, "\u0120translateY": 10164, "\u0120venues": 10165, "\u0120disruptive": 10166, "\u0120swerving": 10167, "oenix": 10168, "88": 10169, "DER": 10170, "Omega": 10171, "Rev": 10172, "zeta": 10173, "\u0120------": 10174, "\u0120ancest": 10175, "arbon": 10176, "\u0120bed": 10177, "\u0120ey": 10178, "\u0120steady": 10179, "existing": 10180, "\u0120\"\\": 10181, "Stack": 10182, "outs": 10183, "\u0120Dem": 10184, "\u0120Me": 10185, "\u0120composite": 10186, "\u0120sees": 10187, "\u0120systolic": 10188, "\u0120permission": 10189, "\u0120sole": 10190, "tration": 10191, "\u0120colo": 10192, "Props": 10193, "\u0120durable": 10194, "\u0120maintainability": 10195, "\u0120antibodies": 10196, "\u0120Integration": 10197, "Created": 10198, "\u0120eigenvalue": 10199, "\u0120spectral": 10200, "Account": 10201, "\u0120profession": 10202, "\u0120susceptible": 10203, "\u0120Philosoph": 10204, "\u0120maternal": 10205, "\u0120orthogonal": 10206, ":\\": 10207, "DATE": 10208, "Evalu": 10209, "Some": 10210, "language": 10211, "tor": 10212, "erence": 10213, "ened": 10214, "lean": 10215, "asts": 10216, "\u0120Tem": 10217, "\u0120TDD": 10218, "\u0120meets": 10219, "ldots": 10220, "\u0120lemma": 10221, "\u0120Big": 10222, "ports": 10223, "\u0120disable": 10224, "\u0120expiry": 10225, "\u0120manually": 10226, "\u0120managed": 10227, "\u0120edit": 10228, "\u0120configurations": 10229, "\u0120End": 10230, "Any": 10231, "\u0120separately": 10232, "\u0120remainder": 10233, "\u0120simplify": 10234, "\u0120confirmation": 10235, "\u0120heavily": 10236, "straints": 10237, "\u0120traditional": 10238, "\u0120administ": 10239, "Payment": 10240, "\u0120shapes": 10241, "ktor": 10242, "\u0120government": 10243, "\u0120ambiguity": 10244, "etheus": 10245, "37": 10246, "Guard": 10247, "Support": 10248, "design": 10249, "}|": 10250, "}-\\": 10251, "\u0120tech": 10252, "\u0120spl": 10253, "\u0120cort": 10254, "icence": 10255, "\u0120reactive": 10256, "\u0120nec": 10257, "\u0120stim": 10258, "\u0120Sy": 10259, "\u0120rx": 10260, "\u0120intensity": 10261, "\u0120contents": 10262, "\u0120evolve": 10263, "\u0120evolving": 10264, "\u0120Live": 10265, "trace": 10266, "herent": 10267, "\u0120specification": 10268, "\u0120summarize": 10269, "\u0120optimizer": 10270, "\u0120putting": 10271, "\u0120buckets": 10272, "Route": 10273, "\u0120Column": 10274, "ollback": 10275, "embly": 10276, "parency": 10277, "\u0120incorporate": 10278, "NG": 10279, "mk": 10280, "mits": 10281, "\u0120som": 10282, "\u0120pq": 10283, "\u0120reactions": 10284, "\u0120revenue": 10285, "ilic": 10286, "urpose": 10287, "\u0120Ag": 10288, "\u0120FI": 10289, "\u0120Network": 10290, "illary": 10291, "strument": 10292, "\u0120classify": 10293, "reatment": 10294, "\u0120entities": 10295, "\u0120Application": 10296, "\u0120Whether": 10297, "Common": 10298, "\u0120adjusted": 10299, "\u0120transforms": 10300, "\u0120slide": 10301, "OUR": 10302, "\u0120introduce": 10303, "\u0120Management": 10304, "\u0120volatile": 10305, "\u0120Iterable": 10306, "\u0120ordinary": 10307, "\u0120relativistic": 10308, "\u0120workshops": 10309, "erequisites": 10310, "*(": 10311, "large": 10312, "\u0120dx": 10313, "usions": 10314, "accept": 10315, "igations": 10316, "hex": 10317, "\u0120ISR": 10318, "urance": 10319, "\u0120sharp": 10320, "\u0120implicit": 10321, "irestore": 10322, "\u0120Both": 10323, "\u0120Her": 10324, "\u0120Link": 10325, "putation": 10326, "\u0120Index": 10327, "\u0120Vis": 10328, "\u0120decay": 10329, "\u0120\\(\\{": 10330, "\u0120identities": 10331, "ributes": 10332, "\u0120partially": 10333, "\u0120satur": 10334, "\u0120proofs": 10335, "ATION": 10336, "\u0120128": 10337, "roduce": 10338, "Defining": 10339, "links": 10340, "\u0120survive": 10341, "\u0120embedding": 10342, "\u0120prioritized": 10343, "\u0120Perform": 10344, "\u0120magnitude": 10345, "\u0120orchestration": 10346, "\u0120Early": 10347, "\u0120Initialize": 10348, "'`": 10349, "VP": 10350, "aC": 10351, "cout": 10352, "cloud": 10353, "hold": 10354, "middleware": 10355, "\u0120anch": 10356, "omiting": 10357, "\u0120`-": 10358, "agent": 10359, "\u0120admission": 10360, "\u0120HI": 10361, "\u0120HIV": 10362, "\u0120Theta": 10363, "\u012048": 10364, "\u0120interior": 10365, "Contain": 10366, "\u0120overload": 10367, "\u0120feels": 10368, "\u0120reply": 10369, "SECRET": 10370, "\u0120adjustment": 10371, "\u0120registers": 10372, "\u0120weekly": 10373, "\u0120revitalize": 10374, "\u0120attacker": 10375, "\u0120bacteria": 10376, "\u0120stabilization": 10377, "\u0120abnormalities": 10378, "\u0120illustrate": 10379, "\u0120multiply": 10380, "\u0120correlations": 10381, "Mutex": 10382, "\u0120inconsistent": 10383, "\u00e2\u0128\u0134": 10384, "\u0120blueprint": 10385, "<!": 10386, "Both": 10387, "Deploy": 10388, "KE": 10389, "Last": 10390, "Part": 10391, "QTT": 10392, "Sign": 10393, "\\;": 10394, "cat": 10395, "lt": 10396, "network": 10397, "numeric": 10398, "vature": 10399, "entity": 10400, "idential": 10401, "\u0120Cloud": 10402, "\u0120orbit": 10403, "exist": 10404, "\u0120Rest": 10405, "\u0120Equ": 10406, "\u0120Bob": 10407, "\u0120qual": 10408, "blem": 10409, "\u0120ket": 10410, "\u0120infusion": 10411, "ERS": 10412, "\u0120diure": 10413, "\u0120encode": 10414, "regular": 10415, "\u0120pointwise": 10416, "\u0120earth": 10417, "Values": 10418, "\u0120slug": 10419, "\u0120scheduled": 10420, "\u0120adaptation": 10421, "\u0120differs": 10422, "\u0120protocols": 10423, "green": 10424, "\u0120expressed": 10425, "\u0120uppercase": 10426, "\u0120panel": 10427, "\u0120snapshots": 10428, "\u0120waste": 10429, "sensitive": 10430, "\u0120vitamin": 10431, "\u0120hormone": 10432, "parsers": 10433, "\u0120HIPAA": 10434, ".),": 10435, "98": 10436, "cross": 10437, "docker": 10438, "hav": 10439, "native": 10440, "\u0120tie": 10441, "\u0120craft": 10442, "\u0120paid": 10443, "\u0120fu": 10444, "ilit": 10445, "\u0120forced": 10446, "\u0120gather": 10447, "\u0120rises": 10448, "ibold": 10449, "encoding": 10450, "ffers": 10451, "\u0120|=": 10452, "\u0120identifier": 10453, "\u0120flash": 10454, "scope": 10455, "\u0120derivatives": 10456, "\u0120therapeutic": 10457, "recursive": 10458, "\u0120United": 10459, "\u0120sentiment": 10460, "\u0120visualization": 10461, "\u0120malign": 10462, "\u0120dedup": 10463, "allowed": 10464, "\u00e2\u012a\u0134": 10465, "\u0120Carnot": 10466, "\u0120Americ": 10467, "\u0120believe": 10468, "semibold": 10469, "\u0120steroid": 10470, "\u0120debugging": 10471, "subscribe": 10472, "\u0120movie": 10473, "8000": 10474, "Null": 10475, "ROU": 10476, "pq": 10477, "todo": 10478, "\u0120\u0120\u010a\u0120\u0120\u0120\u0120": 10479, "orld": 10480, "\u0120pow": 10481, "\u0120purs": 10482, "\u0120fa": 10483, "icillin": 10484, "utral": 10485, "look": 10486, "\u0120stated": 10487, "\u0120prote": 10488, "\u0120expl": 10489, "\u0120Sort": 10490, "\u0120Suppose": 10491, "\u0120Best": 10492, "\u0120Boot": 10493, "\u0120Better": 10494, "\u0120\u0120\u0120\u0120\u0120\u0120\u0120\u0120\u0120\u0120\u0120\u0120\u0120\u0120": 10495, "ailure": 10496, "avoid": 10497, "lli": 10498, "Cons": 10499, "\u0120keywords": 10500, "\u0120relax": 10501, "\u0120fetching": 10502, "Submit": 10503, "However": 10504, "patientId": 10505, "\u0120inherit": 10506, "media": 10507, "\u0120participants": 10508, "\u0120beliefs": 10509, "\u0120tangent": 10510, "!(": 10511, ">)": 10512, "IF": 10513, "IO": 10514, "Tem": 10515, "]`.": 10516, "\u0120tract": 10517, "erce": 10518, "repos": 10519, "origin": 10520, "\u0120dst": 10521, "\u0120rewrite": 10522, "acob": 10523, "ecraft": 10524, "claim": 10525, "\u0120Dep": 10526, "\u0120Firebase": 10527, "\u0120''": 10528, "\u0120adapter": 10529, "\u0120mapped": 10530, "\u0120seiz": 10531, "\u0120Window": 10532, "anged": 10533, "\u0120idempotent": 10534, "cred": 10535, "ythm": 10536, "\u0120depression": 10537, "\u0120checkout": 10538, "Examples": 10539, "\u0120whereas": 10540, "\u0120insufficient": 10541, "\u0120assists": 10542, "\u0120predictable": 10543, "\u0120peace": 10544, "Class": 10545, "\u0120negatives": 10546, "\u0120carries": 10547, "/*.": 10548, "\u0120circular": 10549, "\u0120Report": 10550, "\u0120diffuse": 10551, "\u0120regulated": 10552, "cosystem": 10553, "SHA": 10554, "\u0120Collect": 10555, "Detail": 10556, "\u0120horizontal": 10557, "\u0120spacecraft": 10558, "\u0120traversal": 10559, "63": 10560, "BASE": 10561, "Locale": 10562, "Network": 10563, "Send": 10564, "WORD": 10565, "\\);": 10566, "django": 10567, "vance": 10568, "renal": 10569, "\u0120thus": 10570, "esity": 10571, "\u0120fri": 10572, "etics": 10573, "\u0120conduct": 10574,
[...]
